ffffffe8
ffffff46
000000f2
0000000e
ffffffbb
fffffff5
00000010
000000a3
000000a9
0000002c
ffffff9f
ffffffc3
ffffffc5
ffffffe0
000000a4
fffffefd
ffffffc5
ffffff59
000000a8
000000f8
ffffff20
000001af
00000081
ffffffec
ffffffa1
ffffff4e
00000007
ffffffe2
0000009e
00000006
ffffff8e
ffffffb8
fffffe7e
ffffffc2
0000011c
fffffefd
00000082
0000009e
ffffff8d
ffffffd6
00000059
000000a9
fffffff7
0000005b
000000b1
0000005f
00000042
fffffffe
fffffffb
ffffff65
ffffffca
000000d3
00000102
ffffffd2
ffffffdc
00000291
000000a6
0000007b
00000129
0000006e
ffffff6c
000000f8
ffffffe3
000000f6
