fffffbe1
fffffc03
00000333
fffffa3a
fffffb9d
fffffcf4
00000183
fffffaa1
00000446
000003ec
000001c2
fffffb2a
000004c9
000004b8
000002b5
0000041b
0000037f
fffffbe0
0000041a
0000040c
fffffb9b
fffffbe8
00000374
00000526
fffffec1
fffffbc0
fffffb52
0000041d
000005a2
000004a2
0000034b
0000066d
fffffb50
000001a9
0000041f
fffffa2f
fffffc86
ffffff9b
fffffbca
00000327
fffffa45
fffffb40
fffffb59
fffff8fc
fffff7e8
000004f1
fffffab2
000004c2
00000246
fffffaf2
fffffaf9
00000438
fffffa3c
0000041c
ffffff67
fffffb6c
0000059d
fffffb9e
00000696
00000390
000004b2
fffffabb
00000432
000004ab
