2d  49  51  00  00
00  3f  74  00  00
00  00  5d  00  00
00  00  5b  00  00
0a  11  57  00  00
00  00  2d  00  00
00  00  15  00  00
00  00  00  00  00
00  00  00  17  19
08  20  2e  2b  01
00  03  12  00  00
00  00  16  40  3f
00  09  0a  30  2d
00  00  00  00  21
00  00  00  00  00
02  03  19  06  13
00  00  1b  13  2e
0d  0d  2a  00  1a
0d  15  21  00  0d
00  00  31  0e  0e
03  25  5e  48  04
13  19  3f  18  04
00  00  07  1b  00
00  00  10  15  15
00  00  00  00  05
02  27  1e  27  00
02  21  00  00  00
0a  00  00  00  20
2a  00  00  00  00
00  00  00  0b  00
00  0a  0b  00  00
03  00  00  00  00
11  07  00  00  53
00  00  4b  00  2f
00  00  00  16  00
00  3b  00  3c  00
00  00  14  00  00
28  00  60  24  00
00  00  29  00  2a
00  4c  0b  00  21
04  36  00  34  00
13  24  00  09  00
02  00  00  00  00
02  00  00  00  16
1b  00  41  00  00
32  00  10  1b  00
00  03  1f  00  2c
00  6d  00  00  09
22  11  00  00  17
00  00  00  00  00
0c  2b  21  66  66
02  0d  00  07  35
00  00  00  05  00
00  00  00  00  00
00  00  00  00  00
00  00  15  00  29
0a  00  28  13  1e
03  07  01  05  11
00  05  35  17  4a
00  00  1a  2b  3f
00  00  00  10  23
13  00  4a  3f  4d
08  1c  79  61  7f
00  38  42  3b  7f
15  4a  00  31  58
1d  7a  30  7f  5b
05  39  4b  7f  4c
00  00  10  5c  55
00  27  07  44  1d
00  13  18  39  02
00  00  1e  21  1a
00  00  30  1a  4c
00  2a  47  7f  7f
00  2f  40  7f  6e
00  00  0d  53  2f
58  2f  37  44  14
7f  17  00  2d  00
7f  00  00  41  00
7f  00  00  62  00
7f  00  00  2c  00
7f  00  00  57  00
7f  00  00  7e  00
58  00  00  6b  00
62  28  13  73  00
75  5f  00  00  00
7f  23  00  02  00
7f  00  00  00  08
7f  00  00  0b  00
5c  00  18  00  00
1e  00  00  00  00
05  00  00  00  00
21  00  54  48  10
57  00  00  5c  00
7f  00  00  77  00
75  00  00  7f  00
6b  00  00  7a  00
55  00  22  7f  00
54  00  00  51  00
35  1e  00  44  00
1b  00  00  08  00
05  00  07  00  08
32  00  19  00  01
1c  00  13  00  05
1e  00  0d  00  00
1f  00  00  00  00
2d  00  00  00  0d
2e  00  00  00  40
1c  00  02  00  0a
25  00  00  30  00
21  00  00  00  00
00  00  00  00  36
00  00  00  00  72
05  00  00  16  00
25  00  00  17  00
08  00  00  0d  00
18  00  00  00  2f
02  00  00  00  46
00  00  0e  00  09
01  00  16  00  00
2b  00  00  00  00
40  00  09  00  00
0e  00  00  00  00
0f  00  00  00  00
06  00  00  00  00
03  00  00  13  00
00  00  00  00  00
00  32  30  00  00
2f  00  7f  00  00
5a  1a  74  1b  1a
49  08  7f  00  43
48  00  6d  00  04
1d  00  00  00  00
00  14  12  00  00
12  00  30  00  00
1d  08  0d  20  11
00  16  08  09  2d
00  08  14  00  00
00  00  00  00  00
00  00  00  20  1d
00  09  24  37  7f
00  17  70  00  7f
00  3f  6c  0f  00
21  31  7f  00  00
54  00  79  00  00
39  00  00  09  09
00  00  0e  00  1b
00  00  0c  0b  00
00  1c  0d  03  00
0d  00  2a  00  00
12  00  00  00  00
00  0a  00  0c  00
00  15  0f  06  00
00  00  01  0f  00
00  00  00  00  00
00  00  00  00  00
00  00  00  00  00
00  00  00  00  00
00  00  00  00  00
00  00  00  00  00
00  00  00  00  00
00  00  00  00  2e
00  00  00  4d  16
00  00  00  51  05
00  00  3d  57  00
00  00  1e  00  01
00  06  29  00  11
00  00  00  00  01
00  00  00  00  00
00  00  00  00  00
00  00  00  00  00
00  00  00  00  00
00  00  00  00  00
00  00  00  00  03
00  00  00  00  00
00  00  00  00  01
00  00  00  00  00
00  00  00  00  00
00  00  00  00  00
00  00  00  00  00
00  00  00  00  00
00  00  00  00  00
00  06  00  00  00
00  11  00  00  00
00  02  00  00  00
00  12  00  00  00
00  34  00  00  00
00  20  00  00  00
00  00  00  05  00
00  0d  00  0f  00
00  1c  01  00  00
00  57  05  00  00
00  3f  00  00  00
00  36  00  00  00
00  24  04  00  06
00  00  00  00  20
00  02  22  00  4f
00  00  00  12  00
00  34  00  2f  00
00  1b  00  00  01
00  00  00  00  0a
00  0c  00  00  00
03  00  00  00  00
00  00  00  00  00
00  00  00  00  00
00  00  00  00  00
00  00  00  00  00
00  30  00  00  00
11  5b  03  00  0e
3f  01  1b  18  1f
17  00  2b  18  00
00  3b  16  00  00
1b  36  00  00  00
2e  00  00  00  00
00  00  00  00  00
00  00  00  00  00
00  00  00  00  00
00  00  00  00  00
00  00  00  00  00
00  25  00  00  00
12  02  00  09  00
02  00  02  00  00
00  00  00  00  00
00  00  00  00  00
00  1a  00  1f  00
00  0b  12  00  00
0f  00  02  00  00
00  00  00  00  00
00  00  00  00  00
02  00  00  00  00
08  00  00  00  00
2a  00  00  00  00
30  00  00  00  00
16  00  00  00  00
00  13  00  00  00
00  00  00  00  00
00  00  46  00  00
00  00  17  00  00
00  00  00  00  00
00  3a  00  00  00
2a  05  00  49  00
49  00  00  14  00
11  00  15  00  00
00  1e  2a  00  00
00  00  00  00  00
03  00  00  00  00
2f  00  00  00  00
44  00  00  00  00
00  00  00  00  00
00  00  00  00  00
29  00  00  00  00
06  04  07  00  00
02  06  07  00  00
00  08  07  00  00
00  06  07  00  00
07  07  07  00  00
07  07  07  00  00
07  07  07  00  00
07  07  00  00  00
07  07  06  00  00
07  07  00  00  00
07  00  00  00  00
07  04  00  03  06
07  00  00  00  00
07  07  07  02  00
07  07  07  00  00
07  00  00  00  00
07  04  00  00  00
07  00  00  00  00
07  07  00  00  00
07  07  00  00  00
07  07  07  00  00
00  00  00  00  00
00  00  1e  00  00
00  00  0d  00  00
00  00  05  04  01
1c  00  00  46  00
14  00  00  41  1a
00  00  00  19  00
12  02  00  4b  00
10  0f  00  73  18
00  00  00  00  00
00  00  00  5a  00
3f  00  31  7f  32
55  00  00  29  1e
0a  0b  00  09  00
00  21  00  73  06
43  00  00  2d  00
38  1b  0a  64  00
00  00  47  7f  3d
00  00  0d  3f  14
29  00  00  00  00
1d  08  00  00  00
21  00  00  2c  00
1f  00  00  49  15
03  00  00  00  00
1f  37  00  02  00
0f  7f  15  2c  10
04  5a  1b  57  00
00  2d  14  64  18
0c  0a  00  38  13
00  10  00  02  0a
00  08  00  04  05
00  00  00  00  00
00  00  00  00  15
00  00  00  00  00
00  00  00  00  00
00  00  00  03  05
00  00  01  00  00
00  12  00  06  06
00  00  00  00  18
00  00  00  00  00
00  00  00  00  00
00  00  00  03  06
00  00  00  00  24
00  00  00  00  00
00  00  00  00  00
12  00  10  02  06
00  0a  00  00  03
00  00  00  01  06
00  00  00  00  0e
00  00  00  00  03
00  00  0c  00  00
00  00  00  00  06
00  00  00  00  1a
00  00  00  00  00
19  00  00  00  00
0c  2b  00  1d  00
00  00  00  0e  31
00  00  16  00  00
00  00  00  00  00
00  00  00  00  00
00  00  11  00  00
2c  00  08  1e  28
2e  3f  00  00  14
00  00  00  4a  00
0c  00  00  50  0b
0c  2b  38  00  36
00  00  65  6f  00
00  64  00  00  00
00  78  00  00  31
00  0d  70  00  18
4d  00  00  25  00
00  00  00  00  00
00  00  00  00  00
00  00  00  00  00
00  00  00  00  00
00  00  00  00  02
02  00  00  00  00
2a  00  00  01  00
12  40  00  00  00
00  00  00  00  00
00  00  00  00  00
0a  00  00  00  00
0a  00  00  00  00
0a  00  09  00  0a
00  00  00  00  00
00  00  00  00  00
00  00  00  00  00
0a  00  05  00  07
0a  00  05  00  0a
00  00  01  01  0a
00  00  00  0a  0a
00  00  00  0a  0a
0f  00  0a  0a  0a
02  00  0a  0a  0a
0b  00  00  0c  03
0f  00  00  0a  00
01  00  00  00  00
0a  00  00  00  00
0a  00  00  00  00
0a  00  00  00  00
0a  00  0b  02  0a
0a  0a  0a  0a  0a
0a  0a  0a  0a  0a
0a  0a  0a  0a  0a
00  00  0c  40  38
00  00  0a  44  33
00  00  13  56  20
00  10  23  37  11
07  12  35  22  00
0b  15  1c  47  5c
05  0c  21  61  65
01  00  14  57  25
10  00  1b  7f  50
15  00  3f  7e  2c
11  3d  7f  52  2e
28  7f  7f  55  65
4c  7f  49  7f  7f
7d  7f  4b  7f  3e
7f  37  5c  7f  1b
45  29  7f  7f  17
03  35  7f  53  39
00  4c  7f  7f  3d
00  37  72  7f  2e
0c  63  56  3c  0b
1f  25  38  57  09
1a  0e  5f  7f  5d
15  7f  7f  7f  7f
4c  7f  7f  7f  32
5f  7f  6d  5b  1a
00  2b  1c  04  2c
00  60  05  26  69
09  37  00  30  36
03  47  0d  18  00
00  5f  35  0c  00
00  74  3c  00  00
00  56  00  00  00
00  5e  00  20  00
00  7f  00  3c  00
27  16  43  0f  02
01  55  74  00  06
00  7f  29  12  0d
00  7f  00  70  15
2d  5b  00  7f  00
15  00  25  7f  00
00  00  16  1d  11
00  5e  2c  00  58
00  7f  05  00  7f
33  37  00  23  20
1a  01  52  11  00
00  39  6f  11  00
00  7f  52  00  00
00  7f  00  00  00
28  5a  00  00  02
13  05  00  00  05
0a  03  00  00  00
00  00  00  00  00
09  00  00  00  00
09  09  01  09  00
09  09  09  09  09
09  00  02  1d  02
09  0a  08  00  00
09  00  00  00  00
09  09  09  09  09
09  09  09  09  09
09  09  09  09  09
09  09  09  09  09
09  09  09  09  09
09  09  09  09  09
09  09  09  09  09
09  09  09  09  09
09  09  00  1c  04
09  08  00  2a  00
09  09  00  00  00
09  07  00  02  00
09  09  09  09  09
09  09  09  09  09
09  09  09  09  09
09  09  09  09  09
09  09  09  09  09
0d  00  00  12  00
00  00  00  44  00
00  00  00  2b  0f
00  00  00  06  00
00  26  00  4e  02
00  29  12  13  00
00  16  00  66  00
00  20  0e  59  2c
00  00  08  00  00
00  00  13  2e  0a
00  12  00  04  00
00  13  08  52  00
00  00  00  4c  2d
00  01  00  00  00
00  08  00  00  00
02  00  00  00  00
00  00  00  06  00
00  00  00  16  00
00  00  00  2e  00
00  00  00  51  03
00  00  00  45  07
00  00  00  6b  00
00  17  00  7f  1c
00  18  0a  22  00
00  00  00  00  00
00  2d  00  04  00
19  3f  00  00  08
00  07  05  18  18
00  0c  08  09  55
04  0b  00  00  46
00  00  25  4a  4f
3c  2c  47  21  0b
00  7e  10  7f  17
2f  57  00  4d  00
20  1f  7f  49  00
3d  00  7f  00  2f
00  41  2d  00  40
07  7b  00  00  00
34  2d  00  00  00
59  64  30  00  00
15  7f  00  00  00
7f  28  00  00  00
7f  00  00  12  08
43  00  00  08  37
21  00  44  0d  7f
0d  00  00  4f  3b
0a  16  70  67  00
07  2a  00  04  00
37  00  00  1e  00
2a  00  00  00  13
39  22  01  7a  00
00  00  00  7f  00
2a  10  4e  5f  00
58  00  7f  2a  00
36  00  19  18  00
00  00  00  5a  00
04  00  00  4b  00
6b  00  77  47  00
18  00  7f  3e  00
49  00  0b  13  00
7f  00  00  0f  00
69  00  00  3d  00
67  00  00  1f  00
00  00  00  68  00
00  00  4e  42  00
00  36  11  00  00
00  79  00  00  00
72  6e  00  00  00
7f  00  02  21  00
1d  00  00  33  00
59  00  58  4b  00
26  00  00  57  00
5e  19  00  26  00
4b  00  7f  31  00
1e  00  00  00  00
0c  00  30  00  00
1d  00  4b  00  1e
15  03  76  00  00
19  00  6b  4e  00
00  00  26  14  00
00  05  27  1c  00
00  00  35  00  34
00  3a  7f  00  02
00  00  7f  6d  08
00  00  48  48  0a
27  00  00  00  00
54  00  00  00  00
67  5c  00  00  00
0a  0c  00  00  00
00  00  00  00  00
00  00  00  00  00
00  00  00  00  00
0b  00  00  00  00
1a  00  2f  00  00
1f  56  5f  00  00
00  00  71  75  00
09  00  00  01  00
18  00  00  00  00
1e  20  04  00  00
00  00  05  07  00
13  33  00  18  23
1b  3b  37  3c  5b
18  28  59  77  7f
16  1d  41  56  6f
12  28  7f  4b  4b
2a  26  6a  55  14
32  1f  5a  7f  63
28  31  00  5a  4d
1a  27  4d  5f  29
06  00  43  4b  00
1f  0e  32  7f  00
25  3b  00  54  0f
19  43  00  00  17
1d  2b  4d  46  15
4e  00  03  2f  00
5c  00  0c  73  00
65  6d  7f  7f  00
02  21  59  7f  00
08  0c  7b  7f  7e
0f  05  32  7f  5c
1f  00  2d  7f  7f
28  00  1a  7f  49
3c  1a  18  69  61
00  00  08  37  51
00  00  00  00  00
16  00  00  04  04
04  00  00  04  04
13  00  00  04  04
06  00  00  06  00
08  05  04  00  00
06  01  00  00  00
05  00  0f  07  00
04  04  0b  00  00
18  0c  00  00  00
0f  13  00  00  01
07  15  00  00  00
05  23  00  00  00
13  0b  00  00  00
03  00  00  00  00
00  00  00  00  00
00  00  00  00  00
00  01  00  00  02
00  00  00  00  04
00  00  19  09  00
04  04  26  00  00
04  26  22  00  00
04  18  00  00  00
04  09  00  00  00
04  04  0c  0e  00
04  04  09  01  00
00  00  00  00  00
00  00  00  00  00
00  00  00  00  00
00  00  00  00  00
00  00  00  00  00
00  00  00  00  00
00  00  00  00  00
00  00  00  00  00
00  00  00  00  00
00  00  00  00  00
00  00  00  00  00
00  00  02  02  00
00  00  00  15  0e
00  00  00  00  00
00  00  00  00  00
00  00  00  00  00
00  00  00  00  00
00  00  00  00  00
00  00  00  00  00
00  00  00  00  00
00  00  00  00  00
00  00  00  00  00
00  00  00  00  00
00  00  00  00  00
00  00  00  00  00
06  0b  00  00  02
0c  0f  00  00  0d
01  01  00  00  12
01  01  01  00  1e
01  01  01  00  1c
01  01  01  00  10
01  01  01  00  13
01  01  01  00  27
01  01  01  00  13
01  01  01  00  05
01  01  01  00  0a
01  01  01  00  00
01  01  01  00  08
01  01  01  00  1a
01  01  01  00  17
01  00  00  00  22
01  00  00  02  24
01  00  00  15  19
01  01  00  03  1f
01  01  00  00  01
01  01  00  00  17
00  00  0e  00  1e
00  00  19  00  26
00  0c  11  00  18
00  0a  0c  01  01
00  01  27  17  2a
03  08  7c  10  19
24  15  2b  3b  00
17  06  7f  00  1e
4e  2c  22  7f  00
4e  12  59  15  00
4b  42  0a  00  11
40  13  00  07  00
00  6c  00  00  00
1b  27  00  64  7f
07  00  49  7f  00
00  38  5f  00  00
25  67  00  00  00
00  67  00  0e  7f
23  00  49  7f  00
00  00  7f  11  00
00  4e  7e  00  00
00  40  73  00  00
00  2a  5d  04  00
00  5c  5f  00  00
1e  00  65  00  00
32  00  16  47  7a
58  00  5a  7f  00
5c  7f  41  19  29
7f  3c  00  00  00
00  00  00  00  00
00  00  05  00  00
00  2d  03  00  00
20  46  00  00  00
3d  2c  00  00  00
3c  00  00  01  00
42  00  00  00  00
1a  02  00  0c  00
0c  07  08  1c  00
23  24  00  09  00
1a  1f  00  00  00
20  00  00  00  00
17  01  00  00  00
1b  00  00  00  00
08  00  00  00  00
00  00  00  00  00
00  00  03  00  00
00  11  2f  00  00
00  49  0f  00  00
14  7b  00  09  0b
14  1e  00  34  00
1c  04  1f  3b  00
2b  1f  20  00  00
56  00  08  00  00
43  00  00  00  00
3d  00  00  00  00
7f  00  00  00  00
7f  00  1c  00  18
7f  67  02  01  00
7f  46  23  00  00
7f  2d  7f  00  33
7f  0c  5f  05  00
6e  00  06  00  19
7a  23  27  00  21
7f  12  00  22  00
7f  3a  27  51  00
7f  00  7f  00  00
7e  00  7f  00  19
00  7f  17  00  52
31  7f  00  00  17
7f  51  00  7f  00
7f  38  00  7b  00
7f  00  33  61  00
7f  00  7f  00  26
7f  07  7f  00  0b
7f  7f  0a  00  05
7f  6b  3e  00  29
7f  58  00  45  0c
75  4b  03  08  00
5a  3b  60  29  07
00  00  00  00  00
00  00  00  00  09
02  00  00  00  14
04  0a  00  00  00
00  15  00  07  00
00  0b  00  00  00
00  00  00  0b  00
00  01  16  0c  38
00  00  06  00  18
16  00  00  44  00
1d  34  00  11  00
00  4e  08  00  00
00  12  01  12  00
00  03  00  0c  00
00  00  00  00  00
00  00  00  07  00
00  00  00  00  0f
00  00  02  00  18
00  00  00  00  1f
00  00  00  00  03
00  00  00  0a  00
00  00  00  00  05
00  00  00  05  01
03  0c  18  03  07
00  00  02  31  00
00  00  00  00  00
00  00  00  00  00
1a  00  00  00  00
00  00  00  00  06
15  00  00  00  00
00  00  00  00  00
00  00  00  00  00
00  00  00  30  00
01  00  00  00  00
0d  00  00  00  00
1a  00  00  00  00
00  30  00  00  00
00  00  00  00  00
00  00  00  00  00
00  00  00  00  00
0e  00  00  00  00
00  00  00  00  00
00  00  00  00  00
00  00  00  00  00
00  00  00  00  00
07  00  00  00  00
00  00  00  00  00
2c  00  00  00  00
00  46  22  00  00
1d  17  31  45  04
0c  0c  0c  0c  0c
00  07  09  0c  0c
00  0c  04  0c  0c
00  0b  00  0c  0c
08  0c  0a  0c  0c
09  0c  08  00  00
00  00  00  00  0c
00  08  00  00  0c
00  05  00  00  01
0c  05  00  00  00
0c  06  00  00  00
0c  0a  0c  00  0c
00  06  09  00  04
00  0c  02  00  0a
00  00  00  00  05
00  00  00  00  08
00  03  00  00  0c
00  0c  00  00  0c
00  01  06  0b  0c
00  00  00  0b  0c
00  0c  00  0c  0c
00  0b  00  03  0a
0c  09  0c  08  0c
00  00  00  00  06
00  0c  00  0c  00
08  17  03  46  28
00  26  30  5d  69
00  00  22  00  7d
00  00  0c  30  3c
00  00  38  44  36
00  00  14  00  7a
00  00  00  00  0f
00  00  01  21  00
00  00  0b  00  19
00  00  00  00  1f
00  00  00  00  00
00  00  00  0e  00
00  00  06  00  09
04  00  00  00  18
00  01  00  00  0b
00  09  07  08  00
00  02  04  2f  00
00  00  00  1a  16
00  00  00  00  30
00  00  00  20  28
00  00  18  7d  59
00  23  4d  64  7f
23  64  70  03  77
3a  00  7f  00  18
04  00  7f  00  57
03  03  03  00  11
03  03  03  00  03
03  03  03  03  03
03  03  03  03  03
03  03  03  03  03
03  03  03  01  03
03  03  03  02  05
03  03  03  02  03
03  03  03  00  00
03  03  03  00  4b
00  00  0b  00  02
00  56  00  03  03
3b  00  39  08  03
02  3b  2d  00  00
03  00  03  09  3c
03  03  03  00  02
03  03  03  03  03
03  03  03  03  03
03  03  03  03  03
03  03  03  03  03
03  03  03  00  02
03  03  03  00  02
03  03  03  00  1a
03  03  00  00  05
03  03  00  13  00
00  00  24  00  0e
6a  52  00  02  00
10  53  77  33  31
1c  21  00  00  00
00  00  00  01  05
00  00  00  00  00
09  00  00  09  05
10  39  01  19  00
1a  00  04  00  00
7d  7f  40  4c  00
1d  24  3d  00  00
2e  31  00  18  1b
00  03  11  32  55
00  00  39  55  37
17  21  04  60  63
00  00  3c  13  00
61  74  00  1e  28
6d  7f  7f  7f  7f
7f  7f  30  0f  7f
32  5b  2f  00  00
06  00  1c  6a  75
30  23  32  09  00
24  07  07  56  53
16  17  00  00  00
00  00  00  00  00
00  09  2e  35  0c
04  14  00  00  40
00  04  00  00  00
00  00  00  0b  00
00  00  10  00  0a
00  17  00  00  0b
03  37  00  00  01
00  1b  02  00  00
00  00  49  00  38
00  00  00  11  5a
00  00  00  00  14
00  00  00  00  00
00  00  00  00  00
00  00  00  00  00
00  04  00  00  00
00  0f  16  01  09
03  27  00  1f  23
00  00  00  00  1c
00  05  00  0f  00
04  43  47  17  34
00  00  3a  04  7f
00  00  00  00  6d
00  00  00  00  14
00  2d  4b  00  30
12  53  00  13  58
0d  2a  00  05  0a
00  2a  49  02  00
00  04  42  00  00
06  00  00  00  00
00  09  04  00  00
03  00  00  19  1e
00  39  79  08  05
00  0c  73  18  00
4b  00  00  72  00
13  7f  00  00  00
00  71  34  00  00
00  00  00  00  58
1c  00  00  40  7a
1a  01  00  70  56
0c  00  38  7f  16
00  00  7b  40  00
00  46  40  00  00
00  18  00  00  12
00  00  23  1f  02
00  20  63  0d  00
00  39  45  00  10
00  2e  48  00  01
2e  30  00  00  00
36  00  00  76  19
06  11  08  20  00
00  00  00  00  00
00  00  00  00  00
00  00  00  00  00
00  00  00  00  00
00  00  00  00  00
00  00  00  00  00
06  05  00  00  00
06  00  00  00  00
00  00  00  00  00
00  00  00  00  00
00  0d  13  12  00
00  0f  13  00  00
00  08  00  00  00
00  00  00  06  0a
04  07  06  07  0a
05  07  00  03  00
01  00  00  00  00
00  00  00  00  00
00  00  00  00  00
00  00  00  00  00
00  00  00  00  00
00  00  00  00  00
00  00  00  00  00
0f  0e  00  00  00
0f  00  00  00  00
04  00  00  00  00
00  1a  00  00  00
00  17  00  00  05
00  00  00  00  01
00  00  00  00  00
00  00  00  00  08
00  07  00  00  00
00  00  26  39  00
1a  00  22  00  00
00  00  00  00  00
00  00  00  00  00
00  00  00  00  00
00  00  00  00  00
00  00  00  00  00
00  00  00  00  00
00  00  00  00  00
00  00  00  00  00
00  00  00  00  00
00  00  00  00  00
00  00  00  00  02
00  00  00  00  00
00  00  00  09  00
00  0b  00  00  00
00  00  42  00  00
2c  00  3b  00  00
00  7f  1e  1f  3f
00  33  00  0a  01
32  00  00  00  29
00  00  00  00  1e
00  08  0c  00  62
00  13  00  00  7b
00  00  15  00  5a
00  00  27  00  5f
02  00  00  00  34
05  00  00  00  6e
00  01  01  00  31
00  29  00  00  0d
20  26  0a  1f  0b
3a  00  28  00  3d
12  00  6b  00  72
00  4d  3d  00  7f
00  7f  00  00  7f
3f  50  00  57  0f
64  00  00  70  1f
0b  00  00  78  18
00  00  00  72  00
00  00  65  00  51
0a  00  7b  00  4b
04  46  21  00  3a
00  1f  00  00  01
44  00  76  00  00
0c  00  32  00  00
00  08  1a  00  00
00  00  00  00  00
02  00  07  00  00
15  00  2b  00  00
0d  00  26  00  00
01  00  2b  00  1f
08  00  45  00  69
00  3c  00  4e  2c
35  06  00  7f  12
4f  00  7f  33  13
00  00  7f  00  60
00  40  7f  00  27
00  7f  0c  58  01
00  7f  00  7f  00
00  76  00  50  00
00  3f  31  00  22
00  14  04  00  10
00  00  00  01  06
00  00  00  00  00
00  00  00  00  00
00  00  00  00  00
00  10  1f  00  38
00  04  03  00  15
02  02  02  06  00
02  02  02  00  00
02  02  02  00  00
02  02  02  00  00
02  02  02  04  00
02  02  02  07  00
03  00  0b  00  00
00  00  0d  00  00
00  00  1b  00  1b
02  02  00  00  21
02  02  00  00  3e
02  02  02  02  02
02  02  02  05  00
02  02  02  00  00
02  02  02  00  00
02  02  08  00  24
02  02  00  00  4a
02  02  00  00  7e
02  02  00  00  43
02  02  02  04  00
02  02  02  00  00
02  02  02  00  00
02  02  02  00  00
07  00  1e  00  00
00  00  26  00  00
00  00  00  00  00
00  00  00  00  00
00  00  00  00  00
00  00  00  00  00
00  00  00  00  00
00  00  00  00  00
00  00  00  00  00
00  00  00  00  00
00  00  00  09  05
00  00  00  05  00
00  00  00  00  00
00  00  00  43  2e
00  00  00  2f  0a
00  00  00  00  00
00  00  00  00  00
00  00  00  00  00
00  00  00  00  00
00  00  00  00  00
00  00  00  00  00
00  03  01  00  00
00  01  00  00  00
00  00  00  00  00
00  00  00  3b  28
00  00  00  29  08
00  00  00  00  00
2a  76  79  0d  24
42  7f  7f  0a  00
2d  7f  7f  19  02
37  7f  7f  0a  07
1d  42  7f  0f  18
23  14  7d  00  11
27  63  7f  1c  00
0e  5a  5a  35  00
0f  5e  7f  16  00
31  1d  7f  1b  14
40  2f  7f  4f  7e
14  5e  74  1a  7b
00  51  4f  20  54
00  68  3c  7f  43
11  32  2e  7f  15
29  3e  7f  5e  00
51  67  7f  2f  1d
27  63  7f  10  19
25  52  7f  00  07
2f  3a  7f  26  0f
3e  56  7f  37  00
4a  7f  7f  72  00
2b  7f  7f  2b  00
1a  47  7f  25  00
19  00  52  00  00
0a  00  00  00  00
0d  31  39  1d  00
0f  2d  63  37  37
00  0e  2a  00  00
00  07  26  17  00
00  00  2d  29  00
00  00  23  29  0d
00  00  0b  08  13
00  00  00  00  00
00  00  00  00  00
00  00  00  00  00
00  00  00  00  00
00  05  00  00  00
0e  06  1c  00  00
08  2f  06  27  00
00  00  0c  00  00
04  00  00  00  00
64  2b  57  00  00
27  7f  7f  50  00
00  1d  57  30  00
15  00  00  43  00
30  1b  00  3f  0b
35  4a  20  24  0f
1b  14  38  16  01
00  00  00  0e  1f
00  0c  00  06  00
00  00  00  10  00
00  00  00  00  00
00  00  00  13  00
00  00  00  00  00
00  00  00  12  00
00  00  00  59  07
00  3d  00  2d  01
00  00  00  00  31
00  00  37  00  54
00  00  10  23  58
00  00  0d  10  11
0e  00  0e  00  00
00  03  09  1d  00
00  00  00  00  00
00  00  05  11  02
00  00  01  05  17
00  00  00  00  02
00  00  00  01  00
00  09  00  13  00
00  00  01  00  00
00  00  00  00  00
00  00  10  08  09
00  03  00  08  3a
00  00  23  08  26
00  00  00  00  17
00  00  00  33  00
00  00  00  00  00
00  00  00  00  00
00  00  00  00  00
00  0d  39  00  65
1e  00  04  2f  00
00  0d  00  32  7f
00  00  60  00  00
01  00  00  00  00
03  00  00  00  00
37  00  19  0f  00
27  54  4b  5c  7f
00  28  1d  05  0f
00  00  00  00  00
00  1b  00  04  00
00  7f  23  64  00
1c  00  00  5d  3c
00  00  00  00  00
01  00  22  00  37
00  00  00  12  00
1a  00  12  03  43
04  32  1f  7f  1e
21  7f  44  5d  15
7f  7f  68  0a  00
00  0d  2e  4c  06
00  00  11  53  32
00  00  00  00  00
00  05  00  15  28
00  05  00  34  2e
04  00  1c  54  42
00  00  00  2a  77
00  00  00  00  71
00  00  00  18  7f
00  05  00  00  6d
00  06  00  32  42
05  00  00  60  21
00  00  5b  7f  00
00  00  3c  54  2f
00  02  00  00  13
21  42  00  00  32
00  59  00  0e  28
00  05  00  42  39
00  00  04  7f  19
00  00  00  29  17
00  00  08  0f  00
00  00  08  00  16
00  00  00  1a  5c
00  05  00  00  7f
00  0e  49  61  56
00  00  00  06  0c
00  0b  00  00  17
00  61  00  00  00
00  4a  00  00  07
00  20  00  00  1c
00  3e  00  00  11
00  49  00  07  0e
00  2a  00  00  1e
00  00  00  00  00
1f  00  00  00  00
0b  00  00  00  00
00  00  08  00  0e
00  00  00  00  07
00  06  00  00  00
00  00  00  00  00
5e  00  00  39  0b
40  00  00  00  3b
00  0c  00  00  0e
00  22  00  00  03
00  1e  00  00  02
00  00  00  03  05
18  00  00  00  07
00  00  00  00  03
00  00  00  00  00
00  5c  00  10  00
7f  00  7f  38  17
49  00  7f  00  3c
4a  00  7f  00  4e
4d  00  7f  00  68
3e  00  69  00  4a
45  00  70  00  51
00  00  7e  00  5a
1c  00  7f  00  32
2e  00  00  00  2c
00  00  30  62  00
13  00  61  3c  05
00  00  7f  00  18
51  3c  46  00  51
7f  22  00  19  27
13  00  00  7f  00
00  00  0e  7f  00
3b  3d  6c  43  00
7f  00  7f  00  16
48  00  7f  00  54
00  00  5d  00  68
03  00  6c  00  4d
7d  00  73  00  53
5c  00  7f  00  38
00  00  00  00  25
00  00  00  02  17
00  00  00  00  00
04  00  00  00  00
13  00  00  00  00
37  00  00  00  00
57  00  00  00  00
7f  00  00  00  00
56  00  00  00  00
2f  00  00  00  00
56  00  00  00  00
08  00  00  00  00
20  00  00  00  00
61  00  00  00  00
7b  00  00  00  00
07  00  00  00  00
00  00  00  00  00
00  00  00  00  00
00  00  00  00  00
00  00  00  00  00
02  00  00  00  00
04  00  00  00  00
19  00  01  00  00
0e  00  06  00  00
39  00  00  00  00
2e  00  00  00  00
46  00  00  00  00
00  03  2e  00  09
12  08  44  0c  18
00  00  00  00  00
00  76  64  13  1b
4a  7f  7d  09  14
2d  7f  00  00  00
3e  7f  17  37  40
2f  7f  54  6b  5a
00  59  2f  00  00
2b  7f  4c  00  00
2d  7f  00  00  09
32  7f  56  30  11
70  7f  7f  24  00
00  19  1c  00  00
00  30  00  00  43
29  63  6e  7f  7f
06  42  5b  7a  5d
00  00  00  00  00
00  00  60  00  00
1f  50  7f  00  04
23  68  1e  04  0a
0f  7f  0e  00  00
26  7f  3b  13  00
07  7f  00  19  00
4d  7f  24  05  00
45  42  1c  00  00
7f  7e  54  00  00
7f  6d  53  04  0c
33  2d  4f  0d  16
5b  3e  57  20  0f
0b  62  20  24  02
32  41  00  20  06
23  31  03  00  00
3c  36  09  0d  00
20  19  12  4f  1d
40  1a  23  56  2a
1b  3e  35  4e  38
2f  66  5b  49  30
14  3b  1a  73  20
36  7f  65  7f  34
4d  7f  60  4d  0c
20  1d  2b  30  0b
79  3b  4d  00  05
7f  4c  7a  03  04
7f  71  66  00  00
7f  7f  60  1a  09
48  7f  6f  4b  10
5e  7f  56  2d  00
7f  56  45  04  00
16  24  0b  00  00
36  00  00  00  00
1c  00  00  00  00
00  00  00  00  00
00  00  00  00  00
00  00  00  00  00
00  00  00  00  00
00  00  00  00  00
00  00  00  00  00
00  00  00  00  00
00  00  00  00  00
00  00  00  00  00
00  00  00  00  00
00  00  00  00  00
00  00  00  00  00
00  00  00  00  00
00  00  00  00  00
00  03  00  00  00
00  13  00  00  00
00  0a  03  00  00
00  00  15  00  00
00  00  08  00  00
00  03  00  00  00
00  01  00  00  00
00  00  00  00  00
00  00  00  00  00
00  3f  00  00  00
32  33  30  05  00
00  69  00  31  00
00  4a  0c  3f  08
00  69  27  00  10
00  7f  00  29  00
00  7f  00  00  00
00  4e  00  00  00
00  38  00  00  00
00  30  7c  23  50
00  1b  7f  00  22
00  00  00  00  00
00  04  7d  00  1c
0f  7f  7f  2e  0e
06  4f  7f  00  2c
00  7f  11  1e  00
29  72  18  2e  00
00  7f  00  5f  00
0f  52  00  00  00
00  75  00  1b  00
00  75  00  0c  00
00  7f  00  29  00
0f  4f  4c  00  14
6c  77  04  30  0a
00  00  00  00  00
55  00  1e  00  06
22  00  1f  00  06
1a  00  25  00  06
0c  00  00  02  06
19  00  13  01  06
23  00  16  00  06
07  00  00  0a  06
06  00  24  00  06
06  00  07  00  06
05  07  06  06  06
08  05  06  06  06
06  06  06  06  06
06  06  06  06  06
06  06  06  06  06
00  0a  06  06  06
13  00  06  06  06
00  00  00  0a  06
00  00  00  0e  06
4a  00  2b  00  06
09  00  2b  00  06
02  00  08  00  06
00  12  06  06  06
3d  00  06  06  06
08  00  06  06  06
06  06  06  06  06
1c  7f  61  00  08
4a  7f  7f  24  00
00  7f  7f  7f  01
02  3b  7f  6a  25
59  66  44  31  00
7f  71  5d  3a  0b
57  7f  7f  00  05
13  4c  7f  46  00
02  30  7f  7f  19
00  00  00  00  00
02  00  00  00  00
00  14  00  03  00
00  0b  16  00  00
00  14  22  03  00
14  00  01  00  00
2f  0c  32  00  00
24  15  40  25  00
52  67  39  6b  01
5b  54  7f  24  10
39  58  7f  37  00
16  18  4f  63  00
25  12  30  3c  0a
64  10  00  00  00
7a  19  07  00  00
21  11  12  00  00
6b  00  04  3b  00
4c  17  00  67  00
24  00  01  29  23
07  07  01  29  00
00  00  0c  37  00
0f  00  32  12  16
1e  00  0d  0d  00
12  03  00  00  00
0a  00  00  00  00
2b  00  00  00  00
3e  00  00  00  00
29  0c  00  10  0b
34  00  00  11  1f
2e  03  00  09  15
08  08  00  00  00
00  00  03  22  00
14  00  00  76  00
25  00  00  74  0b
0a  0a  00  20  1d
0a  00  00  00  00
25  05  13  00  00
2b  14  23  17  00
12  7a  00  2c  00
00  7f  00  09  08
00  7f  29  00  00
00  00  00  00  00
00  00  00  00  00
00  00  00  00  00
00  00  00  00  00
00  00  00  00  00
00  00  00  00  00
00  00  00  00  00
00  00  00  00  00
00  00  00  00  00
00  00  00  00  00
00  00  00  00  00
00  00  00  00  00
00  00  00  00  00
00  00  00  00  00
00  00  00  00  00
00  00  00  00  00
00  00  00  00  00
00  00  00  00  00
00  00  00  00  00
00  00  00  00  00
00  00  00  00  00
00  00  00  00  00
00  00  00  00  04
00  00  00  00  00
00  00  06  00  00
00  00  00  00  00
0f  00  00  00  00
00  00  00  00  00
04  00  05  00  00
00  00  00  00  00
00  00  00  00  00
00  00  00  00  00
00  00  00  00  00
00  00  00  00  00
00  00  00  00  00
00  00  00  00  00
00  00  00  00  00
00  00  00  00  00
00  00  17  00  00
00  00  00  00  00
00  00  00  00  00
00  00  00  00  00
00  00  00  00  00
00  00  00  00  00
00  00  0d  00  00
00  00  00  00  07
00  00  00  00  00
00  00  00  00  00
00  00  00  00  00
00  00  00  00  00
0c  00  00  00  00
0c  00  00  00  00
0c  00  00  00  00
0c  01  00  00  00
0c  09  00  00  00
0c  0c  04  00  00
0c  04  02  00  00
0c  00  00  00  03
0c  06  00  00  00
0c  0c  0c  03  00
0c  0c  0c  0c  0c
0c  0c  0c  0c  0c
0c  0c  0c  0c  0c
0c  0c  0c  0c  0c
0c  0c  0c  0c  0c
0c  0c  0c  0c  0c
0c  0c  0a  0b  0a
0c  00  00  00  01
0c  00  00  00  00
0c  00  00  00  00
0c  0c  06  00  00
0c  0c  0c  0a  06
0c  0c  0c  00  00
0c  0c  00  00  00
0c  0c  00  00  00
00  00  11  1e  08
00  02  21  27  00
00  11  13  0c  06
00  00  22  28  00
00  0e  10  21  10
31  41  00  79  36
2f  0e  25  2f  20
35  69  29  1e  4e
4b  34  09  18  00
45  48  35  05  16
45  42  06  00  00
20  34  00  06  00
00  1a  00  4d  3b
00  00  12  46  12
08  05  33  00  3c
28  11  11  06  00
12  00  74  52  00
2e  63  7f  4d  00
4e  7f  22  59  00
2a  61  00  5c  24
00  33  1d  25  04
00  18  1f  00  2a
38  26  11  00  00
25  00  1f  57  2b
00  32  37  31  04
00  0b  00  12  3d
00  0e  60  7f  7f
04  0c  6b  7a  40
00  4f  51  7f  78
14  26  7f  74  5b
20  49  39  5b  44
2c  41  26  7f  7f
36  3c  28  56  7f
3a  7f  72  65  1f
60  7b  7f  65  00
00  1a  2d  06  00
5b  76  47  0b  25
66  7f  1f  35  45
3c  7f  00  00  00
00  0b  1f  4c  00
0e  1b  2e  7f  00
07  23  3a  60  3e
0d  40  4c  2e  49
1f  32  47  7f  67
25  79  7f  7f  7f
2f  4b  56  7f  45
00  03  0d  1c  14
2c  6e  52  16  2c
7f  7f  3b  5d  4b
44  7f  7f  7b  26
00  00  00  00  00
00  00  00  00  00
00  00  00  00  00
00  00  00  00  00
00  00  00  00  00
00  00  00  00  00
00  00  00  00  00
00  00  00  00  00
00  00  16  27  00
00  19  00  00  00
00  0b  23  4a  00
00  20  00  00  00
00  07  00  2e  00
00  0a  00  20  00
00  00  00  46  00
00  00  00  36  00
00  00  00  00  00
00  01  00  01  00
00  00  00  00  00
04  00  01  00  00
00  00  00  00  00
06  00  02  00  00
00  00  00  09  00
00  09  1f  00  18
00  03  00  04  05
