00  00  00  00  00
00  00  00  00  00
00  00  00  00  00
00  00  00  00  00
00  00  00  00  00
00  00  00  00  00
00  00  00  00  00
00  00  00  00  00
00  00  00  00  00
00  00  00  00  00
00  00  00  00  00
00  00  00  00  00
00  00  00  00  00
00  00  00  00  00
00  00  00  00  00
00  00  00  00  12
00  00  00  00  00
00  00  00  00  00
00  00  00  00  00
00  00  00  00  00
00  00  00  00  00
00  00  00  00  00
00  00  00  00  00
00  00  00  00  00
00  00  00  00  08
00  00  00  26  00
0f  2d  00  08  00
22  2e  00  00  00
46  60  2a  00  00
1e  30  02  00  00
00  2b  00  0f  00
3d  49  11  00  00
6a  7f  3f  3f  06
69  65  55  00  00
7f  6d  60  00  00
7f  7c  41  0c  18
78  35  13  00  00
54  48  2d  38  2a
00  27  00  7f  4d
00  5f  4b  56  65
2e  7d  5c  24  23
61  7f  26  49  00
5d  5b  13  08  11
56  45  00  00  00
3f  5d  31  00  00
4e  7f  43  00  13
29  7f  2f  00  00
29  7f  00  17  00
33  7f  5c  58  00
59  60  1d  04  00
06  1a  0c  00  00
40  03  33  00  00
34  16  7d  00  00
57  00  4c  00  00
69  04  16  00  2a
6f  00  3b  00  38
3c  00  1e  00  00
00  0c  2e  00  00
09  00  00  00  00
20  21  02  00  26
21  00  09  00  00
2a  00  00  00  00
1f  00  00  00  2a
00  00  0e  00  44
00  00  42  00  6b
00  02  00  00  63
00  6e  29  00  00
7f  48  61  62  1b
7f  38  48  00  10
20  3d  00  00  00
00  00  00  2a  00
30  00  2f  00  11
53  00  1c  00  32
26  00  00  00  00
26  00  00  00  00
14  00  00  00  00
00  00  00  00  00
04  00  00  00  00
00  00  00  00  00
00  00  00  00  00
00  00  00  00  00
00  00  00  00  00
00  00  00  00  00
00  00  00  00  00
00  00  00  00  00
00  00  00  00  00
00  00  00  00  00
00  00  00  00  00
00  00  00  00  00
00  00  00  00  00
00  00  00  00  00
00  00  00  00  00
00  00  00  00  00
00  00  00  00  00
00  00  00  00  00
00  00  00  00  00
00  00  00  00  00
00  00  00  00  00
00  00  00  00  00
00  00  00  00  00
00  00  00  00  00
00  06  00  00  00
00  00  00  00  00
00  00  00  00  00
00  00  00  00  00
00  00  00  00  00
00  00  00  00  00
00  00  00  00  00
00  00  00  00  00
00  00  00  00  00
00  00  00  00  00
00  00  00  10  6a
00  00  00  17  40
00  00  00  00  00
00  45  20  00  00
00  45  0b  00  00
00  00  00  00  00
00  00  00  00  00
00  0d  00  00  00
00  00  00  00  00
00  00  00  00  00
00  00  00  00  00
00  28  00  00  00
00  00  00  00  00
00  00  00  00  00
00  51  00  00  00
00  1c  00  00  00
00  0c  52  00  00
00  00  14  00  00
00  00  00  00  00
00  00  57  00  0a
00  00  7f  00  00
00  00  77  05  00
00  00  51  0b  00
00  00  00  06  00
36  00  00  1e  0e
00  00  09  00  00
00  00  0b  00  08
00  0d  00  00  00
02  67  00  00  00
15  2f  21  00  00
7f  3a  00  00  00
43  00  00  00  00
2d  00  00  00  00
00  00  00  00  0c
00  00  00  17  00
00  00  00  1c  00
00  00  00  00  00
00  00  00  00  00
00  00  00  00  00
00  00  00  00  00
00  00  00  00  00
00  00  00  00  07
00  03  00  00  00
00  01  00  00  00
00  00  00  00  00
00  0f  2d  00  00
00  03  12  0c  00
00  00  0f  34  00
00  00  00  00  00
00  1d  00  00  00
00  00  00  00  00
00  0f  00  00  00
00  00  00  00  00
20  00  00  00  00
0d  00  00  00  00
00  00  00  00  00
00  00  00  00  00
00  00  10  00  0b
00  05  59  00  00
00  00  00  0a  13
00  00  00  00  00
00  18  00  07  13
00  00  00  00  00
0d  08  1f  00  08
40  00  00  00  00
65  00  00  1f  00
2b  00  00  34  15
24  18  00  31  09
28  00  00  00  00
42  00  00  4b  00
59  00  5e  00  00
50  11  3c  3c  00
5c  32  0f  49  00
64  1f  00  00  00
7f  0e  00  00  00
4c  16  00  00  00
33  00  00  00  00
01  00  00  00  00
01  39  00  00  00
29  00  00  00  00
60  00  00  11  00
48  00  00  00  00
30  00  00  19  08
4a  00  2e  0c  00
58  04  00  03  00
1a  00  00  00  00
58  00  00  00  00
23  00  00  00  00
00  0e  0b  26  00
00  00  00  00  11
00  00  34  10  0d
00  00  00  00  21
00  00  00  00  56
00  00  26  20  3a
0c  00  00  00  49
15  17  0b  00  15
00  0d  00  1f  00
08  1d  00  00  00
00  45  5d  00  00
00  00  42  00  00
00  00  00  00  64
00  0c  00  00  1e
0c  00  00  00  27
00  00  00  00  00
00  00  13  00  1a
10  00  1e  10  00
00  00  00  00  00
00  00  00  00  22
00  00  00  00  32
00  02  00  00  01
00  05  33  27  00
00  1c  28  00  31
00  00  00  1d  00
18  03  4d  00  00
05  30  00  7a  26
10  00  00  69  22
29  00  00  26  10
00  00  00  31  15
00  00  00  5a  29
00  17  00  6e  2f
00  00  2a  41  3e
3c  00  58  19  31
52  00  00  30  00
5d  4a  00  00  31
44  19  00  00  00
22  00  00  28  00
61  00  00  58  00
12  00  00  4d  42
00  00  38  00  16
01  00  00  00  00
0a  00  00  00  57
62  00  00  46  36
70  00  00  7f  4b
00  00  00  7f  1b
14  2e  00  46  00
00  2c  1c  00  00
61  0f  00  08  27
0b  01  00  7b  35
00  00  00  7f  0a
6b  00  21  07  00
6c  00  29  00  00
39  00  60  00  16
3f  00  38  00  10
20  00  04  00  00
0f  00  00  47  00
00  00  42  0c  13
47  00  33  00  00
5c  00  00  00  03
3d  59  34  64  00
55  0a  15  36  00
3a  00  43  00  00
16  00  25  21  4a
2c  00  00  35  34
04  54  00  2d  0f
00  00  1e  2e  00
52  00  3b  4c  00
78  00  7f  14  24
72  52  69  06  4d
15  43  2d  00  0d
00  21  2c  00  47
4a  01  06  00  00
7f  00  00  02  06
14  00  00  14  15
00  00  00  02  00
27  00  00  00  00
54  3b  00  00  00
02  07  00  00  4f
00  17  00  00  00
00  0f  0a  00  00
00  00  00  00  00
00  00  09  00  00
00  00  00  00  00
00  00  00  00  00
00  00  20  40  00
07  15  4a  60  00
00  1c  3b  3b  4b
00  00  3f  1e  14
00  39  31  62  00
23  7f  15  1f  05
09  35  13  2e  00
7d  08  00  0d  00
1c  10  07  00  00
00  00  00  00  3b
02  00  00  00  00
0d  60  00  00  3b
00  7f  24  05  00
00  5b  00  00  00
00  00  00  00  00
00  00  00  00  00
10  00  00  00  00
00  00  00  26  00
12  00  00  00  00
00  00  00  00  00
00  00  00  00  07
00  00  00  15  00
00  00  00  4e  03
37  00  00  1c  27
54  00  00  00  00
3a  0b  00  00  00
3c  00  00  16  00
4c  00  00  00  00
00  00  00  00  00
00  00  00  00  00
00  00  00  00  00
1b  00  00  00  00
24  00  00  24  00
00  00  00  1a  00
00  00  00  3b  00
00  00  00  26  00
16  00  00  00  00
00  00  00  00  00
00  00  00  00  00
00  00  00  07  08
00  46  15  0e  00
00  00  00  00  00
00  00  02  00  00
00  00  13  00  00
06  00  00  00  00
00  00  00  00  00
00  00  09  00  00
00  00  00  00  00
00  00  00  00  00
00  00  00  00  00
00  00  00  00  00
00  00  00  00  00
00  00  00  00  00
00  00  00  00  00
00  00  00  00  00
00  00  00  00  00
00  00  00  00  00
00  00  00  00  00
00  00  00  00  00
00  00  02  00  00
00  00  00  00  00
01  00  00  00  00
00  00  00  00  00
00  00  00  00  00
00  00  00  00  00
00  00  00  00  00
25  10  6c  00  00
00  1a  5a  06  00
0b  1e  0b  00  00
00  27  46  00  00
0f  27  3c  2d  10
00  41  00  00  00
00  20  00  00  00
12  00  2a  00  26
04  10  00  00  00
03  50  00  09  00
00  02  00  3b  00
1c  25  36  11  00
03  00  22  40  2d
00  00  00  00  00
00  00  00  1d  32
00  00  51  0a  18
00  00  00  00  2a
00  0a  04  00  00
00  00  00  00  00
00  34  00  00  00
00  49  3e  00  00
00  4d  20  00  0c
00  00  54  00  00
00  32  2e  00  00
00  66  00  00  00
7f  00  00  37  00
46  00  00  2c  00
58  00  1e  11  00
5b  00  00  22  00
2d  00  00  0f  00
29  00  32  00  1b
1e  00  2a  03  00
23  00  1b  0d  00
2e  00  1a  43  00
22  00  00  00  00
53  00  00  00  00
6e  00  00  00  00
66  00  00  00  1e
4a  00  00  00  00
18  00  00  11  00
00  00  00  00  00
1c  00  00  00  00
5e  00  00  29  00
3b  00  00  00  0c
05  00  10  00  34
31  00  35  1b  3e
62  00  18  1b  29
45  00  00  45  00
00  0b  03  10  00
2b  27  00  00  00
00  00  00  00  00
00  00  00  00  00
00  00  00  04  00
00  00  00  10  00
00  20  00  00  00
00  26  00  3f  00
00  07  00  35  02
00  74  00  68  44
00  4d  00  22  00
00  55  7e  15  00
00  51  44  00  00
00  3a  00  38  00
00  16  14  7f  00
00  19  32  1b  00
0f  14  00  00  4c
0f  04  0d  00  2d
59  00  37  00  00
00  00  00  4e  00
00  00  00  46  00
00  00  00  10  03
00  00  00  00  00
00  0b  00  00  00
00  00  00  35  00
00  00  00  3e  10
00  00  00  27  00
00  00  00  00  00
00  00  00  00  00
00  00  00  00  00
00  07  00  15  00
00  01  13  00  00
00  0b  00  21  00
00  00  00  14  00
00  16  00  00  00
00  00  00  00  00
00  00  21  00  00
00  00  00  00  3a
00  00  00  02  00
00  00  00  00  00
00  00  00  07  00
00  00  00  00  00
00  00  00  00  00
00  00  00  00  00
00  00  00  00  00
00  00  00  00  00
00  00  00  09  00
00  1c  00  00  00
00  00  00  00  00
00  00  00  00  00
00  00  00  00  00
00  00  00  00  00
00  3a  00  00  34
00  3d  43  00  58
12  2a  12  00  27
00  41  00  00  17
22  51  49  20  2a
5a  5d  7f  00  32
21  49  3b  00  01
00  00  00  00  00
00  07  0c  00  19
00  00  00  00  2e
00  23  00  00  00
00  00  01  00  00
00  00  00  00  15
00  0b  00  00  55
00  00  26  11  02
02  00  07  1f  25
00  24  38  00  16
00  35  3a  00  18
00  25  4c  04  02
0c  25  3c  21  00
00  2f  2b  00  06
00  11  3d  00  6e
15  4f  40  00  0b
3f  4a  13  00  1a
14  00  30  09  04
37  00  00  00  00
06  0a  14  25  35
37  00  2e  1f  2f
10  00  10  2b  3f
00  00  2d  27  4b
00  0c  00  0f  00
00  00  00  3a  0e
08  00  00  39  00
27  27  00  00  00
2f  5a  08  00  00
00  00  00  00  00
00  00  00  00  00
00  00  00  00  00
31  00  00  00  00
00  00  02  20  00
00  00  00  00  0f
00  00  00  00  33
0c  0a  00  00  2c
53  00  00  35  2e
00  00  00  48  22
00  00  09  12  16
00  00  00  00  00
00  00  00  00  00
00  00  00  00  00
00  00  00  00  00
00  00  0d  16  1d
00  00  01  00  28
00  00  1a  00  12
00  00  40  00  00
00  00  00  00  00
00  00  00  00  12
00  00  00  00  1c
00  00  18  00  12
00  00  54  00  00
00  00  00  30  0a
00  00  00  00  00
00  1a  01  13  00
00  24  00  1d  1c
00  00  00  00  00
00  00  00  00  13
00  00  27  00  3a
00  2f  00  00  1f
00  00  00  00  2f
00  00  00  00  00
00  00  00  00  0a
00  00  3a  13  68
00  00  00  00  68
00  00  09  1a  4a
00  06  6f  00  00
0a  43  00  00  18
23  00  00  00  00
00  00  1c  00  15
09  00  0e  00  24
00  00  00  00  06
00  00  23  00  00
00  00  34  00  00
00  00  1d  00  00
00  00  00  00  00
00  00  00  00  10
00  00  00  21  00
00  1d  19  51  00
00  00  47  04  00
00  00  2c  00  09
00  00  00  00  34
00  18  00  2e  00
2b  00  00  6b  00
00  00  00  00  00
00  00  00  00  00
00  00  3f  00  13
00  00  46  00  00
00  04  3b  00  32
02  00  16  00  1f
00  14  00  00  28
00  00  00  00  00
00  00  3b  02  00
00  24  2f  00  00
00  6e  0b  00  00
00  7f  29  00  00
00  00  49  00  00
00  0f  14  00  00
00  29  00  00  00
00  1a  00  00  00
00  00  00  00  00
00  00  33  00  00
00  00  00  00  19
00  00  00  00  63
00  00  00  18  05
00  00  0b  00  00
00  00  16  4f  00
00  29  36  2f  12
00  38  2c  00  04
00  0c  00  00  00
00  76  0a  00  00
00  41  00  00  00
00  00  00  00  00
00  00  13  00  00
00  08  00  00  00
00  00  00  00  00
00  00  51  00  00
00  00  00  00  00
39  4e  33  2d  3a
2c  5c  20  00  24
3d  47  00  00  16
0d  10  00  00  00
00  1e  19  00  00
00  60  2a  00  00
00  63  21  00  00
00  22  00  00  00
03  46  00  00  00
00  02  00  00  00
00  20  0c  00  16
00  00  00  00  2b
00  00  3c  29  45
00  0e  30  69  35
00  33  2e  4e  14
00  55  10  4e  2c
00  7f  43  46  3a
06  4f  00  00  2e
17  41  00  04  00
00  00  1e  1a  00
0f  33  3f  00  15
02  79  0c  00  1a
0e  65  1f  00  00
00  49  00  29  11
00  00  00  00  00
00  00  1e  19  00
00  00  00  00  00
00  00  00  00  00
0b  00  00  00  00
00  00  00  00  00
0a  00  00  00  00
00  00  00  00  00
00  00  25  00  00
00  00  19  00  00
00  0a  00  00  00
00  00  00  00  00
00  00  00  00  00
00  00  00  00  2d
00  00  00  00  05
00  00  00  00  00
00  00  00  00  00
00  00  00  00  00
00  00  00  00  1d
00  00  00  00  00
00  00  00  00  00
00  00  00  00  05
00  00  00  00  0f
00  00  00  00  00
00  00  00  00  00
00  00  00  00  11
0d  00  59  07  00
3d  00  00  00  00
00  00  00  00  00
00  00  00  00  14
00  00  00  00  13
00  00  00  00  00
00  00  25  00  55
00  00  33  1e  2b
10  00  00  00  23
02  7f  40  00  00
00  76  55  20  43
00  3e  44  00  52
2b  1e  7f  35  2d
5b  00  61  4e  0a
03  48  00  4c  43
00  66  2f  7f  51
3c  5c  00  1a  3c
00  00  00  00  43
00  00  00  00  54
00  00  12  00  30
00  00  00  00  68
00  31  1d  00  00
00  0a  00  00  00
00  00  00  00  02
00  00  00  05  02
46  22  1c  50  3f
43  34  13  46  6d
52  5a  60  62  42
38  3e  51  5b  6b
44  1f  3d  31  76
2d  4a  04  52  49
40  26  00  5a  7d
2f  2f  0e  22  2b
0a  59  00  49  1d
70  57  5e  7f  4a
51  00  69  00  00
5f  43  36  00  13
7f  7f  00  00  00
7f  57  00  02  16
5f  3f  73  7f  29
38  7f  19  4a  2d
4e  7f  0f  03  79
7f  7f  59  36  2f
7f  58  33  7f  5f
32  7f  54  4d  71
50  13  7a  7f  7f
5a  09  66  5a  30
30  54  7f  2b  4b
70  65  11  00  3b
29  66  00  21  2b
2f  00  02  15  00
2a  00  00  10  00
51  00  0d  00  15
48  00  00  00  00
08  00  00  2e  00
00  00  20  1d  00
00  00  00  1b  00
38  00  00  00  00
2b  06  00  00  00
19  00  00  00  00
45  00  12  75  00
1e  00  00  00  00
00  00  00  00  00
00  00  00  08  00
0a  00  00  3e  00
00  00  00  00  00
19  00  00  00  00
66  00  5c  00  00
58  00  18  00  00
28  00  00  00  15
29  00  0b  00  0a
4d  00  00  24  13
2f  00  00  07  00
00  00  22  00  00
00  00  00  00  00
41  23  2e  07  11
3e  42  00  00  00
1f  30  04  3f  1f
0b  00  0f  00  2c
04  00  0f  00  10
00  00  14  12  00
0d  00  00  21  01
13  00  00  15  34
00  26  00  00  1b
00  00  00  6b  00
00  00  62  7f  00
00  11  6d  5f  0d
00  44  76  5d  53
28  59  6c  43  29
68  7f  24  7f  30
44  5d  43  63  09
60  69  64  49  00
52  4e  7f  5e  29
3a  2a  34  26  4c
19  00  00  08  0d
2e  00  00  0f  0d
5b  00  37  46  06
00  00  2e  7c  3c
00  00  00  22  06
0d  00  00  00  00
00  00  00  00  00
00  00  00  00  00
00  00  00  00  00
00  00  00  00  00
00  00  00  00  00
00  00  00  00  00
00  00  00  00  00
00  00  00  00  00
00  00  00  00  00
00  00  00  00  00
00  00  00  00  00
00  00  00  00  00
00  00  00  00  00
00  00  00  00  00
00  00  00  3c  00
00  00  00  00  00
00  00  00  00  00
00  00  07  00  00
00  00  00  00  00
00  00  00  00  00
00  00  00  00  00
00  00  00  00  00
00  00  00  00  00
00  00  00  00  01
00  00  00  0f  00
00  00  00  00  00
00  00  00  00  00
00  00  00  00  00
00  00  00  00  00
00  00  00  00  00
00  00  00  00  00
00  00  00  00  00
00  00  00  00  00
00  00  00  00  00
00  00  00  00  00
00  00  00  00  00
00  00  00  00  00
00  00  2b  00  00
00  14  08  00  00
00  51  00  00  00
00  15  00  00  00
00  00  00  00  00
00  00  00  00  00
00  00  00  00  00
00  00  00  00  00
00  00  00  00  00
00  00  00  00  00
00  00  00  00  00
23  00  00  00  00
00  00  00  00  00
2e  25  2f  64  0d
00  00  4e  00  00
00  25  3c  00  00
14  07  58  00  00
10  1f  01  00  00
0f  01  00  00  00
00  33  4b  00  00
00  00  7f  00  00
00  00  18  1d  00
00  00  00  00  03
00  21  13  00  00
00  00  00  00  20
00  00  03  16  00
00  00  00  7f  45
00  00  11  1f  01
00  00  41  00  01
00  00  23  00  00
00  1e  00  00  2a
00  00  00  00  00
00  1b  2d  00  00
00  1b  7f  00  00
00  1d  00  00  00
41  00  00  00  0d
04  00  07  05  00
00  00  00  11  00
54  4c  1c  07  00
70  12  00  08  00
3a  09  07  00  00
11  00  00  0d  20
03  00  00  1f  1a
11  00  00  0d  0d
16  00  1f  29  2c
05  00  00  00  01
30  00  00  00  33
00  00  00  00  04
00  00  00  04  38
00  00  00  0b  2d
16  00  00  00  00
0b  00  00  00  00
0d  00  00  00  00
3b  00  00  00  00
2e  00  00  00  00
2c  00  00  43  00
00  00  00  2a  29
2d  00  00  25  08
53  00  00  1f  11
41  00  20  23  00
00  00  01  00  20
00  00  00  00  0e
00  00  1d  00  02
17  00  00  00  00
00  00  1d  00  00
00  00  47  00  00
02  00  02  02  00
00  00  10  00  00
10  0e  00  00  00
00  00  01  00  00
0b  00  11  00  00
42  00  00  00  00
00  0b  00  00  00
00  00  00  00  00
16  00  00  00  00
00  00  00  00  01
00  0c  00  00  00
00  1d  00  00  2a
00  00  00  00  00
00  00  00  00  00
17  00  33  00  00
20  3d  00  00  00
06  0b  00  00  00
00  42  00  00  00
07  3b  00  00  00
00  00  00  00  00
00  00  00  00  00
00  00  00  00  00
00  00  00  00  00
11  00  36  1a  22
10  00  58  20  34
44  00  01  3e  6d
33  00  00  51  1b
63  00  39  59  18
48  00  51  58  4b
39  21  2e  21  3b
75  0a  20  2b  00
30  78  26  00  00
0d  17  00  1b  00
7d  00  00  00  00
7f  00  00  00  00
00  00  00  00  0d
00  00  00  00  00
00  00  00  1a  00
10  07  23  0f  00
28  00  36  00  00
00  0e  4c  2b  3d
1b  00  20  21  58
00  00  00  2b  38
14  00  00  00  00
5f  00  00  14  1a
35  00  00  14  2b
20  00  54  0b  10
00  11  18  0f  00
00  00  00  00  00
00  1f  00  00  00
00  00  00  00  00
00  00  00  00  00
00  00  00  00  00
00  00  00  00  00
00  00  00  00  00
00  00  00  00  47
00  00  00  00  48
00  00  00  26  07
00  00  00  31  00
00  00  39  00  00
00  00  49  04  30
00  2b  00  00  34
6b  39  00  00  00
34  00  00  00  00
1e  00  00  0b  00
23  00  00  00  00
00  00  00  00  00
00  00  00  00  00
09  00  00  00  00
00  00  00  00  27
00  00  00  00  0f
00  00  00  04  1c
70  0b  00  32  15
6e  0c  00  40  00
00  25  08  2d  02
14  1b  00  46  18
24  00  00  0a  30
53  00  15  06  33
58  0b  47  48  00
33  39  15  53  0d
6c  00  02  17  11
4f  34  14  0e  00
4f  00  00  00  00
7f  00  00  00  00
57  00  3d  00  2f
00  39  34  00  13
01  61  00  00  44
50  61  00  29  00
7f  07  00  7f  00
7e  00  00  7f  00
7c  00  00  22  2e
0c  00  00  1a  43
00  00  00  39  64
33  00  02  1e  00
19  00  00  4b  1c
18  00  00  48  1f
00  5d  00  16  26
5c  45  2b  7f  36
3f  0b  79  7f  4b
66  03  52  4e  38
7f  00  7f  71  5c
76  06  6d  7f  64
78  00  71  42  30
5b  0e  00  66  5f
77  00  27  18  57
23  2d  5b  02  32
0b  01  00  00  7e
0e  00  0b  7b  41
37  00  00  17  00
70  0c  18  00  00
2e  00  3c  4e  7f
00  00  52  78  24
00  20  1d  1e  4f
00  7f  7f  3c  08
2e  22  51  42  00
34  00  4f  7f  26
1f  18  13  71  15
7f  05  42  33  02
57  32  23  7f  7f
64  7f  7f  78  4b
43  6f  71  58  7d
1f  00  1c  00  34
01  5a  40  00  07
7d  41  3d  00  00
29  75  1c  39  00
27  11  40  31  00
4d  21  00  17  00
52  06  00  56  00
7f  3a  2e  0d  00
6a  45  18  00  02
3b  4b  67  20  22
31  54  16  37  7f
7d  05  00  7f  23
7f  14  2e  00  1b
54  0c  7f  00  1e
00  7b  7f  33  74
23  7f  53  10  5e
10  7a  7f  00  00
47  7f  5a  61  00
27  6d  48  7f  00
2b  73  3a  10  00
4f  7f  25  0a  00
5c  36  00  1f  00
26  31  00  31  09
67  00  1b  35  00
7f  33  00  37  2a
44  00  00  00  00
36  3c  00  00  00
7f  3d  01  00  00
24  4f  1a  00  00
0c  10  00  07  0e
24  13  08  00  00
3c  2c  00  0a  04
5b  3a  50  1e  00
1a  56  06  2a  00
60  00  00  25  00
03  00  32  00  00
25  00  3d  00  00
11  00  00  10  57
00  00  00  00  4b
00  00  00  28  00
2a  13  00  1f  00
67  44  00  25  00
64  00  12  49  00
70  00  00  36  00
35  2d  0c  00  00
44  00  00  18  43
59  3e  00  06  54
60  57  47  48  00
35  34  00  47  00
00  00  00  44  00
00  00  00  00  00
00  00  00  00  10
02  20  00  00  07
00  31  08  00  00
00  61  00  14  00
00  1c  1e  00  10
00  47  00  00  00
00  0a  00  00  00
00  51  00  06  19
00  5e  18  00  00
6a  60  63  2a  00
24  41  3d  00  00
2b  5d  42  00  00
00  7f  05  00  27
00  46  00  0a  00
0b  47  19  29  6d
2c  2b  2e  1a  46
4a  4c  22  21  63
0a  77  35  21  7e
74  2f  00  00  1f
34  35  07  00  00
00  41  00  00  00
00  6b  09  00  00
00  30  00  00  00
00  59  00  00  00
0c  5d  03  14  00
15  00  00  1f  0d
00  00  00  2f  22
17  00  00  00  25
30  03  00  21  00
00  00  07  0d  02
00  00  00  00  02
14  00  00  7f  18
37  00  00  5a  7f
4b  00  5d  00  25
4f  5c  00  00  00
30  7a  00  2f  00
74  43  13  00  00
63  00  52  00  08
00  07  1c  00  00
00  23  00  00  00
00  2b  00  69  00
00  29  06  7f  00
00  00  00  00  00
00  00  00  43  00
14  00  00  52  42
36  00  00  03  52
00  00  00  00  00
00  4c  00  4e  00
00  31  2b  66  21
12  4d  62  55  26
00  37  29  00  00
01  71  46  00  00
00  3f  37  00  00
00  33  1c  00  00
00  37  26  00  00
00  29  07  00  00
00  70  3a  00  00
00  6b  73  00  00
00  00  28  00  00
00  3d  32  00  12
00  64  25  00  40
00  06  21  00  2a
00  07  51  00  4b
00  00  3c  62  4a
00  4a  48  42  6a
00  74  7f  11  53
00  7a  00  00  0a
00  54  00  00  12
00  26  10  00  00
00  36  45  00  00
00  69  36  00  00
00  7f  35  00  00
00  7c  27  00  00
00  3f  1d  00  00
00  00  00  00  00
00  28  00  00  06
00  1d  39  1c  05
00  3c  2a  12  00
00  15  0d  2f  00
00  20  0a  21  00
00  30  17  00  03
00  5c  00  00  00
00  50  00  00  23
00  00  7f  1a  4a
00  00  3b  0b  7f
00  39  07  00  0d
00  29  00  20  00
00  00  5d  47  62
00  41  5e  14  41
00  00  1d  00  36
00  0d  31  00  00
00  30  00  00  00
00  34  00  37  1f
00  4f  00  00  00
00  7f  2d  00  00
00  28  32  20  00
00  00  00  00  35
00  58  03  42  42
3f  7f  53  57  42
17  5a  7f  57  28
01  12  00  00  03
08  13  12  0a  1a
55  1c  55  78  34
51  0a  25  23  06
32  20  15  49  00
23  18  36  74  00
40  00  2e  7f  00
5b  21  2c  64  00
35  5a  48  74  00
44  0e  3e  45  00
63  22  51  5f  00
58  2c  05  2a  00
41  7f  00  00  00
14  31  00  69  00
4e  06  47  7f  00
3c  00  00  21  00
25  33  18  00  00
5e  5d  3d  00  00
7f  31  60  54  16
4b  0f  7f  71  19
7b  17  59  7f  00
41  2b  12  7f  00
7f  21  00  6d  00
5d  00  1d  3c  00
2e  00  00  00  00
00  00  00  00  00
08  00  00  00  00
27  00  19  1d  03
6c  00  00  00  00
00  00  00  00  00
19  00  00  00  00
00  00  00  00  00
39  00  00  00  00
51  00  00  04  00
28  00  00  00  00
00  00  3c  00  00
43  00  00  00  00
4a  00  00  00  00
00  5d  1a  10  1a
03  00  00  27  00
00  00  00  00  00
28  1f  00  00  00
07  3f  00  00  3c
21  00  00  00  2e
09  00  00  00  00
2b  00  0d  00  00
2e  00  00  00  00
00  00  00  00  00
20  00  00  00  00
00  00  00  00  00
00  1c  00  00  00
1f  32  00  00  11
1a  08  0a  00  0e
06  4a  00  00  01
00  00  4e  00  1b
00  18  0d  00  00
00  00  00  00  04
00  00  00  00  00
00  05  00  00  00
00  00  2c  00  00
00  00  1e  00  39
00  00  00  00  14
00  00  00  00  00
00  05  00  1a  00
00  00  25  00  00
20  00  00  0c  00
03  00  00  00  00
00  00  00  00  00
00  00  00  00  00
29  00  21  00  00
4f  6c  01  00  00
00  6d  00  00  00
00  7f  00  00  00
00  00  00  00  00
00  00  08  00  00
00  42  00  00  00
00  01  0c  11  00
11  09  19  19  00
16  00  64  26  00
00  00  27  04  0a
00  00  2a  1c  01
00  00  00  13  00
0e  00  00  00  00
00  00  7f  31  00
00  00  3c  17  00
21  00  1e  62  30
3d  00  06  00  31
29  50  00  00  00
00  4c  00  0e  00
1f  00  7e  00  00
04  00  4c  00  00
00  21  0a  00  00
00  00  00  00  00
00  00  00  00  00
00  00  00  19  00
29  00  44  31  00
00  00  00  40  07
00  00  26  00  00
17  4a  67  13  00
4b  5f  0b  00  00
00  00  00  00  08
00  00  00  00  00
00  00  00  00  00
00  00  00  00  00
00  00  00  00  00
00  00  00  00  00
00  00  03  00  00
00  00  1c  0b  00
00  00  00  00  00
00  00  00  0c  00
00  00  1f  00  00
00  1f  0e  00  00
00  1c  00  00  00
00  0a  00  00  00
13  00  00  05  00
00  00  0f  00  00
00  00  00  00  00
00  00  00  00  00
00  00  00  00  00
00  00  00  00  00
00  00  00  00  00
00  00  00  00  00
00  00  00  07  00
00  00  00  00  00
00  00  00  00  00
1c  10  3a  00  00
1b  00  00  18  00
20  0b  00  00  00
06  00  00  00  00
00  00  00  00  00
00  00  00  00  20
00  00  00  00  00
00  00  00  00  0c
00  00  00  00  00
00  00  00  00  00
00  00  00  05  13
06  00  02  00  00
14  00  0c  06  00
24  00  04  00  00
00  00  00  00  00
00  00  00  00  00
00  00  00  00  00
58  13  00  00  00
2f  00  00  00  00
00  00  00  00  00
00  00  00  00  00
1e  00  10  00  00
00  00  50  00  00
00  00  00  00  00
00  00  00  00  00
1d  00  00  00  00
00  00  00  00  00
00  0a  00  00  00
19  31  0d  00  00
35  0a  0c  00  00
25  00  00  00  00
17  00  00  00  00
37  00  00  00  00
15  00  00  00  00
07  13  00  00  00
03  00  00  00  00
00  00  00  03  00
00  00  00  00  00
00  00  00  00  03
00  00  00  00  03
45  16  00  13  0f
1e  1e  00  00  00
00  00  00  00  00
07  00  02  00  00
00  00  00  00  00
0e  3e  10  00  17
0d  35  00  00  00
22  00  00  00  00
00  00  00  00  00
19  00  00  00  00
00  12  00  00  0f
10  50  00  48  61
00  21  00  38  57
00  77  00  3a  42
01  75  73  25  3a
22  7f  22  57  63
45  75  00  56  69
00  7f  00  67  55
0f  7a  00  45  10
3c  39  7f  00  0c
00  7f  71  00  54
00  7f  00  25  25
0d  7f  00  4e  00
51  34  0a  4b  00
4f  18  42  00  11
41  46  27  33  41
0c  23  42  50  7d
00  6d  3c  6a  5f
17  7a  57  60  56
3f  79  7f  4f  4c
16  62  16  61  43
00  6f  69  54  1b
0a  7f  42  00  37
69  7f  1a  08  13
4f  78  7f  22  23
4c  00  32  1c  00
42  00  45  3d  37
69  00  7f  00  20
5d  00  4f  6b  27
50  00  4f  7f  41
53  00  61  1f  03
38  00  00  63  00
2c  00  00  31  00
31  00  00  00  00
3b  00  0b  13  00
40  00  00  00  00
5e  00  00  00  00
2d  00  00  00  00
1f  00  00  00  00
00  00  00  00  00
09  00  00  00  00
00  00  00  00  00
73  00  58  00  00
7f  00  23  4d  1d
40  00  00  38  21
32  00  2c  7f  23
4a  1a  2c  69  00
26  00  1a  42  00
00  00  00  00  00
00  00  09  28  37
00  00  00  00  00
00  00  00  00  24
00  00  00  00  00
00  00  00  00  00
00  00  00  00  00
00  0a  00  00  44
00  00  21  00  00
00  3e  00  00  3d
19  00  25  00  3b
00  00  08  16  01
00  00  00  00  00
10  00  18  00  00
00  00  30  04  38
00  0d  06  00  00
00  19  00  00  00
12  1b  00  04  00
1a  00  00  13  00
00  00  00  00  0a
00  00  00  00  00
00  00  00  00  62
00  00  00  00  4e
00  00  00  00  13
00  00  00  00  06
00  00  00  03  1e
00  00  18  1c  2d
00  00  00  0d  43
00  00  07  00  50
00  17  00  00  00
00  1d  00  02  00
00  1d  00  14  00
00  2b  47  00  04
00  7f  3e  00  00
00  2f  07  00  00
00  44  44  00  10
00  00  32  3a  3f
00  09  66  00  0c
00  17  70  00  07
00  40  37  00  7f
00  7f  18  34  63
06  22  1a  6b  0f
05  5b  4e  4a  00
00  4f  57  2a  00
00  2b  1a  00  55
00  0b  00  00  00
00  32  3d  00  17
00  2e  55  00  36
00  2a  00  00  3b
00  2e  0c  33  00
00  77  46  70  1c
15  3b  26  52  38
7d  0a  65  00  00
60  43  2b  00  00
67  0f  3d  00  00
74  40  7f  00  00
5d  23  6c  00  00
37  05  5e  00  00
2d  09  13  00  00
20  29  35  00  00
00  25  1a  00  00
28  00  20  00  00
62  1a  1c  00  16
00  03  47  00  00
1e  1d  30  00  00
19  00  00  00  00
00  33  00  00  16
00  2e  05  00  2c
3e  35  24  32  00
7f  02  2c  00  00
72  00  55  00  00
3e  00  42  00  0f
2e  25  48  00  06
6b  5d  40  00  00
1c  40  00  00  00
00  27  06  00  00
24  1a  00  00  00
00  00  00  00  02
03  00  00  00  00
15  00  3e  00  00
2b  00  00  00  00
00  00  00  00  00
00  00  4a  00  00
00  00  16  00  00
00  00  00  00  00
18  00  00  00  00
06  00  1c  2f  00
00  00  2a  00  0a
00  00  14  00  04
00  1f  0f  05  54
00  29  00  08  30
00  2f  00  1a  48
00  00  18  00  0a
42  42  00  00  00
39  00  00  00  7a
27  00  00  00  33
00  00  12  00  00
00  00  00  00  00
00  00  05  00  00
00  00  00  26  00
00  00  00  04  00
06  00  00  00  00
6d  00  00  00  2f
7f  0e  1a  00  41
48  00  23  27  7f
28  00  00  00  6f
5b  0f  37  27  37
7f  0a  59  00  45
71  00  2d  00  2f
2e  00  00  00  00
62  43  00  00  00
38  2c  27  4e  00
01  07  7f  31  00
0e  18  6e  00  00
1d  44  00  00  43
7b  51  00  18  61
65  37  27  7f  22
12  19  06  7f  00
39  14  57  73  00
66  4f  7f  6a  26
6f  3d  7f  05  7f
2a  0f  2f  00  45
2c  2f  00  00  63
55  47  7f  10  49
73  6d  7f  09  4b
54  27  00  00  1d
25  00  00  00  00
36  00  00  00  00
23  00  18  00  03
3b  4a  00  00  00
2e  2e  27  00  00
57  45  00  00  00
1b  71  3a  00  00
00  5f  00  00  00
16  06  00  00  00
00  51  00  00  00
00  00  00  00  2e
00  00  00  00  00
00  00  00  00  00
23  00  56  00  00
00  6e  00  00  00
00  26  00  00  00
00  00  00  00  00
1d  00  00  00  00
15  00  00  00  00
00  00  0d  00  00
00  00  48  00  02
10  28  27  00  00
41  35  00  00  15
36  10  00  00  00
4e  23  00  00  00
34  40  00  00  0e
6b  00  06  19  00
1b  00  00  00  00
38  00  00  00  15
38  00  00  00  00
28  00  00  00  05
2f  00  00  00  23
20  00  00  00  00
11  00  00  00  00
31  00  00  00  00
12  00  00  00  00
37  00  00  00  00
34  00  00  00  00
10  00  00  00  00
29  00  00  00  00
17  00  00  00  00
00  00  00  00  00
00  00  00  00  00
35  00  00  00  00
2f  00  00  00  00
00  00  00  00  0e
1d  00  00  01  2a
38  00  16  00  1a
1f  00  00  00  1f
00  00  00  00  00
05  00  00  00  1b
1d  00  00  1e  16
56  30  00  34  30
56  00  0d  10  18
3b  42  00  23  00
18  25  33  00  00
00  41  07  06  00
00  00  00  2f  00
55  2b  29  54  0e
6a  4e  66  0c  10
7f  32  3f  1e  00
7f  4b  00  1e  00
7f  7b  48  27  00
5e  5b  7f  6d  32
00  54  32  7f  0d
0e  7f  11  23  55
34  5c  1e  65  1b
49  42  00  7f  23
70  23  00  3b  6c
7f  00  1a  23  39
7f  00  52  00  00
56  7f  24  02  00
00  7f  2d  00  00
32  7f  00  00  02
30  57  50  2f  00
08  2b  6c  4f  00
00  00  00  00  00
00  45  00  00  00
00  47  00  00  00
00  00  00  00  00
00  00  00  00  00
00  00  00  00  00
00  00  00  00  00
00  00  00  08  00
00  00  00  00  00
00  00  05  00  00
00  00  00  00  36
00  00  00  00  16
00  32  00  00  00
00  00  00  00  00
00  00  00  00  00
00  00  00  00  00
00  00  00  00  00
00  00  00  00  00
00  23  00  00  00
00  00  00  00  00
00  00  00  00  00
00  04  00  20  00
00  00  00  00  00
00  00  2f  00  00
0c  00  00  00  00
5c  71  24  28  13
32  7f  28  19  00
28  57  30  2b  29
17  34  39  06  00
24  29  55  00  05
00  31  00  00  00
00  3d  00  04  00
3e  00  1e  51  00
08  3b  1e  00  00
1b  4a  00  00  00
1b  12  00  16  00
00  00  0b  00  0d
00  00  5f  17  14
00  0f  33  27  1c
00  5d  19  40  74
09  1a  7f  2e  45
34  1e  39  57  0e
45  35  04  00  00
5f  1b  17  00  00
1f  00  02  11  00
45  3c  00  00  03
22  76  2b  22  00
27  6d  2a  00  00
03  13  40  19  00
00  31  00  00  00
11  62  04  00  00
4c  7a  00  00  00
52  75  62  0a  0b
36  06  15  00  00
00  00  00  00  1e
00  00  00  00  00
00  00  00  00  00
00  27  00  00  00
00  0c  01  00  00
36  00  44  09  00
2f  00  00  00  72
00  2c  00  00  13
00  00  00  00  00
00  00  42  78  00
00  1f  63  00  41
00  38  00  00  1c
33  50  00  00  46
51  7f  00  00  31
7f  3d  00  00  33
2d  00  00  08  00
04  00  2b  08  00
00  0e  00  00  00
00  00  00  00  00
00  00  00  00  00
00  00  00  00  00
