16  24  2e  25  13
15  15  19  11  08
21  21  26  11  09
1f  25  26  0e  02
2b  33  2f  12  02
35  45  53  22  00
33  37  3b  19  00
22  29  2d  0d  00
11  2a  26  28  04
07  17  0e  22  03
00  12  21  2b  0a
00  12  2a  2f  1f
0a  1a  25  13  04
20  39  32  2c  11
17  23  15  10  03
08  18  14  19  07
00  00  0d  09  06
08  00  1b  08  05
0f  0b  41  31  30
12  1d  48  4e  31
24  42  5e  49  2c
1e  32  55  3d  28
15  3d  3c  21  04
19  2e  24  0d  06
0a  15  0b  07  00
0d  11  12  0e  0a
21  38  47  3f  22
13  18  1d  1e  14
0e  0c  0f  19  1a
00  00  00  12  16
00  00  00  13  16
00  00  02  1a  17
00  00  00  17  0b
00  00  00  00  00
09  02  00  00  00
22  20  02  00  00
1b  10  00  00  00
10  0c  00  00  00
00  00  00  00  00
00  00  00  00  00
00  00  00  00  00
00  00  00  00  00
05  02  00  00  00
11  0e  00  00  00
08  05  00  00  00
06  00  00  00  00
00  00  00  00  00
02  00  00  06  00
00  02  01  07  00
00  00  00  00  00
04  06  00  06  00
09  0b  00  00  00
08  0e  00  00  03
03  04  00  00  00
01  00  00  00  00
00  00  00  00  00
00  00  00  00  00
05  00  00  00  00
07  01  00  00  00
00  00  00  00  05
00  00  00  25  24
00  00  00  0f  18
00  00  00  09  11
00  00  00  00  00
05  06  00  00  00
03  01  00  00  00
13  0e  00  00  00
06  07  00  00  00
08  02  00  00  00
06  08  18  07  01
00  02  0e  0e  05
00  03  0e  0b  0b
00  02  0e  01  02
00  00  00  00  0f
00  00  00  00  02
0b  15  05  0b  08
03  02  00  02  04
07  09  06  0a  08
00  00  00  04  02
00  00  00  05  0e
0a  00  00  09  01
05  00  00  08  10
0d  00  00  06  17
0f  0e  0a  0f  18
00  02  00  01  00
04  0c  08  00  00
00  00  00  00  00
07  04  09  00  00
0b  09  23  1c  14
07  11  14  12  0b
05  14  21  22  1d
00  0e  0b  0a  0e
0f  13  0e  08  0a
09  0d  0e  0b  14
13  15  23  20  21
1a  28  2d  25  1b
0b  16  29  32  22
08  23  2b  2c  11
00  00  1b  25  15
01  06  18  15  0c
1d  3e  5c  4d  25
49  6a  7f  5b  27
44  54  62  41  1f
40  4d  61  36  1f
4e  71  67  32  0e
44  6d  7f  4d  0e
4e  7f  7f  63  17
24  45  5e  40  04
0d  33  42  43  03
01  0f  1f  2d  09
00  05  1b  2c  11
00  11  33  35  1c
00  0f  2c  22  0d
09  1d  39  35  1a
00  00  12  0b  0b
00  00  0b  10  0f
00  00  08  08  10
0a  04  25  11  12
0c  0a  39  35  34
10  21  45  4d  30
28  42  57  42  2a
22  39  51  30  17
2c  49  36  1b  01
37  48  37  16  09
15  1e  11  00  00
00  12  14  14  01
21  3f  47  28  0c
18  33  2b  20  0d
10  22  27  1a  13
19  29  1d  11  0a
04  0a  00  04  01
07  1b  13  14  09
00  00  02  12  14
00  00  0b  13  13
00  00  00  05  0e
00  00  00  11  0e
00  00  00  00  00
00  00  00  00  05
00  00  00  00  00
05  16  11  0d  08
00  09  11  0e  0c
00  0f  0d  08  0e
00  02  00  02  06
00  00  00  00  00
00  00  02  00  00
00  00  00  00  04
01  08  04  0c  0b
16  18  0a  0c  09
13  1c  1d  20  1a
11  16  0b  02  02
00  00  00  00  00
00  00  00  00  00
00  00  00  00  00
00  00  00  00  00
00  00  00  00  00
00  00  00  00  01
00  00  00  00  00
00  00  00  00  00
00  00  00  00  00
05  00  01  00  01
00  00  00  00  00
00  03  0a  0c  00
00  00  02  0a  06
00  00  00  00  00
03  00  00  00  00
00  00  00  00  00
07  00  0f  0b  09
00  00  00  06  00
00  00  00  0c  07
00  00  00  00  00
00  00  00  00  00
00  00  00  00  00
00  00  00  00  00
00  00  00  00  00
00  00  00  00  00
00  00  00  00  00
00  00  00  00  00
00  00  00  00  00
00  00  00  00  00
00  00  00  00  00
00  00  00  00  08
00  00  00  00  00
00  00  00  00  00
00  00  00  00  00
06  04  15  16  19
00  00  09  32  3a
00  05  1e  30  2a
00  03  08  1c  31
00  00  00  00  07
24  2a  1c  15  12
10  00  00  02  09
25  20  1c  15  1a
0b  0f  0e  0d  0a
00  05  04  00  00
00  00  07  00  00
00  00  04  00  00
02  00  01  00  00
00  00  00  00  00
00  00  00  00  06
00  00  00  00  04
21  38  3f  3c  27
3c  4c  46  2a  1c
33  39  35  2c  20
25  27  37  27  22
26  27  23  1d  13
25  26  2f  2e  14
28  25  21  25  14
1c  1a  11  0b  06
19  1b  12  15  0e
14  19  26  23  19
01  07  23  27  1c
07  1d  47  41  23
09  18  39  24  0b
0c  26  36  37  15
11  26  3b  33  26
0c  1a  26  28  1c
0b  16  36  35  29
1b  1b  2e  1a  17
16  11  21  1e  1a
19  1d  29  32  1e
1e  2b  2a  26  17
18  21  26  23  14
1a  2b  26  21  12
12  16  1d  23  1e
11  18  1a  12  0d
1a  1b  18  19  13
12  18  15  19  0e
10  0f  16  1a  0f
06  01  10  16  0e
00  00  12  14  12
17  15  2b  2d  20
1a  18  37  2d  1d
1a  1b  27  18  09
1c  26  1e  10  04
17  1c  23  14  08
0c  0e  1c  02  05
0e  1f  3b  24  0c
04  0e  2a  12  00
0e  23  2b  2e  11
11  12  1c  1c  16
12  15  17  1e  18
15  15  25  2a  1e
14  16  25  19  13
12  15  27  24  1c
19  1c  2d  28  20
1a  2d  34  2e  1e
10  1a  2b  28  17
0a  21  2d  27  0f
00  00  18  20  0c
00  06  14  12  03
00  00  00  00  00
00  00  00  00  01
00  00  00  00  02
00  00  00  00  0d
00  00  00  00  07
00  00  00  00  10
00  00  00  00  06
00  00  00  00  11
00  00  00  00  04
0a  04  04  07  14
09  09  0d  10  0f
0c  15  1a  17  0c
07  08  08  0a  11
03  04  00  04  09
03  18  20  1c  15
11  1b  0d  0e  0e
05  14  25  1e  1b
01  04  00  0b  06
00  00  00  00  00
00  00  00  00  00
00  00  00  00  00
00  00  00  00  00
00  00  00  00  00
00  00  00  04  09
00  00  00  00  00
00  00  00  00  00
00  00  00  00  00
00  00  00  00  00
00  00  00  00  00
00  00  00  00  00
00  00  00  00  09
00  00  00  00  00
00  00  00  00  01
06  00  00  00  00
0a  04  00  00  00
08  05  00  00  04
08  01  00  00  00
0b  06  00  01  12
1d  1b  00  00  00
20  20  00  06  00
1e  24  04  08  01
10  15  02  05  01
01  00  00  01  01
00  00  00  00  00
00  00  00  00  00
00  00  00  00  00
00  00  00  00  00
00  00  00  00  04
00  00  00  01  02
02  02  01  02  02
1e  38  4d  3d  25
3e  53  63  3f  21
2f  3b  43  2d  16
2a  36  45  2d  1d
29  37  33  22  10
23  32  40  2d  09
26  3b  41  34  15
15  1d  25  1b  01
10  15  19  10  03
0c  0f  0e  09  02
03  02  02  00  00
05  0a  14  0d  04
00  07  19  06  00
04  08  12  13  07
00  00  00  00  04
00  00  01  00  0a
03  00  11  0f  0d
0b  10  1f  0f  10
0e  17  25  27  1e
18  1d  10  26  13
1e  21  0c  10  0a
19  1e  0d  06  01
23  25  0c  03  00
1a  15  0c  00  00
0d  0a  00  00  00
0c  0e  14  10  0b
04  00  00  00  01
09  05  0b  03  05
08  0a  0d  06  02
08  05  0c  05  04
13  19  26  18  15
0f  0a  27  16  11
17  16  22  04  05
1a  20  20  18  0d
14  1d  21  1f  16
09  0e  27  2e  28
0c  19  2c  33  2b
0e  18  20  1f  1f
29  40  1f  21  11
27  3d  28  28  15
1e  2d  1d  25  10
13  22  28  26  19
0a  0b  22  17  10
0b  09  22  18  15
0b  0c  28  27  1d
11  21  2e  21  13
0b  0f  29  19  12
0c  1a  22  1b  13
0a  12  18  1f  14
10  19  18  15  08
00  00  00  00  00
00  00  00  00  00
00  00  00  00  00
00  00  00  00  02
00  00  00  00  02
00  00  00  00  07
00  00  00  00  00
00  00  00  00  03
00  00  00  00  02
0d  0c  00  06  0a
07  08  0c  17  11
0d  0f  0d  13  14
14  0f  00  06  1b
28  30  00  00  01
21  37  20  1f  10
23  31  13  12  02
01  0f  12  11  06
00  00  00  02  02
00  00  00  00  00
00  00  00  00  00
00  00  00  00  00
00  00  00  00  00
00  00  00  00  05
08  04  00  00  02
07  05  00  02  04
00  00  00  00  00
00  00  00  00  00
00  00  00  00  00
00  00  00  00  00
00  00  00  00  00
00  00  00  00  11
00  00  00  00  00
00  00  00  00  00
00  00  00  00  00
0e  10  06  00  00
0a  04  0b  08  0d
0d  0d  00  03  08
12  0e  00  05  1a
21  23  00  00  00
27  22  00  00  00
18  12  00  00  00
13  0c  00  00  00
00  00  00  06  00
00  00  00  00  00
00  00  00  00  00
00  00  00  00  00
06  00  00  00  00
00  00  00  00  02
00  00  00  00  00
04  02  00  00  00
1e  20  24  20  1f
20  1f  18  15  16
18  0b  09  0e  11
11  09  10  15  13
06  00  00  0f  11
0b  00  14  21  14
07  00  00  03  10
0b  00  00  00  02
0b  00  00  00  00
0f  0b  0b  0b  10
06  01  08  13  1a
07  12  2c  26  15
00  0b  27  1b  06
00  00  0d  10  00
00  00  06  00  07
00  00  00  00  0b
0e  0e  1d  1e  18
17  1b  1e  10  0e
1c  1c  19  1b  0f
1a  17  00  14  0a
15  11  00  03  06
12  0b  00  00  04
02  02  00  00  00
00  00  00  00  00
00  00  00  00  00
00  00  00  00  00
00  00  00  00  00
00  00  00  00  00
00  00  00  00  00
00  00  00  00  02
00  00  00  00  0b
00  00  00  00  00
00  00  00  00  00
07  00  00  00  00
11  0c  00  00  00
0a  08  05  00  00
13  0c  00  00  00
1c  14  00  08  14
3f  43  09  00  00
25  24  00  0b  00
27  38  09  05  00
00  05  00  00  00
00  00  00  00  00
00  00  00  00  00
02  00  00  00  00
00  00  00  00  00
00  00  00  00  00
00  00  00  00  01
06  00  00  00  00
0a  02  00  00  01
00  00  00  00  02
00  03  00  09  0f
00  00  00  02  0f
00  00  00  05  18
00  00  00  04  15
00  00  00  00  19
00  00  00  00  11
00  00  00  00  07
00  00  00  00  00
0a  03  03  00  00
1a  15  0c  00  00
18  11  00  00  00
13  0b  00  00  00
00  00  00  00  00
00  00  00  00  00
00  02  00  00  00
00  00  00  00  00
00  00  00  00  00
0a  00  00  00  00
00  00  00  00  00
00  00  00  00  00
00  00  00  00  00
00  00  00  0d  0e
00  00  00  17  0b
00  00  12  10  08
0c  11  1f  16  0e
18  21  2f  24  12
0b  0d  14  11  07
0c  0b  13  10  0e
09  12  14  0f  05
03  16  15  11  09
07  25  2a  1d  0b
05  13  1d  17  00
08  0b  0e  04  00
09  03  08  01  00
0a  03  00  00  00
0d  09  04  00  00
0b  0e  05  0c  0a
12  0d  00  00  00
03  00  00  00  00
11  0a  00  00  00
09  00  00  00  00
0a  02  00  00  04
08  0b  01  0f  07
0c  0c  00  00  00
04  00  00  00  00
0a  03  00  00  00
11  00  00  00  00
1b  0c  00  00  00
11  02  00  00  00
00  00  00  00  00
00  00  00  00  00
00  00  00  00  00
00  00  00  00  00
00  00  00  00  00
00  00  00  00  01
00  00  00  00  00
00  00  00  00  00
00  00  00  00  00
05  01  0b  0c  0b
00  00  08  2b  26
00  0c  18  28  1a
05  0d  08  24  28
03  06  00  00  00
16  0f  02  02  03
08  00  00  00  00
13  01  01  00  02
00  00  00  00  00
00  00  00  02  01
00  00  00  00  00
00  00  00  00  00
00  00  00  00  00
00  00  00  00  00
00  00  00  00  00
00  00  00  00  00
0d  06  09  0c  0f
00  00  00  00  02
06  00  00  00  05
0a  09  00  00  01
09  01  01  01  00
12  0f  12  07  05
0d  00  00  00  00
18  13  02  00  00
17  1a  05  07  05
11  18  13  15  0e
08  0c  1e  26  20
08  0f  1f  27  24
0b  13  20  1b  16
13  16  12  18  12
0c  0d  0b  0a  08
0e  10  0d  0e  06
0d  11  0a  0b  00
0c  0f  15  09  05
19  1b  2b  1c  12
21  26  2c  2a  1b
15  25  2c  28  14
1a  25  26  22  17
09  16  1c  16  0b
07  0c  0a  0c  0c
0a  0e  09  0d  06
13  0f  09  0a  0f
10  0d  02  00  06
04  00  00  00  08
00  00  00  01  0e
00  00  00  00  08
00  00  00  05  0e
00  00  00  00  08
08  00  00  00  00
0d  03  00  00  00
12  0d  1f  0c  0b
04  00  0f  0a  11
04  14  30  29  11
01  0e  22  20  12
00  08  0e  13  02
12  0b  10  12  10
10  0b  04  06  0a
1e  15  20  1f  1b
19  18  12  10  0d
14  12  08  0f  07
08  06  00  09  07
00  00  00  00  00
00  00  00  00  00
00  00  00  00  05
00  00  00  00  00
00  00  07  04  0a
21  3d  40  36  1b
3e  61  6f  4f  1e
33  48  50  3d  1d
20  27  37  2b  17
22  32  38  24  14
2a  34  38  23  04
37  4c  5f  3b  16
23  32  3c  22  00
20  35  3b  2c  0d
0b  12  18  16  02
03  0d  12  00  00
01  09  25  17  08
04  08  20  0f  00
16  25  40  3d  19
0f  0e  16  1b  13
10  1f  24  26  18
04  00  0f  0f  0c
11  11  19  0d  0f
0f  0c  1b  1d  1c
19  23  44  39  2a
25  3f  4e  39  22
14  2b  48  39  17
20  45  42  32  0d
12  20  2e  1c  07
07  13  13  13  06
04  02  03  06  03
16  1e  17  0f  0d
10  14  0c  0d  0e
0f  13  15  10  14
09  02  00  0a  0c
00  00  00  08  21
00  00  00  00  12
00  00  00  00  01
03  00  00  00  00
0e  09  0d  00  04
10  0a  0c  06  14
10  0e  0b  07  09
0c  0c  02  04  0f
02  01  00  00  00
08  08  00  00  00
0e  0d  00  00  00
13  12  02  04  00
0a  0a  03  02  03
0b  06  00  00  00
03  00  00  00  00
00  00  00  00  00
07  00  00  00  00
0c  00  00  00  08
09  03  00  0f  0b
0f  11  06  04  00
0b  17  20  12  04
1b  34  42  30  0d
10  1d  21  16  04
0b  0e  14  0c  02
11  21  1e  0d  02
0c  1c  20  0c  01
16  37  48  23  07
04  17  2d  1c  00
04  12  20  16  00
00  00  00  03  00
00  00  00  00  00
00  00  00  00  00
00  00  00  07  0a
06  05  06  05  01
04  00  00  00  00
0a  0a  00  00  00
06  00  00  00  00
04  00  00  00  00
02  00  00  03  01
00  00  05  05  00
00  00  05  02  02
00  02  07  00  00
08  06  03  00  00
0e  0d  08  00  00
00  00  00  00  00
12  2f  27  24  11
21  3c  36  26  0c
24  3d  38  27  12
19  25  2c  1e  13
1f  2f  31  19  0e
26  2d  35  1f  09
2c  37  4e  33  14
1d  26  33  23  17
16  2b  3d  42  27
0b  14  1c  2a  1f
0d  1d  30  32  1c
0b  13  25  26  24
0c  11  1e  0d  0c
0c  20  37  34  22
0c  32  3d  35  1d
03  1f  30  34  1f
00  1e  2e  26  20
0e  16  21  14  10
11  14  27  11  19
14  1f  4e  39  2d
29  42  57  38  25
13  2f  52  4c  29
1f  49  46  3f  17
14  2f  44  44  2a
10  23  2d  21  0d
00  00  00  00  00
00  00  00  00  00
00  00  00  00  00
00  00  00  00  00
00  00  00  00  00
00  00  00  00  0d
00  00  00  00  01
00  00  00  00  17
00  00  00  00  13
0a  07  0d  18  27
0d  12  25  39  34
09  10  15  1f  20
03  03  00  08  1c
00  00  00  00  0a
06  27  2f  24  16
0b  15  1b  25  19
13  2b  2d  2c  22
07  10  03  17  0a
06  0c  00  00  00
00  02  09  00  00
00  00  04  00  03
00  00  02  14  15
00  00  05  13  0f
00  00  04  2b  26
00  05  11  16  06
05  06  00  04  07
15  1b  13  0f  0d
0b  0d  03  0e  0e
06  05  07  10  16
00  00  00  08  0e
00  00  00  00  0c
00  00  00  00  08
00  00  00  00  02
00  00  00  00  00
04  00  00  00  00
05  00  00  00  00
06  00  00  00  00
00  00  00  00  00
00  00  00  00  00
00  00  00  00  00
00  00  00  00  00
07  04  00  00  00
08  0b  00  00  00
07  05  00  00  00
06  00  00  00  00
00  00  00  00  00
02  00  00  00  00
05  00  00  00  04
00  00  00  00  05
02  00  01  02  00
09  1d  25  1b  0f
23  33  3b  22  13
18  21  20  14  09
16  23  27  17  0f
15  1a  16  10  0d
0a  12  1e  14  02
05  0b  09  12  11
00  00  02  11  1a
00  00  07  0a  10
00  00  00  02  0c
00  00  00  02  07
00  00  00  00  01
00  00  00  00  00
00  00  00  00  00
00  00  0b  00  07
00  00  08  0c  15
0b  1d  21  1f  1d
07  15  1a  18  11
00  0f  10  17  11
03  08  00  06  02
08  04  00  00  00
0b  07  00  00  07
0f  0c  00  00  00
00  00  00  00  00
00  00  00  00  00
00  00  00  00  00
00  00  00  00  00
00  00  00  00  02
00  01  00  00  04
00  00  00  00  01
00  00  00  00  0e
00  00  00  00  02
00  00  00  00  00
08  00  00  00  00
09  07  04  00  02
00  00  05  0f  16
05  02  04  0c  0f
08  04  00  0c  19
1a  21  00  00  00
1c  1e  00  00  00
17  17  00  00  00
10  06  00  00  00
00  00  00  00  00
00  00  00  00  00
00  00  00  00  00
00  00  00  00  00
00  00  00  00  00
02  00  01  00  03
08  00  00  00  00
09  09  02  01  00
00  00  00  00  00
00  00  00  00  00
00  00  00  01  07
04  06  00  06  07
00  00  00  07  05
00  00  00  00  0d
00  00  00  00  00
00  00  00  00  00
03  00  00  00  00
07  03  00  00  00
01  00  00  00  00
05  00  00  00  00
08  00  00  00  0d
15  0e  00  00  00
10  08  00  00  00
09  09  00  00  00
06  01  00  00  00
00  00  00  00  00
00  00  00  00  00
00  00  00  00  00
00  00  00  00  00
07  00  00  00  00
0a  00  00  00  03
09  00  00  00  00
0d  0c  00  00  00
11  18  16  16  14
13  21  1f  1b  14
14  1a  1c  15  14
09  09  08  0e  0d
09  06  0d  0f  11
13  11  18  1b  15
16  11  1a  1e  19
13  19  1a  16  14
13  24  1c  22  13
0c  11  16  13  0c
15  1f  2c  14  0a
11  17  1d  11  0e
0c  10  1c  06  00
00  00  1c  1e  15
00  00  0a  0b  03
00  0a  12  18  0e
00  00  09  09  06
0c  09  09  06  03
1e  1a  27  19  1d
19  22  3d  31  25
1c  2f  3e  38  24
09  22  3a  4a  28
08  27  33  39  18
00  13  2c  3c  24
01  11  21  20  0d
00  00  00  00  00
00  00  00  00  00
00  00  00  00  00
00  00  00  00  00
00  00  00  00  00
00  00  00  00  00
00  00  00  00  00
00  00  00  00  00
0a  07  00  00  00
00  00  00  01  03
00  00  00  0e  0f
00  00  00  02  08
00  00  00  0d  11
05  00  00  00  00
08  00  00  00  00
0d  0b  00  00  00
0c  04  00  00  00
08  05  00  00  00
07  05  00  00  00
05  02  04  01  02
00  00  00  00  00
00  00  01  00  00
00  00  00  00  02
00  00  00  00  00
00  00  00  00  00
00  00  00  00  00
00  00  00  00  01
00  00  00  00  00
00  00  00  00  00
00  00  00  00  09
00  00  00  00  11
00  00  00  01  10
00  00  03  18  25
00  04  0c  14  16
0a  0b  01  07  0c
1e  22  1f  12  0b
1d  1c  00  00  06
1c  16  00  00  0b
07  02  00  00  0c
00  10  0b  10  04
09  11  0d  16  0c
00  13  0b  0e  09
00  00  00  0c  06
05  0b  0c  07  0e
00  01  08  00  05
00  00  08  0c  0d
00  00  06  18  19
00  00  06  18  0d
00  0b  0e  1c  12
01  05  09  0e  04
15  1d  1d  17  12
1f  32  32  29  14
14  1b  1e  1a  11
08  09  18  1a  17
01  01  15  16  18
0a  0f  27  22  23
0b  10  3b  2d  24
0e  15  2e  16  09
1c  22  20  09  02
1f  23  2b  11  08
2a  29  29  00  04
24  2f  2d  13  07
18  20  26  0c  04
0c  1b  15  1a  0b
09  03  04  08  08
18  1b  09  0a  11
10  08  11  0f  15
19  13  15  0d  13
1b  16  21  1b  1f
0e  0d  20  1c  18
18  1d  20  1b  13
06  0b  1c  1e  0c
11  19  21  26  10
06  0b  22  25  0b
0b  10  1b  18  0b
15  03  07  03  12
00  00  00  00  00
00  00  00  00  00
04  00  00  00  00
03  00  02  00  00
19  1b  1f  0f  00
11  01  00  00  00
1b  15  07  00  00
11  12  00  0a  01
0e  14  18  1d  0d
00  00  10  2b  1e
00  0e  21  2e  1e
0a  17  23  27  19
14  1a  11  10  07
1c  11  0a  06  0c
02  00  00  00  03
11  09  0e  0d  0b
0a  09  1e  10  0c
14  15  31  2a  1f
1a  15  0c  2a  1f
14  1b  16  18  0e
1c  13  0f  00  0a
00  00  00  00  04
00  00  00  00  00
05  00  00  03  02
04  09  07  04  00
00  01  05  09  00
02  0a  09  06  00
00  00  00  00  00
02  07  09  01  00
0a  10  0c  00  00
0f  18  15  01  00
0a  13  10  09  00
09  16  13  15  01
00  00  00  02  00
00  00  00  0e  03
00  00  00  00  02
00  00  00  05  08
05  02  0d  05  03
03  00  00  00  00
02  0c  02  00  00
00  00  00  00  00
04  01  00  00  00
05  05  07  07  08
0c  12  1c  19  0f
0b  18  23  1c  0e
0a  17  23  19  0c
03  10  16  0a  00
00  07  0e  00  00
00  00  01  00  01
00  00  00  00  00
00  00  00  00  00
00  00  00  00  00
00  00  00  00  00
00  00  00  00  02
00  00  00  00  0d
00  00  00  00  05
00  00  01  00  0a
07  00  0b  00  0a
05  01  00  00  07
04  00  00  00  0d
06  00  00  00  01
00  00  00  00  0e
0f  07  00  00  00
0d  0f  00  06  01
10  11  05  0a  02
08  15  02  07  00
00  00  00  05  01
00  00  00  00  00
00  00  00  00  00
00  00  00  00  00
00  00  00  00  00
00  00  00  00  0e
00  00  02  0c  0d
04  05  09  0b  09
00  00  00  01  00
00  00  07  07  00
00  07  05  08  00
00  02  00  04  03
01  09  04  03  00
00  00  00  00  00
00  0c  00  00  00
00  00  00  04  00
02  00  02  07  06
00  00  00  00  01
00  00  00  06  06
00  00  00  00  00
00  00  00  02  09
06  00  00  00  00
00  00  00  00  00
00  00  00  00  00
00  00  00  00  00
00  00  00  00  00
00  00  00  00  00
07  07  00  00  00
00  00  00  00  00
06  09  00  00  00
0a  00  00  00  00
0f  0b  05  00  01
08  05  00  00  01
01  00  00  04  03
00  00  00  00  00
00  00  00  00  00
07  06  06  00  00
15  1a  15  00  00
18  26  26  10  00
14  11  10  05  00
14  17  12  05  06
05  19  16  25  0e
0a  14  1e  3a  24
00  00  24  5b  3c
00  1c  4d  5b  3d
07  1a  2a  2a  2c
21  39  34  31  1f
36  53  4c  3e  2e
21  28  23  2b  21
14  26  3c  36  33
10  0e  26  1b  17
03  0c  25  17  12
04  0f  2d  23  25
06  1e  3e  24  19
16  20  32  17  1a
00  17  1a  06  06
0b  1b  0d  06  09
08  0c  05  01  01
0b  1c  24  1f  10
1d  2a  30  1c  10
24  2f  31  1e  13
20  2d  35  1e  17
23  2d  28  16  10
1b  23  2b  17  10
1b  1d  33  1f  14
12  14  23  0a  09
13  18  24  19  11
10  18  16  19  0f
09  0e  1d  21  1b
0f  15  21  22  1f
14  17  18  0e  15
2c  3d  26  21  15
25  3a  2d  29  19
17  27  25  28  19
02  17  24  22  1b
06  08  23  15  13
04  04  1a  0e  13
0d  13  2c  20  1c
1a  28  37  20  16
17  1f  31  1d  13
22  37  2e  27  14
21  2b  2d  28  1a
1d  25  21  16  0b
17  16  18  0f  0e
00  00  00  00  06
03  00  07  04  00
04  05  00  00  00
01  02  0d  07  00
19  1e  18  0d  00
1b  1e  18  12  01
1c  21  17  0d  00
14  21  19  16  08
01  08  01  00  00
02  05  00  00  00
00  00  00  00  00
06  09  10  00  00
14  0b  1a  14  10
00  00  00  00  00
04  02  09  0a  09
06  07  00  00  00
0b  12  11  05  05
0f  1d  28  25  1a
29  2d  1d  2b  1f
1f  2f  29  28  12
1f  2c  21  1e  10
0c  1c  16  19  04
00  05  07  00  00
04  01  02  07  03
00  00  00  00  00
00  00  00  00  02
00  00  00  00  05
00  00  00  00  09
00  00  00  00  07
00  00  00  00  1c
00  00  00  00  0e
00  00  00  00  1a
00  00  00  00  0b
10  0c  10  09  1c
1b  18  22  19  1f
18  1f  17  0f  11
0c  0e  07  02  12
00  00  00  00  05
00  19  20  1d  0e
05  0b  0d  18  11
0e  21  26  27  1e
02  06  03  12  08
09  0a  00  00  00
00  00  00  00  00
00  00  00  00  00
00  00  00  0b  0d
00  00  00  0b  0b
00  00  03  26  1c
00  00  0a  0c  00
00  00  00  00  03
00  00  00  00  00
00  00  00  00  00
01  00  00  00  00
09  0d  01  00  00
00  02  00  04  06
00  04  00  00  00
00  06  00  08  09
00  07  00  0e  04
0a  0a  0f  1e  16
05  09  1d  34  24
0a  1c  2b  2e  1d
06  0d  16  1d  18
00  02  0d  11  12
00  03  19  11  14
0f  05  00  00  0a
07  00  0d  0a  14
08  00  00  04  06
08  07  09  00  03
00  05  12  03  09
00  00  0c  0b  0c
01  09  0b  0e  0d
00  00  00  00  06
03  0d  06  0c  0d
00  00  03  05  01
04  0f  10  14  0d
04  00  00  00  04
09  0e  0f  08  04
09  10  09  03  00
13  19  17  08  02
1c  24  1f  0e  00
1b  1e  08  0a  00
16  1a  0d  1b  1f
0d  1d  1f  31  22
00  07  00  19  12
00  0a  0e  27  10
00  05  0d  10  12
08  0c  0c  03  05
06  07  1d  18  19
0e  25  27  20  15
01  08  20  24  1b
08  21  1c  1a  1a
0d  14  18  14  11
0a  17  2d  26  27
16  23  37  38  2b
17  2d  3d  36  21
16  2d  3c  3e  2f
0c  26  23  1a  0a
04  18  19  11  12
0a  0b  06  06  07
02  0d  11  14  07
12  1e  22  14  07
17  27  25  12  08
19  27  2a  0e  05
2c  43  3d  12  01
27  41  42  0e  00
26  3e  3c  17  02
1b  2d  34  1c  0a
0b  2f  33  3f  15
02  0f  13  35  18
00  0d  18  47  26
00  0e  29  38  29
06  0c  16  1a  1e
08  0d  28  26  21
18  22  21  19  17
0b  0a  16  1c  1e
0a  0c  14  0f  1e
0e  0c  19  14  17
07  11  34  27  2c
0c  20  4f  3d  36
17  36  62  42  2a
1c  39  5b  3e  28
1a  3b  36  1d  06
23  37  2a  0b  09
12  14  0f  06  0e
02  0c  18  13  06
04  03  06  00  00
0e  11  14  0a  04
0d  17  0f  06  00
0f  12  0d  06  00
0f  10  10  05  00
0f  11  12  05  00
0c  0b  0b  01  0b
10  0f  17  17  16
01  04  00  0c  14
00  00  0a  23  25
00  00  00  08  1d
01  00  00  0c  18
14  0b  00  03  0b
15  20  10  11  09
03  08  11  16  07
06  1d  0a  08  00
00  09  11  09  01
08  0b  14  09  01
13  17  1d  1d  0c
11  19  1b  18  0e
10  16  1c  1b  1c
14  1a  19  17  14
0c  12  15  20  21
10  19  0e  10  0a
00  00  00  00  00
00  00  00  00  00
00  00  00  00  00
00  00  00  00  00
00  00  00  00  01
00  00  00  00  17
00  00  00  00  06
00  00  00  00  14
09  00  00  00  06
05  01  00  00  0a
13  14  14  0e  1b
11  02  00  00  07
0b  05  00  00  12
06  00  00  00  00
01  08  00  00  00
07  13  00  00  00
02  0e  00  00  00
00  00  00  00  00
0e  0a  00  00  00
07  02  02  00  00
00  00  00  00  05
00  00  00  11  12
00  00  08  12  0f
00  00  09  25  19
00  06  0b  0d  00
05  23  2b  23  09
29  47  48  31  0f
2a  46  3c  25  0d
29  3b  38  1b  0b
3c  5d  46  1c  00
27  42  3c  1b  00
2d  56  4e  2d  00
08  1f  2a  1f  00
00  17  1d  27  03
00  00  00  0e  00
00  07  06  0f  00
00  00  00  00  00
00  00  00  00  00
00  00  00  00  00
00  00  00  00  00
00  00  00  00  00
00  00  00  00  00
01  02  00  00  00
0b  09  17  0c  10
00  0b  20  22  0c
17  1e  29  1f  14
15  25  2d  1d  0e
22  2d  18  10  03
2c  37  32  20  18
10  1e  13  06  00
1d  43  51  43  26
38  4a  53  34  1d
35  44  47  2e  17
2d  3c  44  2a  1d
2e  3d  37  21  0b
2e  3d  41  25  00
2f  40  32  26  08
1c  22  1e  16  03
16  20  22  21  0e
07  0e  01  0f  00
03  0c  08  08  00
03  02  0b  0a  0a
0c  11  19  06  00
18  1b  25  1d  0d
06  01  02  01  02
02  07  11  0d  09
00  04  05  00  00
0a  12  1c  06  06
12  18  2f  25  25
1e  24  2b  3d  22
2e  39  30  2a  18
1f  2c  30  28  12
2d  3d  23  1a  01
25  2b  21  09  05
18  16  07  01  06
0e  1c  22  1e  14
1f  2d  36  26  18
19  21  29  1d  0f
16  1e  2c  1f  16
17  23  2d  1c  13
19  2b  30  24  08
15  25  2a  31  1c
12  1c  24  2d  1f
0d  1e  2b  2f  1f
0e  16  14  23  18
0e  11  12  1a  0a
0d  1a  20  1a  12
10  19  1b  05  07
10  15  23  21  1e
13  25  2e  29  21
0d  15  28  2f  2f
0a  28  35  36  33
12  1c  2b  29  24
07  1b  2b  31  2d
14  1f  21  28  24
1a  27  2c  26  1a
18  24  28  24  1a
21  2a  17  13  07
17  1f  16  0b  08
18  0f  08  07  0f
00  02  00  06  07
01  00  00  00  06
00  00  00  00  00
00  00  00  00  05
01  00  00  00  04
00  00  00  00  00
00  00  00  00  00
00  00  00  00  0c
00  00  00  00  06
00  00  00  00  00
00  00  00  05  03
03  02  02  00  00
05  03  01  03  06
0f  04  0a  03  0b
0a  04  04  03  0a
0d  06  06  03  11
06  0f  0b  08  0e
05  08  06  07  0b
00  0a  05  0b  09
07  0b  00  01  07
00  00  00  00  00
0a  09  00  00  03
01  00  00  00  00
07  04  00  00  00
06  00  00  00  04
03  02  00  00  01
00  00  00  00  00
00  00  00  00  01
00  01  00  00  00
00  00  00  00  00
06  00  00  00  00
00  00  00  00  00
09  00  00  00  00
05  03  00  00  04
00  02  00  09  07
00  00  00  16  09
00  00  0d  18  0a
00  00  02  08  01
00  00  01  03  00
0d  12  0f  06  07
07  02  08  05  03
12  10  14  0d  0b
0b  0f  0b  08  02
06  07  07  0c  08
06  06  08  10  0c
05  09  08  0e  09
0d  08  07  08  0d
00  01  06  00  05
00  00  00  00  05
00  00  00  00  00
00  00  00  00  00
00  00  00  00  00
00  00  00  00  00
00  00  00  00  00
00  00  00  00  00
00  00  00  00  04
00  00  00  00  00
00  00  00  00  0c
00  00  00  00  08
04  00  00  00  01
06  07  04  00  04
07  02  00  00  00
10  08  00  00  11
20  19  00  00  08
1b  22  0b  16  04
17  27  17  1e  0b
03  1b  0d  14  02
00  00  00  09  01
00  01  00  00  00
00  00  00  00  00
00  00  00  00  00
00  00  00  00  04
00  00  00  03  06
00  00  00  08  05
00  00  02  08  06
00  0c  10  0f  00
14  28  28  14  00
13  29  22  13  02
17  25  2c  0f  06
2a  48  3b  10  00
1a  3b  3a  0c  00
1f  4d  51  1b  00
08  23  32  1c  03
00  1c  2d  35  0e
03  0b  12  2c  1f
00  02  10  3c  23
00  09  1b  32  26
01  07  07  1a  25
0d  16  0b  0f  0f
1f  31  21  1b  16
12  10  04  08  06
0b  09  12  07  12
00  00  07  04  05
00  00  0d  08  08
00  00  19  11  0b
04  0c  24  0f  0c
0d  16  22  0a  08
15  1a  0d  00  00
2b  31  17  02  07
10  13  00  00  00
00  00  00  00  00
01  00  00  00  01
03  01  00  00  00
13  1a  11  00  01
17  1d  0b  00  00
03  0a  02  00  00
00  00  00  00  00
04  04  00  00  00
00  00  00  00  00
04  07  00  0c  07
00  00  00  24  1e
00  00  07  1b  19
00  00  00  0c  1c
10  08  00  00  00
0d  07  00  00  00
10  00  00  00  00
0a  00  00  00  00
00  00  00  00  00
00  00  04  05  00
00  02  00  00  00
00  00  00  00  00
11  09  00  00  00
0a  00  00  00  00
1c  0f  00  00  00
0b  04  00  00  00
00  00  00  00  00
00  00  00  00  00
00  00  00  00  00
0d  10  0a  00  02
0e  11  10  04  03
07  13  12  00  01
00  00  00  00  00
09  0b  02  00  00
00  03  00  03  00
11  17  0c  16  0c
06  08  0e  1e  10
0c  1a  21  23  18
17  1c  0f  0b  18
23  2e  07  05  09
25  37  21  20  12
16  1e  13  1b  0e
0a  26  2b  34  1f
01  06  1b  20  15
00  0b  14  14  0d
07  09  00  00  0b
05  03  08  00  05
1b  10  00  00  00
08  05  00  00  00
13  15  00  00  00
12  09  00  00  00
04  00  05  02  0a
00  00  00  00  06
00  00  00  00  00
0e  0d  07  00  01
11  13  08  04  00
04  0a  06  04  01
00  02  00  00  00
00  00  00  00  00
00  00  00  00  00
08  08  00  00  00
08  01  00  00  00
08  07  00  00  00
0b  0d  04  00  01
07  00  00  00  00
00  00  00  00  00
02  00  00  00  00
00  03  00  00  00
00  02  03  01  01
06  0d  0c  0b  01
0c  08  00  00  00
00  00  00  00  00
14  08  00  00  00
06  00  00  00  00
0f  09  00  00  00
07  00  00  00  00
0c  00  00  03  09
00  00  00  00  00
06  00  00  00  0a
05  00  02  01  0c
03  00  00  02  0a
08  01  14  11  21
05  00  0a  02  0f
13  0d  0e  00  00
14  14  09  05  05
1d  20  33  28  24
0b  0c  34  3c  3b
12  29  4e  4f  37
0d  1b  34  30  2c
0b  28  1f  2a  15
1f  37  3c  38  24
12  1c  1c  24  15
19  20  36  37  2a
13  0f  23  1b  14
13  0a  19  0d  09
0d  0d  27  17  16
07  14  25  1a  11
0a  0b  1d  14  11
00  08  20  18  15
00  00  0e  20  19
04  0e  1b  18  0d
03  00  0a  0a  0e
16  23  31  27  1a
0e  0d  13  10  0e
17  16  1d  15  14
1a  2a  22  16  0b
04  1a  1e  1f  12
08  29  27  28  10
00  12  18  25  0c
00  04  06  11  00
09  08  12  13  0c
0e  0c  11  13  09
14  1f  1e  15  05
0c  12  13  12  0c
00  00  00  00  06
00  00  00  00  09
00  00  00  00  02
00  00  00  01  08
00  00  00  04  08
0a  0a  0b  13  11
01  06  00  00  00
00  00  00  00  04
08  09  00  00  00
06  00  00  00  00
16  1b  00  00  02
04  00  00  00  00
00  00  00  00  00
00  00  00  00  03
00  00  00  00  00
00  00  00  00  00
00  00  00  00  00
00  00  00  00  00
00  00  00  00  00
00  00  00  07  0d
00  00  00  00  07
01  00  00  00  02
10  0d  00  00  00
0e  03  00  00  00
06  01  00  00  00
00  00  00  00  00
00  00  00  00  00
00  00  00  00  00
00  0b  00  00  00
00  09  00  00  00
08  13  00  03  00
0d  0e  00  00  00
00  00  00  00  00
03  05  00  00  06
00  00  00  05  06
00  00  00  05  09
01  00  00  05  02
00  0a  05  08  00
17  2a  28  18  07
13  25  1a  13  09
13  1c  1d  11  0e
16  1d  0b  08  01
00  00  00  00  01
00  00  00  00  01
00  00  00  00  09
00  00  00  00  05
00  00  00  00  07
00  00  00  0b  0a
00  00  00  00  00
00  00  00  00  00
00  00  00  00  00
00  0f  0c  03  00
00  02  09  06  05
01  14  0b  07  06
00  07  00  01  00
00  01  00  00  00
00  00  00  00  00
00  00  00  00  00
03  04  00  00  03
11  0b  00  00  00
0b  0c  09  0f  0d
08  0b  00  00  00
12  2d  3d  34  18
2e  4c  58  3a  16
2c  44  49  2e  14
22  2f  38  22  10
35  4e  48  21  09
33  4d  54  29  00
3c  5e  6b  3b  0c
21  3b  4a  28  00
1c  42  44  41  11
0c  18  23  2d  14
14  20  2b  2d  16
0e  1a  2c  29  20
06  12  27  17  0c
06  11  35  31  1e
00  02  12  13  0d
07  12  15  18  14
00  00  0b  06  0d
13  12  17  0a  0b
1d  21  3c  26  24
1c  32  5f  51  35
2e  4d  68  47  2b
1c  45  65  54  26
24  48  44  39  11
23  40  48  32  17
11  21  22  17  0c
