00  7f  0b  7f  56
00  78  23  00  00
00  62  00  41  00
00  32  1f  38  00
00  68  00  00  00
00  4a  00  00  00
00  4a  00  00  00
00  1d  43  01  00
00  6a  39  00  01
01  43  00  01  00
00  6e  00  31  4c
00  4a  00  7f  41
4a  00  7f  13  00
00  00  7f  00  19
03  7f  47  00  00
15  63  6e  00  64
00  71  00  13  7f
12  3d  00  0a  00
00  35  2c  60  00
00  50  77  56  00
1f  49  00  00  00
00  65  30  00  00
64  00  24  00  00
00  00  56  00  00
2d  00  00  00  00
24  04  00  00  00
5b  33  00  00  00
7f  7f  00  3d  12
7f  3f  31  40  69
7f  7e  00  7f  00
7f  4e  00  60  00
7f  13  75  00  1b
7f  00  00  66  12
67  7f  00  00  5f
7f  7f  7f  3d  00
7f  2a  60  7f  12
7f  7f  0a  7f  7f
7f  44  00  7f  2f
7f  50  7f  3d  00
7f  01  7f  2c  00
2f  7f  7f  7f  53
00  7f  7f  00  7f
00  7f  39  65  00
66  7f  00  1a  00
7a  7f  00  3d  00
7f  6d  17  1d  00
7f  3e  3f  39  00
7f  00  78  14  3d
7a  7f  00  00  20
27  7f  51  6b  00
00  13  07  49  47
00  00  00  00  54
00  00  00  00  69
00  00  00  00  6d
00  00  00  00  6a
00  00  00  00  5d
00  00  00  00  74
00  00  00  00  4a
00  00  00  00  35
00  00  00  00  7f
00  35  10  00  00
00  6d  5c  00  00
00  5a  3f  00  00
00  49  00  00  78
00  4e  00  00  00
00  7f  00  6c  00
00  7f  00  7f  00
00  00  00  7f  00
00  00  00  00  51
00  00  00  00  63
00  00  00  00  6b
00  39  00  00  58
00  3d  00  00  5c
00  00  00  00  34
00  00  00  00  0c
00  00  00  00  00
00  7f  00  00  00
00  7f  00  15  05
00  07  02  26  00
0c  07  00  0d  00
10  00  13  06  00
00  00  3c  00  15
07  00  06  00  55
00  32  00  00  00
2a  4e  00  3a  00
00  00  7f  51  00
00  01  7f  00  00
00  47  00  00  7f
37  38  00  70  7f
6a  00  00  7f  00
00  00  7f  7f  00
00  5a  7f  00  36
00  7f  00  00  7f
00  70  00  4b  46
1a  00  00  7f  0b
2f  00  00  0f  00
02  00  7f  07  00
00  00  68  00  14
1d  07  00  00  50
13  00  15  00  00
08  00  00  00  05
2a  00  00  00  7e
2a  00  00  00  7e
2a  00  00  00  7e
00  00  00  00  7e
00  00  00  00  7e
00  00  00  00  7e
05  00  00  00  7e
21  4b  08  7f  7e
24  42  00  01  7f
2a  53  00  00  7b
2a  53  00  00  7c
2a  53  00  00  7e
4e  7f  00  00  7e
20  55  00  00  7e
00  00  00  00  7e
08  00  00  00  7e
1a  00  00  00  7e
29  00  00  00  7e
26  00  00  00  7e
21  00  00  00  7e
05  00  00  00  7e
00  00  00  00  7e
3e  6e  13  00  7e
19  5d  61  7f  7f
7d  00  40  7f  1f
13  00  51  75  21
13  00  1a  00  1c
13  00  1a  00  30
13  00  1a  07  00
13  00  1a  12  00
13  00  1a  00  00
13  00  00  00  40
00  46  30  00  15
1c  00  4b  37  00
45  00  00  00  00
13  02  00  00  29
00  05  11  00  7d
00  41  00  5c  18
7f  00  00  7f  00
39  00  00  62  00
01  00  48  1f  00
16  00  03  00  45
23  00  39  11  00
00  00  7f  41  00
0a  00  0d  00  00
37  00  00  00  1e
00  00  00  00  32
00  00  60  18  00
00  0a  28  00  00
00  00  00  00  00
5a  00  00  00  00
58  10  07  00  0d
4a  00  00  00  00
7f  00  00  57  00
1d  26  00  00  10
1b  00  3b  00  00
6e  25  00  00  00
28  30  00  00  00
33  00  33  1e  00
53  29  00  6f  00
11  7f  00  00  1c
7f  00  07  3c  00
69  00  47  00  15
4c  00  31  00  57
00  67  00  22  00
1d  1d  00  00  1f
55  15  00  00  00
2d  18  1d  00  19
47  1e  00  00  00
45  00  39  05  00
7f  00  6c  00  21
7f  3f  00  13  00
56  42  00  1b  00
00  65  18  0e  30
03  03  03  03  03
01  00  03  0f  01
06  00  03  13  04
3f  00  02  00  26
3e  00  05  00  10
41  00  24  00  49
4d  00  30  00  48
17  00  0c  0a  00
09  00  33  00  00
56  00  29  00  00
28  00  3a  00  00
48  00  21  00  00
46  00  50  00  07
48  00  17  00  00
5a  00  33  00  00
5c  00  00  49  00
55  00  00  6c  00
01  00  03  00  54
06  00  03  00  58
42  00  03  00  4d
40  00  03  00  1c
3f  00  0a  00  20
3f  00  32  00  1b
4d  00  1d  18  00
5c  00  18  04  00
00  22  03  00  00
00  6c  03  11  00
00  7f  03  03  03
00  7f  03  03  03
00  7f  03  03  03
00  7f  03  03  03
00  7f  03  03  03
00  7f  03  03  03
00  7f  03  03  03
00  6d  37  03  03
00  43  74  00  1e
00  25  3e  00  50
00  4e  23  00  3a
00  56  00  14  03
00  00  00  74  03
00  00  54  5c  00
00  11  6a  00  00
00  23  6b  08  00
00  64  31  03  03
00  7f  01  03  03
00  7f  03  03  03
00  7f  0b  03  03
00  6d  3b  03  03
00  62  59  03  03
00  36  20  03  03
00  00  00  00  3a
00  00  00  00  49
00  00  00  33  3a
00  19  00  32  61
00  00  00  00  7f
00  00  00  00  7f
00  00  00  00  6e
00  00  00  00  35
00  00  00  32  00
0f  00  00  1b  00
12  00  00  00  35
00  00  00  00  7f
00  00  00  00  22
00  00  00  66  00
00  00  00  46  26
00  00  00  00  7f
00  00  00  00  7f
00  00  00  00  38
00  00  00  00  00
00  03  00  00  30
00  00  00  00  6f
00  00  00  00  76
00  00  00  4b  4c
00  48  00  59  15
00  7f  00  00  00
00  00  00  00  0d
41  00  00  00  00
00  00  00  00  00
00  00  00  00  00
00  00  00  00  00
00  0a  00  00  00
00  00  4d  3b  7f
52  7f  00  2f  00
00  00  00  00  00
41  00  7f  7f  04
18  00  00  0f  7f
2b  7f  60  25  2f
00  00  32  15  00
1e  00  00  00  00
78  60  00  7f  7f
00  7f  7f  00  72
00  00  37  1e  00
3c  00  01  04  00
00  00  00  00  00
00  00  00  00  00
00  00  00  00  00
00  00  00  00  00
00  00  00  00  00
00  00  00  00  00
52  7f  00  00  00
00  00  00  00  1d
00  00  00  00  17
00  18  00  00  15
00  29  00  00  19
00  3f  00  00  12
00  2c  00  00  16
00  0c  00  00  11
00  25  00  00  28
00  13  00  00  22
00  00  00  00  1e
00  00  00  00  07
00  00  02  00  00
00  00  1c  00  2a
00  00  00  00  1b
00  00  00  00  05
00  00  00  00  00
00  00  00  02  00
00  00  00  00  00
00  00  00  00  09
00  00  00  00  1a
00  0d  00  00  2a
00  00  00  00  29
00  00  00  00  20
00  0b  00  00  25
00  0d  00  00  13
00  00  00  33  7f
02  00  00  00  00
00  00  00  00  57
00  00  00  00  10
00  00  00  00  00
00  00  00  00  2b
00  00  09  25  47
00  00  00  01  73
00  00  00  00  14
00  00  33  78  7f
00  00  00  00  03
33  7f  7f  48  00
00  0f  32  32  75
0c  56  7f  4e  7f
4e  7f  4e  1b  7f
00  00  00  00  03
00  00  00  00  00
00  00  00  04  00
00  0e  2a  34  1c
00  00  12  27  0b
00  00  00  00  0e
00  00  00  00  56
00  00  10  2b  6d
00  2e  75  5c  5a
00  00  00  00  00
00  00  00  00  02
00  00  00  00  0e
00  00  03  07  00
00  00  03  16  00
00  0a  00  15  07
00  1c  00  00  30
00  00  33  00  00
00  00  00  53  0a
00  00  00  7a  7a
00  00  25  39  45
00  4a  7f  10  02
01  1b  7f  00  00
00  10  2a  00  0d
47  37  00  00  70
24  00  03  00  1b
00  00  45  30  00
00  00  00  36  00
00  00  00  00  04
00  05  00  00  00
00  15  00  00  00
00  00  00  00  08
00  00  00  08  43
00  00  30  43  1b
00  00  62  69  47
58  2a  49  5d  0c
00  79  00  1c  0b
00  00  00  13  18
00  00  00  24  00
00  00  00  61  00
00  64  00  44  00
1a  00  59  00  51
00  00  12  00  51
00  00  00  14  00
00  00  00  35  18
0a  00  00  00  7f
00  3b  00  00  51
00  00  4b  28  00
7f  00  7f  3f  00
7f  00  00  00  79
00  00  00  00  7f
00  00  7f  00  00
03  00  00  68  00
00  19  00  70  05
00  7c  00  14  17
00  00  00  7f  00
39  00  00  00  22
2a  00  69  00  52
33  00  00  00  45
00  10  00  00  14
00  00  00  00  1b
04  09  00  00  00
00  00  00  00  00
00  00  00  00  00
00  00  00  00  00
00  00  00  00  00
00  00  00  00  00
00  00  00  00  00
00  00  00  00  19
00  00  7f  50  18
6a  7f  7f  00  00
7f  7f  00  00  00
7f  00  00  00  00
32  00  00  59  00
12  00  00  21  00
00  00  00  00  00
00  00  00  00  00
00  10  00  00  00
00  00  00  00  00
00  00  00  00  00
00  00  00  00  00
00  00  1c  00  00
00  00  00  00  00
00  00  00  00  0c
00  00  4f  4f  41
09  7f  7f  20  00
00  00  44  44  7f
00  00  56  7d  7f
00  00  59  7f  7f
00  00  7f  4a  41
00  23  37  3b  04
00  00  71  2f  67
00  2a  4f  4c  7f
00  23  7f  3d  7f
00  27  7f  00  1e
2c  00  00  38  00
00  00  00  00  00
00  00  00  00  2f
00  00  00  00  7f
00  00  00  24  7f
00  00  30  7f  4d
00  00  2f  47  3c
00  0b  1e  53  7f
00  33  61  61  7f
00  00  7f  75  7f
00  00  7f  4c  2e
35  13  00  00  2e
00  00  00  00  62
00  00  12  7f  7f
00  36  7f  7f  5a
2d  7f  6a  00  0d
00  00  00  00  00
00  00  00  00  00
00  34  00  00  00
00  34  00  00  00
00  70  2d  00  00
00  6e  39  00  00
00  3e  00  26  5e
00  7f  47  00  00
2e  19  0a  15  00
6f  04  00  7f  4a
52  00  7f  7f  00
00  00  78  00  12
00  00  6e  00  47
00  78  24  00  7e
2e  7f  00  2e  00
2b  7f  00  7f  01
00  00  7f  7f  00
16  00  00  00  00
00  08  00  00  00
00  24  20  00  07
00  7c  1b  00  00
00  78  54  00  00
00  0b  00  46  57
0f  74  00  00  19
00  0d  52  70  00
00  00  00  00  18
00  00  00  00  00
00  00  00  00  10
00  00  00  00  4d
00  00  18  00  66
00  00  23  00  00
00  00  1f  00  00
00  00  00  14  00
05  00  00  57  00
52  03  00  00  1d
13  00  00  00  3d
03  00  00  00  0e
03  00  00  05  00
00  00  00  62  00
00  00  00  45  3d
00  00  00  00  2b
00  00  00  00  02
00  00  06  00  00
00  00  4d  00  00
00  00  13  00  00
22  00  00  00  14
36  00  00  00  00
00  00  00  00  00
00  7f  00  00  00
0e  00  02  17  00
00  00  00  00  11
00  00  00  00  00
00  00  02  00  00
04  04  00  13  00
1a  00  00  00  4f
3d  00  00  00  16
00  00  00  00  00
00  00  00  00  00
04  04  00  00  02
04  00  32  00  00
00  00  00  00  1d
00  00  00  00  33
00  00  00  00  00
00  00  00  00  00
00  00  00  00  00
00  00  00  00  48
00  00  00  00  11
00  00  00  00  00
00  00  00  00  00
00  00  00  00  00
00  00  09  00  00
00  00  00  00  00
00  00  00  00  00
00  00  00  00  04
00  00  00  04  04
00  00  00  00  00
00  00  07  06  45
00  00  2d  20  6e
00  00  19  45  7f
00  00  3b  3f  7f
00  00  25  56  7f
00  04  11  51  69
00  00  08  4d  7f
00  00  42  7b  7f
00  29  72  7f  7f
00  48  7f  7f  62
00  7b  7f  33  39
00  72  5e  00  4f
07  2c  0f  1c  7f
00  02  0e  52  5b
00  00  00  28  38
00  00  00  1b  19
00  00  0a  10  47
00  00  11  0f  6f
00  00  00  29  7f
00  00  0c  26  7f
00  00  2e  59  7f
00  1b  51  7f  7f
00  15  71  7f  7f
02  21  59  70  6d
00  00  00  00  00
00  00  00  00  1f
00  00  00  00  0f
00  00  00  00  14
00  00  00  00  14
00  00  00  00  0f
00  00  00  00  00
00  00  00  00  2a
00  00  00  00  14
00  00  00  00  67
00  00  00  5a  00
00  7f  1a  00  00
00  2c  00  00  7f
00  00  00  43  38
7f  00  00  7c  00
0d  00  00  00  00
00  00  1e  00  00
00  00  00  00  14
00  00  00  00  00
00  00  00  00  03
00  00  00  00  14
00  00  00  00  13
00  00  00  00  0e
00  00  00  00  75
00  00  00  7f  29
00  00  00  00  00
00  00  00  00  00
2c  3f  00  00  00
00  03  00  00  00
00  21  00  00  00
00  00  00  00  00
00  00  00  00  00
00  3c  00  05  00
00  4b  2b  45  09
02  02  02  00  00
02  02  02  00  00
02  00  00  1f  00
00  00  00  00  0c
00  00  00  00  04
00  00  00  00  00
00  00  00  00  00
00  00  00  00  00
00  00  00  00  00
27  00  03  00  00
15  00  00  00  00
00  00  00  00  00
00  37  00  00  00
00  3c  18  1f  11
00  50  00  0e  02
00  1d  02  02  02
00  00  00  1c  0e
00  00  00  00  00
00  00  00  00  03
00  00  00  5c  61
00  00  00  00  00
00  00  00  6f  59
00  00  00  00  17
00  00  04  57  11
00  2a  0e  00  52
00  00  00  00  00
00  00  00  00  00
00  00  00  61  7e
00  7f  7f  18  0f
00  00  00  00  00
00  00  00  00  00
00  40  27  3e  3a
00  0c  00  66  68
00  00  00  00  00
00  00  22  1b  00
00  00  00  7f  48
00  00  00  00  00
00  00  1c  77  34
00  00  00  01  38
00  3f  6d  18  32
00  00  00  00  00
7f  00  00  00  00
00  5d  46  00  00
28  11  26  00  00
23  20  2c  00  00
00  35  2c  00  00
0d  20  2e  00  00
2d  2a  1c  00  00
07  2f  7f  00  00
00  60  40  7f  00
00  2c  60  00  34
00  7f  7f  00  48
0e  7f  00  31  24
7f  15  00  7f  00
7f  00  52  7f  00
00  00  7f  00  53
00  31  7f  00  3b
00  7f  7f  00  0e
7f  0a  00  4b  4e
7f  00  00  1d  22
00  3b  4b  00  00
00  65  47  00  00
07  25  33  00  00
7f  21  00  1a  00
28  16  26  7f  00
00  11  39  00  0f
0d  7c  7f  00  00
00  5a  3b  00  00
00  5a  43  1b  1f
00  5c  42  2d  52
00  3b  0f  02  13
00  35  02  00  00
00  61  5a  00  00
00  43  6f  7f  47
00  48  7f  7f  7f
00  60  7f  5a  00
00  35  30  00  00
00  36  1c  00  1e
00  2e  20  3f  61
00  16  00  6d  7f
00  42  3b  45  00
00  54  72  2d  00
00  4a  61  01  29
00  49  32  00  33
00  53  3b  08  27
00  68  7c  59  24
00  6f  7f  7f  00
00  34  4b  00  00
00  00  00  00  05
00  00  00  4f  71
00  00  00  31  66
03  0d  00  00  00
00  7f  00  00  00
00  5c  00  13  00
29  00  22  5b  02
0d  00  2d  37  00
00  00  01  00  00
40  00  00  00  00
7f  00  00  24  00
76  03  6f  21  00
33  7f  7f  51  00
00  53  4f  00  2b
00  00  00  3e  3c
46  00  00  70  00
7f  65  38  7f  00
21  00  65  46  00
00  00  7f  00  00
1c  31  73  00  4a
00  61  21  00  7f
00  4b  00  00  4a
41  5f  00  00  00
7f  33  00  7f  00
26  00  29  5a  00
00  00  7f  31  00
00  46  7d  59  00
00  65  52  32  5b
00  00  27  00  00
30  00  4f  00  00
16  00  23  00  00
10  00  1a  00  00
11  00  00  00  00
00  1a  00  00  00
00  00  52  00  00
64  00  5a  00  23
00  18  00  18  57
00  7c  00  63  23
00  00  1e  00  00
5d  00  00  62  00
2b  00  13  00  00
1e  00  43  00  00
1e  00  26  00  50
00  32  00  00  06
00  00  00  1e  00
00  00  30  00  00
3a  00  5d  00  00
18  00  00  00  00
00  1e  00  00  00
00  00  00  00  00
00  00  43  02  00
51  00  7f  5e  00
2d  00  00  00  04
03  03  03  00  00
00  00  1a  00  00
04  00  1a  09  00
0a  00  16  1b  00
00  00  2e  1b  00
12  00  19  54  00
26  00  0a  00  00
0a  00  00  1d  00
00  00  00  00  00
05  00  00  00  00
1b  00  00  00  00
1b  00  00  00  00
39  00  00  00  00
3c  00  00  00  00
0e  00  15  00  00
03  00  3f  00  00
03  26  00  00  00
03  0e  00  16  00
03  03  03  1b  00
00  00  15  1b  00
00  00  39  1b  00
2f  00  00  00  00
10  00  00  00  00
00  00  00  00  00
46  03  00  00  00
00  00  5f  00  00
00  7f  00  00  00
13  00  00  00  00
00  00  00  00  00
00  00  00  00  00
00  00  00  00  00
0e  7f  00  00  00
32  00  7f  00  00
00  00  00  00  00
2b  7f  7f  7f  7f
00  00  00  00  00
00  00  7f  00  34
00  58  00  00  00
30  7b  00  00  00
18  00  00  00  00
00  00  00  00  00
1c  2f  7f  31  00
00  01  00  00  00
00  00  00  00  00
02  00  13  03  00
00  00  00  00  00
00  00  00  01  00
00  03  00  00  00
24  00  7f  03  00
00  00  00  00  00
53  7f  7f  7f  7f
41  7f  7f  7f  6b
32  7f  7f  7c  5b
2e  7f  7f  7f  5c
2e  7f  7f  7f  5b
2e  7f  7f  7f  5e
2e  7f  7f  7f  5d
2e  7f  7f  7f  5d
2e  7f  74  11  00
2e  78  0c  00  09
2e  48  00  47  5e
00  21  36  7f  6d
00  00  16  62  3f
00  2d  3f  51  00
00  5f  7f  7f  16
00  49  5f  7f  58
00  2e  7f  7f  45
3b  7f  7f  70  7f
5d  7f  7f  7f  5d
3f  77  74  7f  65
2e  7f  65  7b  67
22  7f  7f  7f  5e
2f  7f  7f  7f  45
32  7f  7f  3e  0a
00  00  00  00  00
00  00  00  01  0b
27  00  00  05  00
74  00  06  00  01
7f  00  2a  00  05
7f  00  29  34  00
7f  00  43  00  26
7f  00  4b  3d  00
7f  00  0e  00  00
5c  00  00  3c  00
6e  06  72  0f  00
7f  27  61  00  00
7f  61  27  00  00
7f  27  00  00  08
7f  00  00  7f  31
7f  00  50  7f  05
70  00  68  00  00
22  00  74  00  21
27  00  79  00  61
74  04  33  03  5c
7f  00  0f  0a  1c
7f  00  00  17  00
5f  00  00  00  00
70  00  20  31  00
7f  27  18  06  00
7f  7f  7f  53  00
00  7f  00  00  00
00  7f  00  00  00
00  7f  41  00  2b
00  7f  43  01  37
00  7f  00  38  00
00  7f  00  36  00
00  7f  02  00  00
00  7f  00  00  00
00  7f  2f  29  00
00  7f  50  7f  3b
00  7f  69  7f  6c
00  7f  38  7f  25
21  7f  21  7d  00
6f  7f  7e  7f  00
7f  7f  7f  7f  00
7f  7f  7f  53  7f
1b  7f  7f  19  7f
00  7f  51  13  00
00  7f  52  00  20
00  7f  37  13  37
00  7f  00  60  00
00  7f  08  46  00
00  7f  09  00  00
1c  45  16  7f  00
0e  00  16  7b  25
00  57  6f  2c  00
00  59  7f  7f  7d
00  00  00  20  1e
00  00  00  00  00
00  00  00  00  00
00  00  00  00  01
00  00  00  1c  06
00  00  00  1d  1b
00  00  00  00  00
00  00  00  00  00
00  00  00  05  08
00  08  03  00  00
1b  28  62  7f  00
7f  76  53  7f  36
4a  7f  0a  20  0b
6b  00  00  00  00
7f  2e  38  54  22
7f  3d  17  7f  7f
00  00  00  7f  6d
00  00  00  1a  18
00  00  00  00  00
00  00  00  00  00
00  00  00  00  00
02  00  00  00  00
0c  00  00  00  00
00  00  2c  00  00
00  00  00  00  00
00  00  20  00  00
00  00  0e  00  00
00  00  05  00  00
00  00  00  00  00
00  00  0b  00  00
00  00  00  00  00
00  00  00  00  00
00  00  00  00  00
00  00  00  00  00
00  00  00  00  00
00  00  00  00  00
00  00  00  00  00
00  00  00  00  00
05  00  00  00  00
05  00  00  00  00
05  00  00  00  00
05  05  05  00  00
05  05  05  00  00
05  05  05  00  00
05  05  05  00  00
05  05  05  00  00
05  00  00  00  00
05  05  00  00  00
00  00  00  00  18
00  00  00  11  00
09  02  00  00  00
02  0f  00  00  00
00  12  00  00  00
00  09  00  00  00
00  00  00  00  00
0f  00  00  00  03
19  18  00  03  00
00  26  00  00  00
00  00  00  00  3c
00  00  00  00  59
21  00  00  7f  00
76  2d  0e  00  7f
15  7f  58  00  7f
00  7f  19  00  7f
4f  7f  7f  00  3f
72  61  7f  18  00
00  7f  00  4a  00
02  14  00  00  00
03  15  00  00  00
0a  15  00  00  00
2e  1f  00  00  00
57  52  00  00  00
13  7f  00  00  00
4b  00  00  02  02
7f  00  00  02  02
00  00  00  02  02
00  00  02  02  02
00  00  02  02  02
00  00  02  02  02
00  00  02  02  02
00  00  00  00  00
00  00  4b  00  00
1e  00  6b  00  00
18  00  00  00  00
2e  00  00  00  03
7d  00  00  3b  00
7f  00  00  19  00
00  00  00  00  00
00  00  00  0e  02
00  00  00  00  02
7f  00  00  03  01
00  00  00  02  02
00  00  00  02  02
00  00  00  02  02
00  00  00  02  02
00  00  00  02  02
00  00  00  02  00
00  00  13  01  05
03  03  03  38  00
03  03  03  7d  00
03  03  03  75  00
03  03  03  61  00
03  00  00  49  00
00  18  00  15  00
23  00  06  22  00
56  00  03  1a  00
2f  37  36  00  00
00  26  53  14  00
38  00  00  00  00
7b  38  00  00  16
7b  00  00  3f  00
76  00  00  00  00
00  00  7f  38  00
00  00  7f  0d  00
38  29  19  2b  22
03  4f  00  00  00
03  4d  06  29  00
03  55  00  00  00
03  46  38  7f  00
03  03  00  5d  00
00  00  3b  00  00
35  00  00  00  00
73  33  00  00  00
00  4d  7f  7f  7f
00  00  00  05  13
00  00  00  00  00
00  00  00  7d  52
00  00  00  00  00
00  00  00  00  00
00  19  35  7f  54
44  46  00  00  00
00  1b  00  00  00
00  00  00  5e  00
00  00  5e  57  65
00  5e  57  3a  76
6f  7f  3a  65  11
43  00  2f  7f  34
32  00  65  54  02
7f  67  7f  25  25
00  73  78  26  7f
00  21  00  00  18
00  00  00  49  30
63  41  5d  00  00
00  00  1a  00  00
00  00  00  00  00
00  36  23  32  00
00  00  00  0f  00
4d  33  49  00  00
1e  00  00  00  00
00  64  1f  00  00
00  62  00  5d  00
00  00  42  00  11
00  00  00  7f  00
00  47  44  00  00
00  00  00  77  00
00  5b  45  62  34
00  0e  00  00  25
00  00  00  3a  00
00  00  00  00  77
00  00  00  77  00
00  1b  63  00  07
00  00  00  01  5b
00  00  27  13  00
00  6a  00  00  77
00  41  00  00  00
00  45  00  00  00
00  26  34  64  00
00  2a  44  00  00
00  00  00  7f  00
00  00  1e  00  00
00  00  4a  7f  64
00  3f  00  00  0b
00  00  00  00  00
00  00  01  01  01
00  00  00  00  00
7f  7f  62  00  00
7f  66  36  00  00
7f  6d  18  48  00
7f  7f  3d  3b  00
7f  29  39  00  00
7f  00  71  00  00
7f  31  6e  00  00
7f  55  3e  00  00
7f  67  3e  47  00
7f  1d  17  5f  00
7f  00  00  00  00
00  00  3c  28  00
00  00  7f  7f  00
00  10  7f  74  00
00  40  00  00  00
00  7f  00  00  01
00  7f  00  00  00
00  7f  7f  00  00
57  7f  23  00  00
7f  6c  35  00  00
7f  00  72  02  00
65  1c  7f  00  00
7f  7f  72  5a  00
7f  00  00  00  00
6c  7f  00  14  00
00  3e  00  03  03
00  00  00  03  03
00  00  09  24  00
00  00  18  00  00
00  00  00  00  00
00  00  00  00  0a
7f  00  28  00  06
3b  00  00  7f  62
00  49  22  05  00
00  00  48  00  00
56  00  4d  00  00
00  00  74  00  7f
00  7f  00  00  7f
00  7f  00  00  00
00  00  00  7f  00
7f  00  57  00  03
16  00  00  00  03
3c  00  00  2b  03
39  00  33  2b  00
00  41  7f  00  00
00  28  00  00  07
00  1f  00  25  08
00  00  00  03  03
00  46  5f  78  00
1c  6d  6c  7f  26
21  5a  7f  7f  00
47  7f  1e  55  08
44  30  7f  16  3b
7e  7f  57  7f  08
7f  7f  02  7f  00
5d  2f  7f  6c  00
7f  7f  7f  00  00
7f  7f  7f  00  00
7f  7f  4a  78  15
7f  7f  00  7f  00
7f  00  73  7f  00
7f  00  7f  7f  00
43  70  7f  00  00
1f  7f  7f  03  1c
7f  7f  00  19  44
43  7f  0f  7f  3e
7f  7f  5e  7f  00
33  7f  4c  5a  10
55  2a  38  3f  16
7f  7f  00  31  12
7f  00  00  35  00
7f  00  16  00  00
43  00  3f  00  00
00  00  00  00  00
00  00  00  00  00
00  00  00  00  00
00  00  00  00  00
00  00  00  00  00
00  00  00  00  00
00  00  00  00  00
2a  7f  00  00  00
08  00  00  00  00
00  17  7f  4a  01
00  0e  1e  00  00
01  01  00  00  08
01  00  00  00  4a
01  00  00  00  0c
01  00  00  00  00
00  00  00  00  00
00  00  00  00  00
00  13  00  00  00
00  00  00  00  00
00  00  00  00  00
00  7f  2c  00  00
00  00  00  00  00
01  00  00  00  00
00  00  00  00  7f
2a  7e  7f  7f  28
7f  00  7f  00  00
15  00  00  00  00
00  00  00  00  00
00  00  00  00  00
00  00  00  00  00
00  00  00  00  00
00  00  00  00  2e
00  00  00  00  00
00  00  00  00  0a
03  00  00  00  00
00  00  00  00  00
00  00  03  00  17
00  00  00  48  32
00  00  17  48  00
00  00  00  00  00
06  00  00  22  00
09  00  07  28  00
00  00  00  00  00
00  00  00  00  00
00  00  56  00  00
00  00  00  00  00
00  00  00  00  00
00  00  00  00  00
00  00  01  26  00
00  00  00  00  00
00  00  17  01  01
00  05  1c  01  01
00  2f  35  00  00
01  01  00  00  0f
01  01  00  00  27
01  01  00  1a  1d
00  00  00  00  00
00  00  00  00  00
00  00  00  00  07
00  00  00  00  7f
00  00  00  6f  7f
00  00  00  7f  7a
00  00  7f  17  00
00  1c  7f  00  00
00  7f  42  00  55
01  01  00  00  58
01  01  01  01  01
01  01  01  01  01
00  00  08  01  01
00  00  05  00  0d
00  0a  12  06  10
00  39  2e  19  18
00  00  00  00  00
00  00  00  00  00
00  00  05  2f  7f
49  0f  00  00  00
7f  7f  14  00  00
7f  5e  08  00  00
7f  00  00  00  00
7b  6b  7c  00  00
7f  09  72  00  00
7f  00  00  00  00
43  28  31  00  00
7f  00  00  00  00
7f  39  00  00  00
48  00  7f  7f  00
7f  38  7f  48  0e
00  00  7f  00  00
00  79  08  00  00
00  7f  55  48  43
7f  7f  31  33  00
7f  7f  00  0b  00
71  34  14  00  00
7f  49  08  00  00
7f  00  00  00  00
7f  5e  7f  00  00
7f  00  68  00  00
7f  12  0e  00  00
34  00  00  00  00
46  00  18  00  00
00  00  0f  00  00
00  00  0f  10  00
0a  00  00  4f  00
03  00  00  31  00
00  00  5c  0c  00
09  00  2a  13  00
36  2d  00  05  00
00  00  10  58  00
00  00  00  69  0f
2b  00  0b  00  3b
2b  21  68  00  00
0f  00  59  00  09
15  00  4d  00  28
2c  00  00  21  4c
19  09  00  00  16
00  36  2c  00  00
00  16  39  00  00
00  01  2e  3a  00
00  00  45  32  00
00  00  2e  17  00
1a  00  01  06  00
1b  17  00  15  00
00  00  0b  24  00
00  00  03  00  00
01  00  14  1f  08
00  00  00  7f  00
00  00  00  00  00
00  00  00  00  00
00  00  00  00  00
00  20  00  00  00
00  7f  00  7f  00
00  00  00  00  00
00  00  7f  00  01
00  00  00  00  00
00  7f  00  00  00
00  2a  00  7f  00
7f  00  25  7f  00
51  00  7f  00  00
00  05  7f  00  1f
00  66  23  00  5b
00  23  00  7f  3e
00  00  00  7f  00
00  00  00  00  00
00  00  00  00  00
00  00  00  00  00
00  00  00  00  00
00  00  00  00  00
00  00  39  00  00
00  43  00  00  00
00  39  00  00  00
00  00  00  60  00
0a  23  00  7f  00
00  4e  00  31  00
00  24  00  00  00
00  36  00  00  00
00  55  00  00  00
00  37  00  00  00
00  00  00  00  00
00  00  00  00  00
00  2c  00  00  00
00  4d  26  00  00
00  32  77  00  14
37  06  14  7f  00
00  00  2c  00  63
00  34  7f  00  2a
00  00  7f  00  00
00  00  00  61  00
0b  4a  00  7f  00
00  53  00  7b  00
00  22  00  19  00
00  25  00  00  00
00  4d  00  00  00
00  78  00  00  00
00  51  00  00  00
00  06  00  00  00
7f  7f  27  7c  37
7f  00  45  65  00
35  10  33  1a  00
37  0a  34  00  00
16  24  66  00  11
7f  00  00  19  55
00  00  7f  6c  00
39  7f  17  00  00
7f  00  00  25  5c
02  00  7f  00  00
00  7f  00  00  5d
7f  00  00  40  7f
51  00  0e  7f  00
25  00  7f  7f  00
00  00  7f  00  00
00  7f  7f  00  6b
51  7f  00  25  7f
7f  08  00  7f  00
7f  00  00  4c  00
70  00  37  09  00
00  16  7f  00  00
00  7f  46  00  00
3d  7f  00  00  06
7f  00  00  7f  00
00  00  7f  00  00
00  00  00  04  04
00  00  57  04  04
00  05  22  02  01
00  17  04  02  02
00  17  05  02  08
00  17  04  04  04
00  17  04  04  04
00  1f  00  00  04
00  1b  00  00  04
00  23  00  4f  04
00  00  00  7b  00
00  00  1c  00  00
00  00  6c  00  00
00  20  02  00  7f
00  20  00  00  5c
00  0c  00  11  00
00  00  00  7f  00
00  00  6d  7f  00
00  00  7f  1f  00
00  18  00  00  02
00  19  00  00  07
00  1d  00  0f  04
00  1e  00  1c  04
00  17  04  04  04
00  7f  04  04  04
04  04  04  06  00
04  04  04  38  00
04  04  04  0d  00
04  04  04  04  04
00  00  03  04  04
10  00  11  04  04
07  00  00  04  04
04  04  04  04  04
04  04  04  04  04
00  00  00  04  04
00  00  41  04  04
00  00  00  00  00
00  00  00  00  41
00  00  40  00  00
0f  00  00  00  00
00  00  00  26  04
00  00  00  00  04
38  18  00  07  04
0e  00  00  00  04
06  03  05  04  04
05  03  03  04  04
00  00  00  04  04
00  00  1c  04  04
00  00  1d  04  04
29  00  00  04  04
7f  6e  70  40  00
00  00  00  00  00
06  00  01  00  00
06  00  09  00  00
06  00  00  00  00
06  55  1c  00  01
06  00  2f  00  08
05  00  00  08  00
02  00  00  01  00
0b  00  00  00  00
06  58  7f  7f  01
06  7f  7f  7f  1e
00  7f  00  00  00
5d  00  00  00  00
7f  00  52  7f  01
7f  00  7f  7f  1c
00  00  4c  27  00
00  00  00  00  00
06  00  00  00  00
06  00  00  00  00
06  00  00  00  00
06  00  00  0b  00
00  00  00  02  04
00  13  00  00  00
58  00  00  00  00
00  00  3f  1b  1d
00  7f  10  21  03
60  24  00  00  00
13  19  2b  00  00
04  10  00  0c  27
07  68  00  34  00
63  12  0b  00  11
2d  00  18  00  22
00  00  00  00  00
00  41  69  4a  00
3c  7f  00  00  28
0b  00  00  00  7f
20  00  00  71  7f
7f  00  00  7f  00
00  00  7f  2d  00
00  00  7f  00  30
00  6f  71  00  7f
03  7f  00  32  7f
00  40  00  65  0c
00  56  33  00  00
16  70  00  00  2d
36  00  00  7a  05
00  00  7f  26  00
18  7f  21  02  00
68  45  00  00  00
02  00  0c  0c  0c
03  1e  0c  0c  0c
00  15  0c  06  09
00  0b  0c  00  0b
2a  0e  0c  05  0f
0e  52  0c  0f  0c
00  0d  0c  0c  0c
00  00  0c  00  00
00  00  0b  00  14
00  7c  00  00  0b
1a  00  00  00  00
0d  0a  00  00  59
00  24  00  00  00
00  00  00  00  17
0e  00  11  00  1d
3d  00  22  00  25
00  7f  0d  47  0f
04  00  00  0d  0c
00  00  21  00  0c
00  1d  0d  3d  0c
00  16  00  0c  0c
28  0f  1f  0c  0c
20  00  00  0a  0c
00  00  15  00  0c
00  12  00  46  0c
00  00  00  00  00
00  29  0a  00  00
00  0e  06  29  00
03  03  03  7f  00
03  03  03  7f  00
03  03  03  6a  00
03  02  01  1c  00
03  05  03  44  00
03  05  00  7f  00
03  00  06  7e  00
03  0c  74  7f  00
03  7f  79  00  00
00  7f  00  00  00
74  7f  00  7b  00
7f  00  00  7f  00
7f  00  70  77  00
74  00  7f  00  00
00  11  7f  00  00
00  0d  7f  00  00
00  00  33  1f  00
11  02  00  6b  00
10  00  06  64  00
03  03  01  5f  00
03  03  00  7f  00
03  03  29  7f  00
00  00  10  10  7f
00  00  00  00  7f
00  00  00  00  7f
00  00  00  00  7f
00  00  00  00  7f
00  00  00  00  7f
00  00  00  00  7f
00  3c  00  00  7f
00  00  00  00  7f
00  00  00  00  7f
02  00  00  00  7f
02  00  00  00  7f
02  00  35  00  39
02  00  00  00  7f
00  00  00  00  7f
00  00  00  00  7f
00  00  00  00  7f
00  00  00  00  7f
00  00  00  00  7f
00  00  00  00  7f
00  00  00  00  7f
02  00  00  00  67
02  00  00  00  7f
02  00  00  00  49
02  00  00  00  00
00  00  00  00  00
00  00  00  00  00
00  00  00  00  00
0f  00  00  00  08
00  00  00  1f  00
08  00  00  00  00
6b  00  0d  00  00
14  00  00  00  00
00  4d  00  15  00
37  00  00  2c  00
46  00  39  00  00
00  00  4b  00  00
00  00  67  00  00
00  00  00  00  2e
00  68  00  00  00
00  6a  00  58  00
50  00  00  3a  00
18  00  00  00  00
00  2a  00  00  00
07  00  00  00  11
4c  00  00  2e  00
00  00  00  00  00
00  07  00  00  00
17  12  00  00  00
5e  00  00  00  08
00  45  00  00  00
00  60  10  00  00
00  60  00  00  00
00  60  00  32  00
00  5a  00  00  00
00  43  00  00  00
00  51  09  00  00
00  2c  18  43  00
00  0a  60  7f  00
00  00  51  3c  00
00  00  65  00  00
00  23  3c  02  00
28  39  00  54  00
0e  09  2a  30  00
00  00  15  00  00
00  00  00  00  00
00  49  00  00  00
00  6c  07  00  00
00  60  00  00  00
00  1f  26  3a  00
00  00  7f  16  00
00  00  7f  00  00
02  00  29  16  00
58  00  0e  49  00
12  00  01  00  02
11  33  00  00  00
2d  77  00  00  00
16  30  00  00  00
17  34  00  00  00
38  62  00  00  00
13  3e  00  00  00
1d  42  04  00  0b
1a  29  00  00  00
03  1b  00  00  42
22  44  00  00  7f
1c  00  00  7f  7f
25  00  4c  7f  7f
0e  00  7f  7f  7a
00  45  7f  00  3f
00  7f  7f  00  54
48  7f  00  59  71
69  7f  00  4b  60
2f  7e  1b  1c  5f
1d  47  0f  08  20
17  35  00  00  00
17  34  00  00  00
26  49  00  00  00
30  5d  00  00  00
0b  46  00  00  0a
0f  39  00  00  00
00  00  5a  00  00
00  53  28  3b  43
00  1c  00  35  25
00  56  04  04  04
00  56  04  04  04
00  7f  00  00  04
00  56  00  70  04
00  00  0e  2a  04
00  56  00  34  04
00  02  1c  32  04
00  56  04  04  04
00  56  0e  00  00
00  7f  00  00  0e
00  7f  00  12  0d
00  00  08  7f  04
00  00  00  36  04
00  00  00  04  04
00  41  7f  04  04
00  7f  7f  04  04
00  56  04  04  04
00  56  04  04  04
00  7e  00  00  04
00  4d  0f  1d  00
00  02  2b  21  24
00  7f  00  14  22
12  00  00  00  00
00  7f  0a  0a  00
00  7b  0d  00  00
00  7f  00  00  29
00  7f  00  50  1d
00  7f  12  07  00
00  7e  0c  00  3d
00  7f  00  7f  24
00  7f  00  1f  00
00  7f  18  01  3c
00  77  5b  00  20
00  7f  3e  00  7f
00  7f  00  7f  2f
00  7f  00  7f  2f
00  7f  1a  1f  00
00  68  00  45  00
00  74  02  0a  00
00  32  00  0c  00
00  7f  00  02  00
00  7f  04  00  1d
00  7f  00  10  1e
00  77  25  00  00
00  7f  04  00  39
00  7f  00  39  31
00  34  14  15  41
00  00  00  00  00
00  00  00  00  00
00  00  00  00  00
00  00  00  00  00
00  00  00  00  00
00  00  00  00  00
00  00  00  00  00
00  00  00  00  00
30  00  00  00  00
04  01  00  00  00
04  00  00  00  00
04  00  00  00  00
04  00  00  00  00
04  00  00  00  00
00  00  00  00  00
00  00  00  00  00
00  00  00  00  00
00  00  00  00  00
00  00  00  00  00
00  00  00  00  00
13  00  00  00  00
00  00  00  00  00
00  00  00  00  00
00  00  00  2c  00
23  00  07  31  00
