0000332f  000015ab  ffffd8be  ffffaea2  ffff70d9
fffff855  00002f63  ffffdd35  ffffe2e8  ffffc629
ffffb473  00002fd6  ffffbe4a  ffffd40b  ffffa762
ffffd06d  000012e3  ffffba96  ffffb03f  ffffa7c4
ffffd9c8  00002025  ffffbe38  ffffe3f0  ffffa50f
ffffc4ba  00002442  ffffc74e  ffff8bdb  ffff9752
ffffc560  fffffea4  ffffc00b  ffffa68e  ffff9e72
ffffbdad  fffff49e  ffffa205  fffff6b0  ffffa20d
fffff6b6  ffffe97f  ffffdc89  fffff3a5  0000065a
ffffc77b  ffffe91d  ffffb9fc  ffffa35a  000026a3
ffffc367  000010c7  00002162  fffff3d6  ffffd513
ffffb686  ffffe4df  ffffe998  ffffd455  ffffa895
0000051d  fffff695  000006e7  00002e52  ffffc902
ffffed3c  fffff2f1  00000b3b  ffffa9f1  00001547
ffffe1af  ffffdd9b  ffffc9dd  ffff860d  ffffda86
ffffe75d  0000061d  ffffd647  fffff2df  ffff8ec7
ffffeac1  000007a5  ffffaf8b  00000f20  ffff7b0b
ffffff9e  fffffc3e  ffffc2b4  00001993  ffffb7ed
ffffdbf8  0000217c  ffffa6dd  ffffa255  ffffc03b
ffffde59  000014b0  ffff9c20  ffffd426  ffffb4c9
ffffe5e1  ffffed97  0000059b  00000c3c  ffffb672
ffffdd8f  0000202b  00002e37  ffffa921  ffffa263
ffffdbca  00001da6  ffffb8dc  ffff928c  ffffbb5c
ffffc039  ffffbbc3  ffff5aac  ffffb9e8  ffffdd9f
ffff9e30  ffffa1cd  ffffae92  ffffe462  0000231d
ffffff34  fffff4a8  fffff4e5  00003e1c  00003a6b
ffffdd91  ffffb3e1  00002683  00003f08  00004dc8
ffffde39  fffff150  000023e9  00001b1e  00003c8a
ffffe3a0  00000ac6  0000244f  00002f06  00002a92
ffffdc54  000029cc  00001d31  fffffc30  00001a85
fffff004  00000fa9  00001d0b  00001e46  00004097
ffffd493  000006e1  00001212  00001ae8  00004150
ffffe6e3  00001911  0000214a  ffffdfb5  00002fa9
000003b2  0000196d  00003691  000035f2  00001681
00000d80  00001fed  ffffeec5  0000423c  ffffeaad
fffffd1b  00000bab  00003022  00001058  fffffc8b
ffffe881  ffffb117  00002285  ffffe592  00000d73
ffffe8eb  000000d2  fffff319  ffffd434  00002458
ffffdfd4  0000272b  ffffdecd  000018a1  00005fbf
000008e7  ffffdc88  ffffdba9  00006428  00001af8
00001247  ffffd30e  00001a33  000059a2  00002577
ffffe577  ffffc7ed  00004a68  00005a17  000035fe
ffffedc0  fffff448  00005d62  00003556  00003bff
ffffeeec  fffffa70  0000520f  000016e7  00003081
ffffe08f  ffffec40  00003496  00002880  0000244e
fffff87e  00001bb5  ffffc599  ffffe50c  00002b41
ffffd127  00003326  ffffe2f7  0000053a  00003a7c
ffffd600  00002095  00000f7a  00004c89  00004225
ffffe62a  00001ec9  000061a0  00006044  00001ff2
ffffe342  00006764  000071b3  00005746  ffffe50d
00001c29  fffff2eb  00000d2a  000034c2  0000451a
ffffa545  ffffee4d  00000da8  00000072  ffffea6d
ffffb96b  ffffbd75  ffffec9c  ffffb1f6  ffffef32
ffffbb4b  ffffe8d6  00000187  ffffff39  fffff93e
ffffba43  ffffcee7  ffffd4ea  ffffcdda  ffffdb0c
ffffc692  ffffef74  ffffd133  fffff2db  ffffe6d8
ffffac83  fffff250  ffffdc4a  000020aa  ffffe4f8
ffffb344  000014dd  fffffa56  ffffb519  00000354
ffffc116  ffffc19a  fffffe12  ffffd4c7  ffffe3f6
ffffb13e  ffffc067  0000065c  00003387  00000c04
ffffc0a3  ffffe417  ffffe831  0000022f  ffffeb02
ffff9bff  ffffe403  ffffef1c  ffffd49a  00000454
ffffcfae  00001e54  ffffdba2  00002b04  00004223
ffffce86  0000002b  00001038  00008002  fffffb2f
00001cc1  ffff8c16  0000000c  0000151f  ffffa1a1
00002576  ffff9f43  ffffeae0  00000be4  ffffcbcf
ffffd01d  ffffef49  00006419  00002f67  fffffd2d
ffffdf02  ffffc25d  ffffd00e  0000087d  0000299c
ffffd583  ffff7a9c  fffff548  00000df4  ffffff97
ffffd1e9  fffffc44  0000357a  ffffeceb  ffffdd2b
ffff9612  fffff36c  ffffe381  ffffee22  ffffd55a
ffffb0ba  ffffe8cd  ffffd1f3  00001622  ffffe9a0
ffffb93d  000007ae  ffffe6b3  00002507  00000a88
ffff9bc6  fffff3e9  000032bc  000038fc  00000ace
ffff925e  ffffab13  00001e7d  00000b18  ffffc4d8
fffff332  00001a1e  00002899  00001420  00000d5c
fffff05c  00006582  000013ec  00002d75  000053ca
fffffa75  000051ac  fffffeb3  000018d6  00004f78
000010fa  00004605  0000096c  ffffefc4  00001576
000008f3  000043db  000003cf  000014dd  00002235
fffffad3  00006009  ffffffec  fffff1d1  00001a0f
00000ebc  000044fa  ffffe3d1  000012b4  00003d5d
00000fde  00001a50  fffff626  00001af6  00004e58
00000653  000018c6  000031f5  fffff85e  00001a56
000002ba  00005052  00003456  fffffddc  00004715
000009a0  000047b2  000039fc  00001df0  fffff6a3
00001c99  00005eea  00002802  0000103a  ffffeb93
000011a8  00003482  ffffeef2  00005f8d  000031da
0000411c  0000814b  00002b70  000034f3  000023f0
000029ca  00002415  00003cf9  000007de  ffffd4e3
0000292e  ffffb6c3  fffff963  0000140e  ffffc8ad
00000a0d  00001086  fffffbd7  00000959  00000492
ffffd0f7  0000478d  ffffe8a9  00002f88  00006eea
000007d6  0000384f  ffffeb81  00001278  00007378
000013e6  000048c3  ffffd677  ffffdf75  00004021
00001089  00002d2c  fffffbb9  00002926  000040e8
00000321  000028a6  fffff502  000008de  00002d1c
ffffea8a  00002aa3  00003445  0000196b  00004d59
00000628  00001e1e  00001562  000017b3  000032ea
fffff541  fffff729  000017dc  00000c60  000031ed
00000444  ffffd909  00000dc0  ffffd795  00001d00
ffffea37  fffff58a  00000190  ffffe9e0  fffff3a3
00002e22  ffffe573  0000167b  ffffce34  00000089
000011c6  ffffd34e  00000c9a  fffff89e  ffffd543
00001ca1  ffffd22f  00001fcf  00002082  00000979
000019cf  ffffd821  000026bb  00001487  fffff7b7
000028d8  ffffc2ae  00001cfc  0000010f  fffff735
00002867  ffffe6e9  00000a3b  ffffcdbd  00002581
000017d3  ffffa4c0  ffffeb4e  fffff5d5  ffffe8ac
000027dd  0000082d  00000448  00004dee  000019a5
000024ac  fffff346  00000d38  00001c13  ffffe639
ffffde40  ffffcc41  00002af6  ffffe451  fffff07c
ffff977b  ffffd772  ffffb446  ffffd600  00004dc7
ffffd5e7  fffff149  ffffdf21  00004095  ffffe36a
000020b8  ffffae50  ffffe5c9  00004676  00001069
fffffb68  ffffc6c5  fffff4cd  00001ba8  ffffc6cd
000017b8  fffff4dc  00003c79  ffffc543  ffffcd13
ffffe732  0000084a  0000088f  fffff02d  000022d7
00000690  fffffbf3  00001966  fffff39e  fffff017
fffff4c6  ffffbc61  000016dc  0000174d  ffffe00f
00002784  fffffdeb  fffffe40  ffffe89e  00001168
000036f0  ffffc618  0000312d  000028c6  00000802
000007dd  ffffcdfb  00002ba2  000029c1  00000239
00001028  fffff128  00004b06  00002f6c  000017e9
fffff946  ffffef6b  00002b1b  000031be  ffffe79b
ffffddc2  ffffdd2b  ffffdad9  ffffb910  ffffb039
ffffd62a  ffffe937  ffffdb47  ffffd1fd  ffffdef3
ffffeffd  00003a57  ffffec5d  ffffd704  ffffcef3
ffffeba8  000021a3  ffffee02  ffffe460  ffffde52
fffff90b  00002ea0  ffffb5d4  000022c4  ffffc7c6
ffffdbac  00002304  fffffcb9  0000047b  ffffab65
fffffe53  ffffec12  ffffe2cc  ffffb293  ffffe2c6
ffffce79  fffff9dc  fffff73d  fffff31b  ffffe6e5
ffffc5a2  00001b68  fffffb14  ffffdb4d  ffffbc02
0000022b  ffffe8f8  ffff932a  ffffd5cd  ffff948f
000008b5  ffff9662  00000df1  00001a4c  ffffb19c
ffffd450  ffffb6b1  ffffec6b  ffffcdbd  ffff982e
ffffcd7f  ffffef47  ffffe122  ffffd65d  0000019b
ffffda5e  fffff95b  ffffaa0d  ffffe969  ffffd326
00000462  fffff05b  ffffa599  00002656  ffffac3b
0000089c  ffffebcc  ffffc32a  00007eec  ffffb14c
00000bc8  ffffcddc  00000a09  ffffe186  ffff9c45
ffffd18d  000024ee  ffffe9a0  ffffbe84  ffffdad9
ffffb9a9  00003dc0  ffffd589  ffffc5ac  ffffd11c
ffffbfab  fffffad2  fffffac1  fffff325  ffffd8b9
fffffea3  fffffa60  ffffdfa2  0000114e  ffffd905
fffffefd  ffffd7de  000006f6  ffffd80f  ffffc6d4
ffffd221  ffffe1d3  0000049d  ffffe3da  ffffe5fb
ffffdcbc  0000189a  ffff9840  ffffca58  ffffcdfb
fffff56c  ffffcd94  ffffb43e  ffffe8e7  ffffe12a
000010aa  00000aad  ffffea6b  fffffc11  00000219
fffff40b  ffffcfd9  00000d08  ffffc18a  00000531
ffffc611  ffffa4f6  fffff5ed  ffffbe6d  0000004b
ffffc6f1  ffffce95  ffffe8f0  ffffa415  ffffeb47
ffffc993  ffffd15d  ffffdb43  ffffc0af  ffffffad
ffffcc70  ffffdaf2  fffff959  ffffc7e1  000008ef
ffffb82c  ffffe103  ffffce11  ffffed6e  fffff2f7
ffff9147  ffffea9f  fffffad9  ffffcfcd  00000029
ffffa33a  ffffb7f3  ffffaadb  ffffe947  0000078b
ffffa46a  ffffac45  ffffb0a7  ffffe811  00005982
ffffc08b  ffffdf94  ffffb05d  ffffdd2b  000028e2
ffffb219  fffff16c  fffff0d1  00000dcd  ffffc6eb
ffffc60c  ffffcab3  00004521  ffffa0c8  ffffd775
ffff895a  ffffb5ab  000011a5  ffff9768  00000f47
ffffd328  00001e4d  ffff93ce  ffff81f9  00003bbd
ffffe1a3  ffffd7f8  ffff79cd  ffff8a33  00000b2e
ffffa327  ffffa967  ffff73b5  fffffdd3  ffffa1df
ffffffb5  ffff6d3b  ffffa15d  ffffed57  ffffba63
fffff914  ffff8482  ffffd4ef  ffffcd79  ffffd054
ffffc639  ffff9eec  ffffe3f2  fffff578  fffff3eb
ffffae92  ffffa99a  fffff693  ffffbbb1  000007ce
ffffc0e2  ffffc09a  fffff473  ffff9a3d  000021c9
ffffe5a1  ffffd0d0  ffff8f49  ffffe478  00000f00
ffffa0b2  ffff8b5e  ffffd3f7  ffffe246  00000774
ffffc39b  ffff8945  ffffb216  ffffead5  000009bc
fffff3d3  fffff2b6  ffffbb1b  ffffa28e  ffffa30d
fffffc7c  ffffe403  ffffea2e  ffffd128  ffffcf67
ffffe66c  fffff43e  ffffe2e9  ffffc789  ffffc88e
fffff4b0  fffff449  ffffca68  ffffd12a  ffffc4e2
fffff7b1  fffff268  ffffdf12  ffffcddc  ffffc6f6
fffffbaa  ffffc7fa  ffffe5c7  fffff31b  ffffbf1e
000005f5  ffffcb4b  ffffc0c3  ffffb939  ffffcc13
ffffcc68  ffffcccd  ffffb56d  ffffc848  ffffc257
fffff31d  ffffe3a5  fffff677  ffffce1b  ffffc57d
00000f7a  ffffb487  ffffe92f  ffffeb63  ffffcfe1
00000c42  ffffbff8  fffff338  fffff541  ffffb1f9
ffffdd21  ffffe739  ffffc3bd  ffffd009  ffff8f59
ffffdc6d  ffffd1cd  0000053c  ffffc21b  ffffd2a5
ffffddba  ffffd111  fffff4f1  ffffd119  ffff9a93
00001b88  000000f9  ffff9645  ffffdb13  ffffc4ad
000011a0  ffffce30  ffffc8ad  ffffd2e7  ffffa0af
00000fa8  ffffb1ee  ffffcddb  ffffc71c  ffffa292
00000dfe  ffffcdb0  ffffd4e0  ffffd44a  ffffcd8a
ffffee04  ffffe1fd  ffffc8b4  ffffbbe3  ffffc955
ffffd3f7  ffffc763  ffffc577  00002167  ffffe3bc
fffffbd8  fffff074  ffffef47  ffffdd18  ffffcea6
000002ab  ffffee9d  000012fd  fffff40f  ffffc3e6
00000a5d  ffffa791  ffffbc2e  ffffb17a  ffffc674
ffffe2b1  ffff9e07  ffffb0a7  ffffbc91  ffffe032
ffffd89f  ffff8796  ffffc753  00000a93  ffffe983
ffffe80b  ffffa093  ffffc940  ffffe1cd  fffffcaa
000009e4  ffff901d  ffff9d39  ffffcb6b  ffffcfb1
fffff22b  ffff6c47  ffffb805  ffffb473  fffff1c1
fffffb91  ffff8376  ffffb4c8  fffff56c  ffffeb0f
ffffe849  ffff6c05  ffffeeb4  ffffb4a9  ffffe7d7
ffffdbbd  ffff667d  ffffc8fc  ffffc2a7  ffffce7c
fffff7af  ffffa378  ffffaa26  ffffce6c  ffffd05c
00001c90  ffff9689  ffffd2af  ffff971b  ffffd352
000039f2  ffff788b  fffff4d5  00000b2e  ffffe426
00001182  ffffb605  0000075b  000016b5  000003d0
0000052e  ffffbaa4  ffffd114  ffff9b9a  ffffa2b7
000021d6  ffffdc5e  ffffec45  ffff88ac  ffff944c
000028e7  ffffce28  ffff9ee7  ffffaf7f  ffffbb6d
fffff5aa  ffffda4b  ffffcdf0  ffffbb5c  ffffd000
ffffcaff  ffffb73d  ffffcf12  ffff99f0  000000ed
fffffafc  ffffad57  ffffbdf3  ffff7c5c  ffff8962
fffff033  ffff8d6d  ffffcc2d  ffffc01b  ffffc35a
ffffff90  ffff7d99  ffffc408  ffff8d4a  ffffbd19
ffffefcd  ffff5ec9  ffffbd48  ffff94d8  ffffe644
000016ef  ffff97f4  ffffc365  ffff9a33  ffffe040
0000046e  ffff9b11  0000085a  fffffc70  ffffddf5
ffffefda  ffff73da  ffffad5a  ffffe63d  ffffde82
ffffcba4  ffffa97c  ffffa6d8  ffffbe7f  ffffc78b
ffffd89c  ffffacf1  ffffe3bf  ffffe34f  ffffeb76
000005bf  ffffe06b  00001421  0000012e  ffffef8a
ffffffbb  000010ce  ffffe9a6  00000c43  fffffdd4
00001369  fffff6ef  00000f44  00000285  fffffdb7
0000318c  00002319  00002ebc  000011af  00000aff
00002065  00002c64  0000106c  fffffee8  fffff598
000025b6  00002a7d  00002cfd  00000f18  00001ee8
00001c95  00004621  00002eb1  00002376  00002dc4
00001bee  00001f9b  fffffb13  fffff8c4  00000a56
00000d39  00001f98  000055c4  ffffde42  00000a66
0000578e  fffff209  00003928  00000d2c  ffffd965
00003445  fffffdb6  00003277  00004f0f  0000323f
000046ee  00002d81  00001118  00005eb9  ffffc9ff
0000212e  fffff177  00001384  ffffe4fc  ffffda8b
00005f49  ffffb342  00004a17  ffffcebc  00001a2c
00000a8f  ffffde61  00003cdd  fffff827  00005df7
fffff600  000039e8  0000120e  0000033d  00003150
ffffd4e9  0000113e  ffffecc9  fffffc4f  ffffe337
ffffdda7  ffffd949  00001e1a  00005517  fffff2c9
000025ac  fffffbd5  00001ed9  00000b75  fffff2f3
00000454  0000071c  000001ce  00000ba1  fffff3be
00000939  00001695  000028aa  00001981  000013dd
00001336  00004efc  00005c99  00000c6e  00002834
00002bf0  00004085  000085df  00001432  00002fc3
000038f0  ffffedef  00002262  00002fff  00001d14
000046b9  00002d8b  00000995  00000b24  00001df5
00000669  00002b06  00002935  000059b6  000019b0
ffffbe7c  fffffe95  ffffedfb  ffffcc29  000010ab
ffffda09  fffff794  ffffd2a1  ffffadaa  0000233b
000002e4  fffffb10  ffffc95e  ffffc76f  00002662
ffffdd47  ffffecce  ffffece7  ffffc0c6  000038fb
ffffd7eb  ffffdc6d  ffffdbd9  ffffc5f4  0000403b
ffffc8ee  ffffe1ba  ffffcb19  ffffd17a  000022ea
ffffbc68  fffff6cc  ffffec2d  ffffccb5  00000f93
ffffb51e  ffffcf6c  fffff77a  fffff26c  0000392b
ffffd86a  ffff973a  ffffbcae  000001f9  00003550
ffffe0d4  ffffd531  ffff7dba  ffffd396  00001589
ffffc679  ffffe34d  ffffc049  0000062d  fffff2a1
ffff9c38  ffffae90  00002498  ffffd1dd  fffff708
ffff72fc  fffffb6d  ffffd777  fffff224  fffff3f1
ffff9b2c  fffff945  ffffb539  ffffe8e1  00005f83
ffffcf17  fffff53d  ffffcac7  ffffca16  ffffe148
ffffc7a3  fffffb32  ffffa8ce  ffffde86  00001b29
ffffc0b0  ffffc53a  0000239f  ffffff3e  00002dab
ffffd04a  fffff739  fffff865  0000151b  000025e7
ffffd120  ffffc7f1  ffffc309  00000cfa  000022fe
ffffeaaf  ffffbb62  ffffb6fb  ffffcdf9  000038d3
ffffc4da  ffffa5d4  ffffccb5  ffffdeaa  00003d0d
ffffafd7  ffffe132  fffff03f  fffff912  00001218
ffffaaef  00000fe6  fffff465  0000046f  00001e46
ffffd865  0000451e  ffffbad3  ffffcbfa  0000023d
ffff84f0  ffffc167  ffff9e63  ffffc40c  ffffd4fd
fffff823  00000f04  ffffead9  fffff6f9  0000296c
fffff950  ffffdb25  ffffc9de  ffffbd79  ffffee3a
00000d18  00000337  ffffea19  ffffe054  000015af
000011d0  fffff5db  ffffedab  fffff80c  000023e3
fffff5f8  ffffcdc4  00000672  ffffef21  00001d95
fffffd2b  ffffac06  fffffddb  ffffa439  fffff4a4
0000119c  ffffde7d  00000d20  000012f5  00004516
0000229b  000025a3  ffffc0f0  fffff7d4  000032c3
000016e4  ffffd533  fffffb27  fffff1bd  ffffe9a7
000010a6  ffff9957  00001443  ffffff9f  00001219
00000d48  ffffeda4  000000a0  ffffdfed  00002c0c
ffffd940  00001eea  fffffc9c  ffffd679  ffffc9eb
fffff8b6  ffffc03c  ffffad0e  000008f1  00004ac1
ffffcd06  ffffb532  ffffda85  00001d11  000012eb
00000140  ffffbce1  fffff947  ffffde59  ffffe3e4
ffffb262  000014e2  ffffe23c  ffffc07a  ffffcea5
ffffaa07  fffff1ac  ffffe940  ffff7b2e  fffff902
ffffca08  00001694  ffff8edb  ffffeda2  00001d4a
0000075a  00000382  ffff9dff  ffffe8d6  00000fc8
00002b87  fffffee6  00000205  ffffd30b  00000008
000013c4  ffffd395  00002dfd  fffffdc8  00002a4a
00000b02  ffffc14d  000025f2  ffffcdd2  00000d01
ffffee1d  ffffe350  0000199d  fffff4db  0000265f
00000c3a  ffffebdf  ffff99a5  ffffb936  000016d7
ffffefd2  ffffe55a  000002e2  ffffc0f0  0000049b
ffffb009  ffffb610  ffffa5c3  ffff9fd3  ffffa295
00000c4d  000018f3  000000c8  ffffbada  0000070a
00003430  00004582  ffffe20e  ffffcbd8  ffffe26d
0000393b  00002a20  ffffd6e4  ffffaaac  ffffe5e6
000038ed  00003898  ffffd79d  fffffd41  00001ba9
000011e4  0000441a  00001237  ffffca2d  ffffc93a
0000251c  fffffe0b  ffffead3  ffffde1e  000005e2
000045c6  fffff14d  fffff5aa  ffffed8f  ffffe19d
fffff944  00001500  ffffcd8c  fffff4f0  ffffc3cc
0000375d  00004853  00000136  ffffdf8d  ffffeb85
0000270f  00000c6f  00000a47  fffff091  00002293
000016fc  00007b89  ffffecad  fffff5b3  ffffc409
000032a0  0000083d  00000253  ffffce6c  ffff93bc
00000752  00000366  ffffc49f  ffffb023  ffffee9f
00001916  00003109  ffffc4a5  00002c55  00006bee
ffffd928  ffffea51  ffffffda  ffff8fb1  fffffc72
ffffc100  ffffe7a9  ffffd78c  ffffbfd6  ffff7780
0000162d  fffffdf2  00001577  0000028a  ffffc94c
00000db7  00004822  ffffea5c  ffffe531  ffffedd0
fffff729  0000165b  ffffa1af  ffffdc46  fffff021
00002d8b  000018a2  ffffdb97  ffffbe1a  00000f27
00004077  ffffeeaa  0000145d  ffffb23e  ffffe733
00004edf  ffffd8c0  000018ed  ffffcbbc  ffffde7e
00002771  00001e25  fffff4a0  ffff72ea  ffffed67
000025c9  00007ff3  ffffdf01  000014c0  00002fff
fffff067  ffffccc9  ffffecb8  ffffde59  ffffd832
00001499  ffffa660  ffffef94  ffffcffd  ffffe5ad
fffff519  ffffc876  ffffe701  000017de  ffffe1d4
fffffbfd  ffff9dfe  fffff005  ffffcaf0  fffffb0f
fffff71a  ffffa814  ffffed1e  ffffde39  ffffea8a
fffff86e  ffffbb87  ffffec1e  ffffe55e  ffffdf6f
fffff95e  ffff9963  ffffe1ff  fffff9e8  ffffedca
fffffe73  ffffbfa9  00000da0  fffff7a6  ffffdcfa
00002462  ffffa8b3  ffffcaf2  ffffa135  000021ae
0000131a  ffff928c  ffff9406  fffffc9e  ffffde52
fffff872  ffff8afc  ffffad34  000022a9  ffffebbb
000014a8  ffffc44b  ffffab02  000030cd  ffffc3b5
ffffc87e  ffffaf67  00004c30  ffff7c59  ffffb0b2
ffffa385  ffffae2f  000005c8  ffff5936  fffff286
ffffe222  00002113  ffffcf4f  ffff9b87  ffffe85f
fffff055  00005e4e  ffff95f6  ffffc1f3  00002912
0000083b  ffffe486  ffff8098  fffff6f6  fffffc34
fffff757  ffffc42f  ffffb757  ffffca49  ffff960f
ffffe8f3  ffff908b  ffffda65  ffffefc9  ffffb984
fffff7e9  ffffb07e  ffffef76  ffffc27a  ffffe9fc
fffff7bc  ffffb53e  ffffeafc  fffff721  ffffe3da
fffff1ef  ffffcc81  ffffdac9  ffffdcfa  ffffd324
fffffc1a  ffff79e4  ffffda0e  ffffeeb7  00000083
000000f6  ffffadc9  ffffa78f  ffffa270  ffffdd8d
0000217e  ffffc116  ffffbe3d  fffff49c  ffffe7be
00002158  0000258a  00003487  000023f7  ffffd1cc
ffffe6fb  ffff9fb5  000032f5  00002e89  ffffe258
ffffd9bc  ffff91ee  00001303  000010cf  ffffd35f
ffffd6ad  ffffee45  fffff8bb  ffffee50  ffffc0ae
ffffda97  ffffbe73  00000a88  ffffcc6c  ffffb6ea
ffffe4c5  ffffdfd6  0000166a  ffffea5f  ffffba71
ffffd2d4  00001bb1  ffffeacb  00001789  ffffc0d3
ffffd447  fffff6a5  00003b74  00000259  ffffccae
ffffc8a7  ffffe5e6  00000a3e  fffffabb  ffffcce0
ffffd3bf  ffffa2b5  00000d2f  fffff335  ffffdf8d
fffff636  ffffbf2c  ffffe06a  ffffce59  ffff9bf6
ffffdbca  00000fd3  fffff1ca  ffffd154  ffff5c70
0000093c  ffffe327  ffffe3d2  ffffb2e3  ffffea95
ffffed08  ffff9aa5  ffffd428  ffffc246  ffffe134
000015da  ffffbc49  ffffb69d  ffffd03c  ffffbcdb
fffffe05  ffffbe62  ffffd8d2  ffffb304  ffff8e39
ffffccf8  ffff9e3c  ffffef96  00000a79  ffff7689
00001a4a  ffff9d75  ffffd319  00001739  ffffaabc
000002bd  ffff8a83  0000111e  00000e71  ffffc09d
ffffb99b  ffffcdf1  00003b4e  00001676  ffffcd20
ffffa484  ffffce4c  00000b7b  ffffe735  ffffbdd6
ffffdd35  ffffd510  ffffc7f8  ffffce6f  ffffd544
fffff50c  ffffba95  ffff9e0a  fffff432  ffffcdb7
ffffe5fc  ffff87fd  fffff4f6  ffffb7c0  ffffe42f
fffff29b  ffff8dc4  ffffdedf  fffff412  ffffc786
ffffb0c5  ffffcf18  00000235  000019e5  00004c9a
ffffc7ef  fffffec0  ffffd74b  fffff5e0  00000fc6
ffffe136  ffffe81b  ffffc83a  0000046b  00001ef1
ffffbca8  ffffdd8b  0000057f  0000315d  00000dac
ffffc84d  00001167  ffffd0e2  000006b4  ffffe75c
ffffa66c  000007c5  00000ec6  0000112b  fffff7a4
ffffd275  000009f7  ffffd53a  0000209e  00005d70
ffffc356  000003c9  ffffe866  00000af4  000033a7
ffff956f  ffffc5c0  fffffaff  fffffda8  ffffd329
00001268  fffffc41  ffffe752  00006b4b  00003db6
0000106c  ffffe8b8  fffff44f  00002b09  fffff68b
ffffcc75  000020bc  00007d33  fffffabc  00001e18
ffffaa3c  00003dac  000037ee  00000eb8  000091ac
ffffb0f3  000040ca  ffffe3c4  00001ccd  000067ab
000015f5  0000654f  ffffe6f8  00005cd4  fffff594
00002ed2  ffffcec9  ffffe2ce  00002937  ffffeff8
ffffb0d3  ffffb46d  00004405  000061e7  000010d2
ffffa454  00000220  00002944  fffff7fe  0000239a
ffff9ad0  ffffd11a  00002be6  00004533  00002739
ffffce8c  ffffe372  00001975  00002968  00000817
ffffddfc  00003786  ffff9b51  ffffd960  ffffff36
ffffab3c  ffffeee7  ffffd47b  000043af  00000aed
ffff953b  fffff359  00001afa  000057e4  0000418f
ffff7e45  00006097  00004c6c  ffffeee9  00006eba
00000195  0000547f  00003e9a  00007317  fffffa3d
fffffedb  00000a04  ffffcd01  ffffdddc  ffffc200
00001ce4  ffffe1b9  00000f02  00002312  fffff21f
000012c2  ffffec98  00000db5  00001a7b  ffffe790
00001bda  00000dc4  ffffef28  ffffc443  ffffb9a3
000016d9  000006ee  00000742  ffffc3a8  ffffeb35
0000252c  00001c99  fffffc86  ffffd87c  ffffeb0a
0000213d  ffffec7b  ffffc94f  fffff018  ffffe294
fffff5c0  ffffcc4c  0000004a  ffffaf7e  ffffb94a
00003e5d  fffff093  000018a3  ffffcee7  ffffd80e
00000af3  ffffe07a  0000080c  ffffcd85  ffffd7e1
00001b75  00002891  ffffd0d9  000003d3  ffffe295
00002438  0000169a  ffff92ab  ffffe1bc  ffffae47
0000539a  ffff82d9  000010e2  00000b84  ffffaf74
00002b78  ffffa1f5  00003b0d  ffffb608  ffffdd17
ffffe146  00000923  00002bd3  ffff9f96  0000247e
ffffed70  ffffeb6d  00002139  ffff7543  fffff438
00001171  fffff980  ffffaac8  fffffee8  fffff927
000048c7  fffff89e  ffffe606  000043ff  ffffdc2e
00001f2b  fffffb66  ffffe720  00000d8c  ffffda36
fffff093  00001f69  ffffe6ab  ffffe801  ffffe820
00000548  00001d42  000008eb  ffffe470  fffff14f
00002004  0000258d  ffffff55  fffff62b  ffffea88
000058b4  ffffc9e5  ffffd3c4  ffffd2f6  ffffcc4a
0000285c  ffffb740  ffffb092  ffffcf72  ffffc3f6
00000104  ffffdd4a  ffffd541  00000333  ffffee82
fffff4e6  000008ca  000028f7  000020f6  00002075
fffffa87  ffff55e5  0000029f  00000a9f  ffffec50
ffffc462  ffff8ad0  ffffd1c7  00000297  ffffda4f
ffffb52f  ffffc51e  ffffda38  ffffce8b  ffffbe58
ffffc6ec  ffffd0c8  ffffbca2  ffff9c50  ffffd08e
ffffcb03  ffffcb72  ffffd28b  ffffa8fc  ffffcc60
ffff806c  ffffc1ec  00000b30  000017c9  fffff8e6
ffffa379  ffffdebe  ffffd411  ffffc484  ffffcb1e
ffff8ab3  ffffc16b  ffffa7f3  ffff9fae  ffffce51
ffffaa29  ffff54c7  ffff74ce  ffff7ba8  ffff7c43
ffffa664  ffff7814  ffff436c  ffffc177  ffffecb7
ffffc61e  ffffae50  ffffa353  ffffc9fa  ffffbc3c
ffffba4a  ffff9b38  ffffcf67  ffffc4fd  ffffcf66
ffff9636  ffff7c18  ffffbcb0  ffff7c30  ffffca84
ffffb1ee  ffffab99  ffffac05  ffffbb51  fffff847
ffffc065  ffffa220  ffffba21  ffffb14f  fffff70c
ffffbf45  ffff826d  ffff8d16  ffffe343  ffffc56e
ffffea10  ffffa352  ffffd11c  00001214  ffff92ec
ffffc014  ffff9a2d  fffffde3  000026bb  ffffb79d
ffffc39b  ffffafad  fffffb1a  ffffd237  ffffa87c
ffff8ef3  ffff90b8  ffffc623  ffff884a  ffffc155
ffffb145  ffffc414  ffffa268  ffff9a31  ffffd4cc
ffffca02  ffffda0b  ffffacf3  ffffd1cb  ffffc6d6
ffffb12c  ffffc848  ffff9730  ffff82a4  ffffb6cd
ffffc697  ffffd7c6  ffff907a  ffff5f42  ffffad13
00000ff1  ffffcf2f  ffffe4c9  fffffb1d  fffffb87
fffff6b5  fffffb21  ffffd153  ffffd350  00000a79
ffffdec8  ffffb74b  ffffc192  ffffea98  0000185e
ffffde43  ffff8fed  ffffed03  ffffbbd2  fffff7c8
ffffcdae  ffff9e01  fffff711  ffffc0bb  00000829
ffffe7de  ffff9f9d  00001503  ffffd7ce  00000a08
ffffde98  ffffb571  ffffb6a1  ffffe9e1  0000050d
ffffa539  ffff9858  00001075  ffffadaf  000032be
ffffd9c3  ffff8ceb  ffffc84e  ffffc2f4  ffffee06
fffff8ff  ffffb2c0  ffffa8cb  00000a4e  000011c6
ffffcda1  ffffc942  ffffee75  ffffc654  ffffb095
ffffd5c4  ffffafd0  00000a3c  ffffd51c  ffff7561
ffff9322  fffff0c0  ffffe733  ffff3814  00002f88
ffff93b1  ffffecc4  ffffc75c  ffffb9e5  ffffe942
00000185  ffffbeea  ffff6a16  ffffd9d3  ffffa1f4
00000607  ffffa79f  ffff6d2b  ffffe355  ffffc20b
ffffd213  ffffa148  ffffb357  ffffd610  ffffd170
ffffd787  ffff9c6c  ffff9bdb  ffffa5d2  000003e3
ffffe43f  ffff765e  ffffcd6d  ffffe5d0  000006a8
ffffe7de  ffff66b7  fffff251  fffffdbf  00001207
fffff0b2  ffff9a3b  ffffb3ff  ffffbf72  00001921
ffffcaea  ffff9504  ffffe03d  ffffd2ee  00000cdc
ffffc267  ffff8791  fffff5c3  fffffcf2  00002f4f
ffffbef8  ffff9ab4  00000cb2  ffffcf5a  00001d1d
ffffdbd0  ffff4888  ffffe1a4  fffff0b9  ffffcf67
ffffee37  000029f3  ffffe3c0  ffffcf9f  ffffcf0c
ffffe50a  fffff6cb  ffffefe7  ffffd0bd  00000874
ffffd05b  0000019f  fffff693  ffffe2a8  fffff8be
ffffff1e  000007fb  ffffe269  fffff8a4  0000196d
fffff985  ffffcd57  fffff7c8  00001d1c  00002d4c
ffffecbb  ffffd750  ffffff71  ffffcb92  0000039c
ffffef0b  fffffd45  ffffcc15  000019d7  000000cd
0000092a  00004af9  ffffe3c4  00001029  ffffd0f2
00000087  00000e40  00003547  000030ea  ffffe151
00000ede  ffffe54a  00001c80  fffff400  ffffd52a
00000450  fffffbda  00001e62  ffffc3f4  00002bc4
ffffcb58  0000273e  ffffd4d6  fffff104  ffffb385
fffff2fb  00001660  fffff6d9  fffffe40  ffff3d55
000019c0  000007fc  ffffc0d6  ffffd8d9  ffffb0af
000005c7  00001939  ffffc1d5  ffffc342  ffffc836
00002f80  000040d8  ffffae0d  ffffc6a5  fffffe30
0000410e  ffffdfc2  fffff946  ffffd851  ffffaad0
00001edc  ffffc84c  ffffefea  ffffb8b5  ffffda8c
00000def  fffff5bf  ffffd745  ffffb64f  00001aa1
0000094a  fffff95b  ffffd124  ffffc7ae  00003e30
fffff734  ffffd839  00001805  0000625a  0000153b
fffff2ff  fffff9f6  0000038f  fffff40f  fffff642
00000998  00000963  ffffc169  00000a14  fffffda5
00001cf6  ffffd82a  ffffd018  fffff805  ffffc80d
ffffd087  ffffb2d2  fffffbf0  fffffb7c  000012d7
0000005b  0000303f  00001db3  fffff1ec  00000dcf
ffffdc5e  ffffc612  fffff4c8  ffffe42d  00004c50
ffffe88a  ffffea99  00000ce8  ffffd92d  0000641f
ffffd617  00001fcd  00000c68  00002cf8  000071fc
ffffc336  000025d2  ffffc615  00003004  000044a0
ffffc2d5  00002730  ffffd609  000027fd  00006ef3
ffffb437  fffff7df  0000010d  fffffedc  000069b4
fffff3be  00002a9b  ffffd132  fffff7a7  00005390
ffffde61  00002975  fffffea0  00004054  0000561b
ffff9dc0  00001ab3  00001770  00007363  00004599
ffffc56b  00004875  ffffe1a5  000009e5  000040ca
ffffdb59  00004d87  ffffff8c  fffffff7  000058da
ffffee45  0000a9ca  fffff1e4  ffffe91b  00002b2b
0000033a  000057a1  ffffb6f3  00000250  00004601
00000aa0  ffffd018  ffffd77e  00008de5  00005a7a
fffff4ec  fffff510  000016b5  00004ede  00003be6
ffffd4a3  ffffd170  00001fb9  00002618  000032d8
ffffb30b  fffff5d6  00006293  fffffb4e  ffffefb9
ffffb5b8  000051da  00003f6f  ffffaf35  00002567
ffffcd22  000025e9  fffffc08  00000efd  00005cce
ffffca9c  0000493f  00000219  00002a67  00005c2f
ffffcc5e  000027f9  0000123d  00004063  00005b08
ffffabe8  000044c7  000011aa  fffffce0  000062ff
ffffeded  0000305c  00003337  00005d11  00005e5d
ffffd0e0  00007263  00000b45  00005c57  000059b2
00000998  ffffc436  00000d35  000010aa  fffffba7
ffffcbd2  ffff75b3  0000125f  ffffe611  ffffe7de
00000f65  ffffa1a9  000032c2  fffff983  ffffdc43
fffff500  ffffd7ed  00000e81  ffffeea4  ffffe441
ffffdf8d  ffffb6a2  fffffba0  ffffcbdb  fffff5f2
fffffab9  ffffdce2  00000bc8  00001d34  ffffecad
ffffe0ed  ffffc72e  fffff3a1  fffff789  ffffc6a5
ffffdd90  ffffac9e  00007bb4  ffffdfa0  fffff520
ffffdec3  ffffd3ce  00002c8a  fffff7da  00000690
ffffcf5d  ffffd707  ffffadc7  ffff6357  ffff9645
ffffef7f  ffffedcc  ffff8756  ffffc0c1  ffffb72b
00003769  ffffa81c  ffff5dd1  fffff716  ffffa037
00000704  ffffaf66  ffff8a00  ffffad97  ffffb800
ffffbb88  ffff4cf5  ffff9109  ffffcb09  ffff893b
ffff71e7  ffff3893  ffffeb1e  ffffa898  ffffbd1a
ffff9f20  ffff8731  ffffe863  ffffbd94  ffffcdef
ffffc8f4  ffffd467  ffff9215  ffffa48e  ffffce0a
ffffd105  ffffbaae  ffffa09e  ffffe3fb  ffffc7b1
000013ac  ffff9dd5  fffff594  fffff8f9  ffffb2ab
ffffb51d  ffffd435  000042e5  ffffcf53  ffffd9d2
ffffa7e2  ffffbe05  00000099  ffffc867  fffff7b0
ffffedd2  ffffb72b  ffffa3bc  ffffe405  ffffec32
00001099  ffffa49d  ffffe21a  fffff319  ffffe13b
ffffffe8  ffffacfc  00000383  fffff26c  ffffd3ca
fffff85a  ffffbcb8  ffffe9ec  ffff9226  ffffae2e
ffffef12  00001cce  00001329  ffffffc1  000022ae
0000058f  00000b41  000022b2  00000f99  00005db4
00000b68  ffffd674  0000142f  fffffe5f  00005703
ffffff81  00000083  00001729  00001314  00006c7e
000016c9  fffffc77  000019e2  0000124e  0000367d
fffffee2  fffffe83  000044b6  000040fc  0000247c
000011f2  00000b84  ffffeeb2  00000c89  00006034
fffffee9  00002b0e  ffffeef6  00001e04  00002ba7
ffffe0a8  fffff04b  fffff4d8  ffff95b1  000000a6
000009fa  ffffea14  ffffde5e  000036a0  00001b6d
fffffca4  ffffc2ec  fffff417  00004591  00000700
ffffb477  00001a6d  fffffead  000016fd  fffff547
ffffb466  00002798  0000254d  ffffb5c4  00001125
ffffd7b9  ffffef2e  ffffd54c  ffff9488  fffff44c
00001d6d  ffffe1f9  ffffc32e  00001589  00002f8f
000045dd  00003028  ffffc084  00002223  000007b6
ffffd73f  fffffbe9  fffff7f5  00004ffa  000012ad
ffffebd6  0000014c  00001cad  000056b3  000026e7
000005d5  ffffd25d  00002483  ffffe801  00003f27
00000855  fffff4fc  ffffd637  00002157  00004adf
00000210  fffffcb8  fffffe4d  ffffefb6  000049d4
000038ed  ffffc723  ffffef67  000025d3  000039d3
ffffe85d  fffff73c  ffffea04  00001294  00004408
ffffc224  fffffa38  ffffe536  ffff9e03  fffffcf0
ffffed9b  fffff2a0  ffffbd58  ffffc63d  ffffd2f2
00003c0b  0000037f  ffffe582  ffffee5c  ffffb4d3
fffffd8e  00004af5  ffffda08  ffffcabc  ffff9960
ffffd359  000016bc  ffffb449  ffffcc40  ffff8cd5
ffffdf07  ffffdbd2  ffffd1a3  fffffc3e  ffffa179
ffffefa4  ffffdcf8  ffffc803  00000750  ffff98b0
ffffcd32  00000523  ffffd152  ffffda78  ffffa3ea
ffffe466  ffffe2c7  ffffe02c  ffffabb0  ffffa5ab
ffffed29  fffff2a3  ffffcc70  00001302  ffffc04f
ffffd7a3  ffffdbbb  ffffcf91  fffff059  ffffe53c
ffffcf85  00001d1d  000003db  fffff38a  00000510
ffffea82  ffffeb7b  00002c46  ffffea01  fffff7a1
ffffd43d  ffffeb87  00001e70  000022c5  00002052
fffff994  00000067  000016d8  000029b9  00000f77
00002c79  000008ff  00001b5d  00000d33  ffffc9e2
0000518a  00000bbb  ffffe797  ffffcc57  ffffd4da
0000244a  fffff337  00001082  0000039f  ffffe1fe
fffff0c9  000003d8  00003b81  ffffee1b  ffffb95c
0000073c  ffffeb8a  ffffa9f5  ffffa081  fffff303
ffffe158  ffffe94c  ffffa792  ffffd81d  ffffb64d
ffffe9c4  fffff6d5  ffffe665  00001e2b  ffffafb6
ffffed9c  ffffe8de  fffff030  0000203b  ffffa138
ffffe8fe  ffffb6e9  00003136  000009b5  ffffb8cc
ffffe4a2  ffffcb0f  0000013c  ffffce29  ffffc5bf
ffffc517  ffffe12d  fffff06c  ffffe4a1  ffffde3c
ffffd71a  ffff99fb  ffffcb7d  00000cfb  00000bac
ffffbbb6  ffffcaf3  ffffd16b  ffff8e95  ffffd367
ffffa360  ffffbe79  ffffe862  ffff6b80  ffffcbb7
ffffd9a8  ffffbc11  ffffda20  ffffafb6  ffffcad9
ffffe3e8  ffffe0cc  ffffce84  ffffaeb7  ffffbbf1
ffffe1a5  ffffbb68  ffffd260  ffffa70b  ffffe30a
ffffe378  ffffc023  ffffde8b  ffffbb61  ffffd0a5
ffffcb6e  ffffcf36  ffffac9b  ffffcb99  ffffbb3e
ffffb9a8  ffffa6d8  ffffd728  ffffe98b  ffffdb28
ffffb632  ffff8e63  ffffad68  ffffbefd  ffffcf34
ffffa0e6  ffffa9b9  ffff983d  ffff7f34  ffffdd97
ffffa06a  ffff9d12  ffffa348  ffffacdc  ffffc4d7
ffffb64d  ffffaa34  ffff7acb  000007c7  ffff94b9
ffff94c7  ffffc54a  ffffadba  ffffa044  ffffaec9
ffff9dc3  ffffac01  ffffbb76  ffffb08a  ffff7dee
ffffb2d4  ffff72fb  ffff9366  ffff5b6a  ffffb458
ffffc2bd  ffff4564  ffff49d0  ffff4b99  ffffaf17
ffff9796  ffff96d3  ffff6f97  ffff59aa  ffff8bf1
ffff8682  ffffa106  ffff9ace  ffffbd7f  ffffc7e0
ffffe26c  ffff99a4  ffffbf5e  ffffb50f  ffffc155
ffffc98d  ffffb6b2  ffffa110  ffffbae0  ffffcbf9
ffffba70  ffff9616  ffffbcbe  ffffa10f  ffffe380
ffffdcaa  ffff8c7e  ffffae0f  ffffb2e3  ffffe37f
ffffdd99  ffff8d8a  ffffd326  ffffdf09  ffffe419
ffffc16d  ffffa185  ffffd12e  ffffb521  ffffd327
ffff9d4b  ffff9ca7  ffff9d6e  ffff9e1a  ffffe59d
000010b5  ffffc386  ffffefa3  fffffd46  00001848
ffffef82  ffffbe53  ffffddf6  000000a7  00001702
ffffdcaf  ffffd76f  ffffe934  ffffe16e  00002886
ffffc22a  ffffe74e  ffffe239  ffffe0c8  00002400
ffffcb55  ffffde7c  ffffd36d  ffffdb5e  00001f1c
ffffc399  ffffd7c4  ffffe150  fffff107  000016c2
ffffb86e  ffffeea3  ffffd4f4  ffffc157  000029d0
ffff9fb4  ffffcde9  ffffb8a4  ffffbc13  00002100
ffffbf36  fffff490  ffffd1bc  ffffcc7b  ffffd308
ffffc80d  ffffdee7  ffffbe91  ffffe8c5  00000fd5
ffffd63d  ffffca74  ffffbfea  ffffdec9  ffffcc6c
ffffacac  ffffd903  fffff448  ffff8de5  0000064d
ffffc7bc  fffffdc7  ffffb052  ffffc0c0  00002212
ffffc4aa  ffffecb6  ffffb5e6  ffffe3b7  000018a4
fffff5c1  ffffbead  ffff92d2  fffffd02  000010bf
ffffcfe5  ffff9145  ffffb714  fffffaeb  ffffdfa1
ffff9b9b  ffffb2e5  00000469  00000f5b  ffffe837
ffffd949  ffffb407  fffffef2  00001379  ffffeac7
ffffcb4c  ffffd366  fffff1bb  ffffe2e9  fffff355
ffffcc3c  ffffd08f  ffffdde1  00000d7d  00000f4e
ffffc671  ffffce7a  ffffbfd8  ffffbb67  0000297f
ffffd1d4  ffffe880  ffffeb64  fffff347  000026fd
ffffb697  00000a24  ffffdac8  ffffe3a9  0000224a
ffffb4d0  00000dcf  ffffd6be  ffffd650  fffffc19
ffffa3b1  ffffe760  ffffba4e  ffffe48d  ffffe2a9
fffff1fe  fffff236  000006d3  0000226d  000017ce
fffffd57  ffffbc1b  ffffcf13  00002faa  000015d4
00001071  00002717  fffff0b2  000043c8  fffffd33
00000a20  000005e3  00001790  000021a0  000029cb
0000203b  0000449e  00000184  00004293  fffff82c
0000132e  00002c4d  0000588c  00002069  00003a54
000005fa  00003d28  00002ce9  000029b5  00005b59
fffffa02  00002da9  00000557  000029f4  fffff67d
ffffe77e  ffffffe5  fffffa7b  ffffe5e7  fffff6c8
0000749d  ffffed69  ffffe6b7  ffffed96  0000259a
00004bae  000000f0  00003d2b  00004b47  00001139
ffffdeb1  fffffeef  00008e36  0000033b  00001fe4
0000101b  00002687  000040ae  ffffd3bb  0000381f
ffffd7a8  ffffd26f  ffffca53  ffffb722  000062be
000042f7  ffffcb03  ffffd311  00006cd1  ffffe6da
00000d5d  ffffeb14  00003eed  00006a34  00000e24
ffffaeb8  ffff95db  00003a10  00008e95  fffff9f1
ffffd21e  ffffefe5  000029be  00004b33  ffffe773
ffffd3db  fffffb04  0000152e  0000467b  0000128b
00000510  ffffecb4  0000242d  00003b90  00001760
00002878  ffffecdd  ffff9bc6  ffffbb26  0000151d
0000145b  00003bea  fffff9e8  fffff67c  000028cb
00000e56  00003185  00001dde  00005534  00004478
ffffe26a  00006df1  00004a7a  ffffb51b  000024aa
00003c71  000063ef  000059d3  000063bd  ffffd82d
ffffa960  ffffeefa  ffffb733  ffff9c48  ffff94d5
ffffd0a2  ffffed7a  ffffceb0  ffffa041  ffffb0c5
fffff240  000012f9  ffffdefb  ffffe726  ffffa8e6
00000ce5  00000dce  ffffe126  fffff9fb  ffffb5c1
00000662  fffff7f8  ffffdfc2  000001f7  ffffc14d
00001860  fffff736  ffffdab8  ffffef75  ffffb1ad
00000ab4  fffff723  ffffe519  ffffe424  ffff9ace
ffffed54  ffff9d69  ffffef10  000007d5  ffffa83b
00000c87  ffffffd2  ffffee41  0000067e  ffffe5e4
fffffd32  00000ecd  ffffc98f  ffff98fd  ffffaa9d
000009f7  ffffe538  fffff2f1  ffffb63d  ffffb619
00000202  ffffc299  ffffa854  ffffd0e2  ffff9d7f
00000630  fffffec1  ffffacfd  ffffbe7a  ffff7812
0000060a  fffff02a  ffffb77a  ffffa66a  ffffa608
ffffdc77  ffffa2df  ffffb332  ffff9994  ffff7c49
ffffd11e  ffffd853  ffffed43  ffffd96f  ffffaf31
ffffec28  fffff8a0  000003d2  ffff974b  ffffa861
ffffbf73  fffff660  00000055  ffffca44  ffffb079
fffff40b  00002c30  ffffd3ac  ffffba56  ffffc5a6
fffffbbd  00001037  ffffbf18  fffffe7a  ffffd088
000008b8  ffffc8dc  ffffebcb  00001ba4  ffffba91
fffffd49  fffffde1  000009e4  ffffe67b  ffffa301
00000eb8  ffffbd83  000005f1  ffffc760  ffffb6fe
0000247b  ffffb5f1  ffffbbf7  ffffa87c  ffffaacd
ffffcb8c  ffffa149  ffffcb2d  ffffec7a  ffffed4e
fffff94a  00001f98  fffff5ed  fffff1ed  ffffd775
00001d40  00004f7b  00001217  00001659  ffffd844
00007f67  00009490  00004195  00001185  ffffdc51
00006dd7  000059e7  00002f54  fffff987  ffffe01d
00007b8b  00007e15  00002aaf  00006ff6  ffffabef
00005d89  000065b5  00002ce1  00002c57  ffffa5b7
00008a54  00002fc4  000003fb  00001490  ffffc27c
0000639f  00002d2a  00000632  000022f8  ffffd121
00007564  00007e6c  000025f1  ffffc744  ffffe369
00003c69  00003624  00001281  fffff622  ffffe3d8
00006bf5  00004dce  00001192  00005935  000024e4
00001937  000053d8  ffffb9a1  000051d0  00001de5
00008000  ffffd79e  00002eba  00009e00  ffffe3d7
00004722  fffffe1e  00007577  00001bac  0000074a
ffffff3a  000064b0  0000a760  ffffd6d0  0000195d
00001d24  0000a3e0  0000561c  ffffdf48  0000003b
0000392c  0000b0d6  000005d8  ffffc1ff  00002e82
000035d4  0000978e  fffff6f5  00003c9d  ffffe7cf
00003fd3  0000a41d  ffffe011  00004650  ffffe986
00004172  00009d23  00004d21  000014a8  ffffd0d7
00006de3  00006d5d  00003881  00002908  ffffc77a
0000a1bc  0000610e  00005566  00000cea  ffffc830
0000a884  00003621  00001d3a  fffffdd5  ffffe956
00005bc0  000043bc  ffffcdc0  ffffd095  ffffc321
0000208c  00002347  00001ad3  00001a12  00002988
ffffd3ea  ffffb17b  ffffaa77  ffffc083  ffffb68e
fffff1a6  ffff6e3f  fffff898  ffffdff2  000002fb
00000269  ffffaead  000000f9  ffffe3b1  0000106d
00000631  ffffc86e  fffff575  ffffc15d  00002198
00000da4  ffffa868  ffffdb36  ffffe156  00000c9e
ffffeb86  ffffbd00  ffffde92  ffffff07  00001ddc
fffffc23  ffffab43  ffffedfb  ffffbbcf  ffffce68
ffffe774  ffffc49a  ffffe201  fffffd05  000011bf
ffffe659  ffffd31b  0000201a  0000131b  0000535e
fffff992  ffffc029  00001348  ffffbc9e  fffff4a0
0000256a  ffffacef  ffffacec  ffffd300  ffffb938
0000200d  ffff897a  ffff8b27  ffffd4de  ffffabe3
fffff0b2  ffffa72e  00001155  ffff8a3c  ffffff69
ffffbe75  ffff9a12  ffffc2ed  ffff691f  00000395
ffffb40b  ffffa969  ffffabe9  ffff7a41  ffffe505
ffffb9c0  ffff98bd  ffff5f59  ffffd94d  ffffcb1a
ffffcfdc  ffff84f8  ffff6b83  00000ee3  ffffbe72
ffffcf96  ffffad94  ffffc033  ffffe15d  fffffcaf
ffffebc8  ffff79e2  ffffdff6  ffffb7bc  00001058
ffffdaee  ffffb8a0  ffffc792  ffffde53  00002b8c
ffffe4f7  ffffc1b3  fffffe60  fffff281  00000f7d
fffffe52  ffffa15f  ffffccc1  fffff990  00002337
ffffe08e  ffffa839  fffff3e4  ffffecb2  00001572
fffffe41  ffffde8e  fffff582  ffffc700  0000305a
000005ac  00000eab  00001e67  000021a5  00001795
00009de0  000050e0  000030a7  00003813  00002acf
00007766  0000915d  00005287  00005fe6  0000038b
00003464  00008b49  000044ae  00004aba  000017f8
00002e78  00002930  000068c1  00001f70  00000064
00002e41  0000523b  00003f4e  0000782c  ffffc40f
00001bd9  00003c85  0000626b  00000aa4  0000020b
00003e31  00002b04  00004d9b  00002620  00002e2b
00003ac1  000065bf  00002286  00003ed3  000035e9
00004a2c  00006493  00005c49  ffffeb38  000010f7
00002845  00005b59  000014ef  00004c2b  000022ed
00002866  000058c7  00004314  00001e91  00004e43
00001dd6  00003fac  00003e17  00007154  00005337
00004438  fffff9c9  00005cfd  0000755c  0000534c
000046be  00001dae  00007034  0000451c  0000653c
00003780  0000a2a5  000094b5  00004f20  00005b01
000046ac  0000ab62  0000955f  00004473  00003648
000020bd  000083a2  000042ea  0000702f  00003aeb
00007b99  00005d48  0000542e  0000528d  00004318
00004374  00004851  00004e44  00005f25  000037a6
00004414  000054db  00007d37  0000523f  00001269
00005773  000055c9  00002a97  00007138  fffffc68
00002850  00004e85  000063c2  000033c5  00000e7c
00003328  00005a4f  000039f5  00003698  00002e99
00001109  00004347  0000486e  00005249  fffff011
000046f9  000011a5  000014db  fffff9dd  00002cf1
ffffafff  ffffae78  ffff9fe9  ffff8a16  fffffe90
ffffed7d  fffff618  ffffaa42  ffffa64f  ffffe6aa
ffffd0de  00000c09  ffffc763  ffffefcf  fffffa66
ffffe829  fffff40a  ffffd63d  ffffe56a  ffffff30
fffffd76  00000320  ffffc2bf  ffffda4b  fffff501
ffffd1b2  ffffdbed  ffffd99c  ffff89c3  fffff336
ffffcddc  fffffe8a  ffffc8d1  ffffde26  00003c91
0000053a  00003aeb  ffffe57d  ffffbc67  ffffd9cb
fffff64e  ffffe7ef  ffffd341  ffffc6dd  fffff6c9
00000210  ffffd1ea  ffffe136  00002450  000008b8
ffffd32a  ffff999c  000001c0  ffffd43c  00001f6c
ffffc61e  fffff9d7  fffff3dc  ffffa7f8  fffff429
ffffeda4  ffffde48  ffffff0d  ffffb861  ffffd4ca
ffffd2e6  00000ee2  ffffc158  ffffaf2d  0000162d
ffffd6c6  ffffde5e  ffffd049  fffff23b  00000415
fffff004  000021b6  000008de  ffffce5c  000012f4
ffffe957  00000de7  fffff9f2  ffffe55f  00000b69
ffffe22d  ffffe3e3  ffffd6e4  ffffb41c  ffffd2ed
ffffb9c4  ffffe050  ffffde2c  ffffba6d  0000004d
ffffdc21  00001cae  ffffe928  ffffb711  fffffa3d
ffffea12  00003064  ffffd414  fffffeea  ffffee83
ffffe387  ffffff1e  ffffe829  ffffc9ab  fffff194
000003de  ffffe745  ffffd16e  ffffe74a  0000036f
ffffc825  ffffd14c  ffffcc07  ffffe200  fffffba3
fffff130  0000140b  ffffecdc  00001ca2  fffff26d
0000200f  ffff9fd3  ffff9b7b  ffffc0a5  ffffd044
fffff66b  ffff81b3  ffffe70c  00003ced  000012aa
ffffced3  ffffc2db  ffffe278  000026ae  000016f8
ffffa93d  ffffcf40  fffff39a  ffffed04  00001714
ffffb2b2  ffffd6f1  ffffcf44  000052a7  0000067b
ffff90aa  ffffd356  ffffdcbb  00001108  00000d56
ffff81a8  ffffb76d  ffffd953  ffffdcb8  0000089c
ffff8d27  ffffec29  ffff8327  00000415  000006f9
ffffa7c7  ffffea78  ffffb9a1  00001479  ffffd444
ffffae13  ffffac02  ffffb60f  ffffd5c6  00000c5a
ffffe2ca  ffffc5b2  ffffaa6b  ffffe512  fffffc0a
ffffb027  fffff67a  ffffc42f  ffffb8eb  fffffbc2
ffffb9d6  ffffdd0f  ffff8561  00000fc9  ffffce19
fffff4ce  fffff45b  ffffd7e5  fffff425  ffffbc43
00000798  ffffbf5d  ffffb175  fffff3d9  0000018f
ffffd3af  ffff76cd  ffffacaa  ffffc710  00000a9b
ffff9d69  ffff5590  000009d6  fffff4f7  ffffb698
fffff92a  ffff8ddf  ffffe943  00001fd1  ffffbf5b
ffffe3b3  ffff95b8  ffffe37c  ffffec68  ffffd0ca
ffffa61f  ffffc343  ffff9a53  ffffe557  0000053e
ffff8658  ffffd61d  ffffa8b0  00001471  00001c1d
ffff9fe4  ffffe747  ffffe075  00004a13  00002686
ffff9a61  00002258  ffffc70d  00003002  00003908
ffff956b  0000515e  ffffa66f  00002504  ffffd7c6
ffff56bc  ffffd03f  ffffc113  00002b9e  ffffef51
ffffce02  ffffbf5a  ffff9c0b  ffffe59a  0000073e
ffffb426  ffff8650  ffffc300  ffffc6c4  ffffe810
ffffa9c5  ffff8b97  ffffccb7  ffffe687  fffffbb0
ffffb20d  ffffc378  ffffd1b0  ffffc533  ffffdfff
ffffbd75  ffffa1bc  ffff9d74  ffffedc2  fffff698
ffffab86  ffffd6a7  ffffcaf8  ffffbb4c  ffffe4ec
ffff9bc4  ffffc4d8  ffffb7fb  ffffe2bb  fffffff8
ffffae0e  ffffcdb2  ffffda46  ffffbba4  ffffe8ca
ffffacc6  ffffd0d8  ffffd47b  fffffea7  ffffcc46
ffffaf91  ffffa2d1  ffffceef  ffffec50  00002b8d
ffffd071  fffff1c5  ffffbc18  ffff9fa7  fffffcdd
ffffcab9  00002c61  ffff99e4  ffffb56b  ffffa086
00003607  ffffcda7  ffffb362  ffffae25  ffffb8d3
fffff388  ffff8c23  000018d1  ffffb60a  fffff55b
fffffcf4  ffffc4a0  ffffa1af  ffff7d38  00002245
ffffcfed  ffffa884  ffff9a7a  ffff731c  fffff460
ffff9084  ffffa777  ffff9a9b  ffffb60a  ffffb2c9
ffffdd22  ffff7089  ffff9ff8  ffffb6f0  ffffa73d
ffffc1ad  ffff769e  ffffc5c1  ffffc06c  ffffdd3f
ffffacbb  ffffc9ae  ffffdda5  ffffc38b  ffffe00e
ffffa655  ffffa159  ffffb20b  ffffd126  fffff6a8
ffffc03c  ffffbdc9  ffffbd19  ffffa357  000001bd
ffffec3d  ffffb0fb  ffffa3d7  ffffe6d8  00000cde
ffffbb97  ffffb15b  ffffb6c9  fffff1ea  fffff47f
ffffd344  ffffd13a  ffffdea0  000008ac  fffff4f7
0000178e  ffffdaab  ffffd44f  fffff2ee  ffffeb47
000001c8  000034a6  fffffc3b  00001963  fffff6bd
000010b9  ffffef5f  fffff9a3  ffffd7a7  ffffd7ab
fffffadb  ffffd7f7  00000481  fffffd78  000003eb
fffff628  ffffdb78  fffff752  ffffd97b  fffff4ea
000005c0  ffffaf90  0000023d  00000686  ffffc9b3
0000102f  ffffc485  ffffbbf2  ffffb518  ffffb563
ffffe383  ffffcacb  ffffe7a0  ffffb8af  ffffebae
00002974  000012f5  00002504  ffffb386  ffffd3bd
000008d7  00001e6d  ffffec45  ffffad6d  ffffb37d
00001925  ffffe6e4  ffffb0b0  ffffc8f0  ffffe4a1
ffffee18  ffff944b  ffff3d68  ffffa91f  0000249d
000001f7  ffffbfe2  ffffbb3a  00001c41  0000243c
00000f86  ffffc2c2  ffffd244  00002fb2  ffffb13c
ffffd962  ffffe8bc  ffffe1e9  ffffd415  ffffc589
000007f9  000000a0  ffffee18  ffffb633  00000ac3
00000fd4  00006570  00001f01  ffffce0e  00005d14
000043fa  00001d0e  ffffd1eb  ffffdbf0  00003b93
00001c26  ffffe72c  ffffba88  ffffff98  ffffec00
00000329  fffff5e8  00001057  00002715  ffffe852
00001735  0000026f  00000236  fffff4c9  ffffe6c8
00001157  ffffae8e  00000328  000027f2  ffffcbf2
00000e77  ffffafd7  ffffdc59  ffffaeef  ffffccba
ffffedca  ffffee92  ffffc55a  ffffc179  ffffeff1
fffff704  ffffd38e  fffff9ef  fffff299  ffffe1f4
ffffda71  ffffe5dd  00000678  ffffeba5  ffffec8f
00000d00  ffffe59a  fffff93d  000014cd  00001774
fffff5fb  ffffad8e  ffffeee7  ffffed71  0000021b
ffffea98  ffffc3bd  fffffb38  fffff00b  00001377
ffffd48e  ffff8aa7  fffff6f1  ffffec7c  00000ff7
ffffd3d4  ffffb806  ffffd28d  000008c6  ffffeecb
00001334  ffffcf4d  fffff808  fffff0d2  fffff4bd
00000702  fffff2ad  ffffcfe1  ffffef9d  ffffe014
ffffff0f  ffffb5c9  ffffe0ba  000002c9  ffffe992
ffffe711  ffffd771  ffffef6d  000023cc  ffffcd90
ffffee36  ffffdeef  ffffaa04  ffffae0d  ffffe926
ffffd770  ffffd703  ffffc2e5  ffff8e2b  ffffdae1
ffffce0e  ffffd5ce  ffffb2fc  ffffde2c  ffffe247
ffffecf0  ffffba88  ffffbf7d  fffff8db  ffffb20c
000002da  ffffd852  ffffcdc4  ffffe47e  ffffe9c4
fffffb26  fffff149  ffffe49a  ffffa794  ffffe6cf
00000b7a  ffffc8ca  ffffe7c3  00000c21  00000570
fffff341  ffffddc9  00000592  000006a5  00000bdc
ffffe9d2  ffffb03f  ffffffc2  ffffe880  fffffe69
00000d47  ffffce1f  ffffe128  ffffc95b  00000fa6
fffffdd7  ffffd178  000010a0  00002636  00001138
ffffefc1  ffffae27  ffffc638  0000256e  ffffe444
ffffaae0  fffff164  ffffe77e  ffffdd3f  ffffb685
ffffed6e  ffffdfbd  ffffa68b  ffffea2e  ffffeccc
000021d2  ffffe69d  ffffd01f  0000243a  fffffa7a
000007e8  ffffdcd3  ffffcf7c  00000004  00000339
00001605  ffffebe1  ffffc756  00000275  ffffc61b
00000cf4  0000295f  ffffe70d  ffffe6e6  ffffdab5
fffffbe3  00001af5  fffff7ae  ffffe6ef  ffffcbbf
fffff83a  00000fd3  ffffee41  fffff606  ffffbaf5
fffffbb1  00001119  ffffd32c  fffff395  ffffc69a
fffffdee  000007b8  000007b5  000011f1  ffffe784
0000054c  000058f3  ffffcf28  ffffcbc1  ffffeb71
ffffe820  00002c27  0000175b  ffffe6af  ffffc328
00000c9c  ffffeb9f  00004025  ffffe9e9  ffff9461
00002b85  00001101  ffffffab  ffffcae2  ffffd4ea
00001d89  00001fae  fffffada  ffffc357  fffffcf9
ffffffff  00001605  ffff76a9  00002a7c  0000236e
fffff40e  ffffea4e  ffffb927  000037f8  ffff8fcc
00001eec  ffffb8cb  000017eb  0000495b  ffff7618
00000524  fffff495  00003b21  00002206  ffffd015
00000b2d  00000a96  00002c88  ffff9ac7  ffffffa3
fffffb90  000011b0  ffffd96d  ffffc150  ffffe801
fffffd27  00001319  ffffdce5  00000a3a  ffffd496
fffff7c2  000012cc  00000f57  ffffe5da  ffffdc48
ffffd886  00003bf1  0000038a  fffff2d6  ffffcb69
ffffe691  0000365d  ffffe3ec  000008d0  ffffb8c4
fffff23d  000045ba  fffff73f  ffffe8ed  ffffda74
00000c70  00001195  ffffe64f  00000466  000005c7
fffffcf3  fffffa3c  00004010  00000a19  ffffc978
ffffc078  ffffc1be  ffffa65f  ffffffde  fffffa77
fffffbf9  ffff609a  ffff9edd  ffffbde8  ffffaf49
ffffe810  ffff92f0  ffffbd38  ffffcd0b  ffffcbd2
ffffe11b  ffff9f3f  ffffc066  ffffefa7  ffffc12a
ffffe1a1  ffffb097  ffffd7bf  ffffe10b  ffffc361
ffffc7d2  ffff9a4e  ffffea7b  ffffb99c  ffffc237
ffffdb66  ffffa9f6  ffffe844  ffffda8b  fffffab6
000005d2  ffffa01c  ffffc6eb  ffffb484  ffffb98e
fffff0ac  ffffa1f5  ffff9660  ffffacf6  ffffa8b1
ffffd5d4  ffff68aa  ffff5e2a  ffffdd36  ffffeca6
ffffd273  ffff866c  ffffa4e3  ffffbab8  ffffbcb4
ffffcb97  ffffd15d  0000109a  ffffaca6  ffff8666
fffff211  ffffaade  ffffd099  ffff5ec5  ffffa286
ffffa61e  ffffa5c7  ffffa828  ffff467f  fffff071
ffffbf6b  fffff0ae  ffffa8bf  ffffbd13  00000931
ffffafbe  000006e3  ffffc011  ffffccfe  ffff8fb5
ffffabca  ffff8fbf  ffffade8  ffffe98b  ffff81e3
ffffcedf  ffff90db  ffffcbfb  ffffabec  ffff6a29
ffffbed4  ffffb9f4  ffffb9ec  ffffafe2  ffffad2e
fffff41c  ffffa35c  ffffc82f  ffffc252  ffffbc9b
fffff354  ffff8871  ffffd2c4  ffffcf8c  ffffd8fe
ffffe497  ffffac0a  ffffe7c2  ffffbef2  ffffddc8
ffffce52  ffffd185  ffffd290  ffffc323  ffffc788
ffffd15b  ffffc3e8  ffffb010  ffff78d3  ffff9814
00000d62  ffffbd93  ffff9028  ffff95d6  ffffe167
ffffea13  ffffac95  ffffd0ce  ffffa988  ffffe571
00000c07  ffffa434  ffffbd3f  ffffd161  ffffe32b
ffffd318  ffffe251  ffffd3dd  ffffd120  fffff634
ffffcd3b  ffffe68f  ffffd9f2  ffffc0fd  00000eed
ffffe41a  ffffd457  ffffd2f8  ffffe33b  000011c7
ffffbd43  ffffcc4c  ffffd7cb  ffffc5a4  ffffeab8
ffffb1a1  ffffde13  fffff74d  ffffa517  00002bc8
ffffc99f  00001289  ffffae73  fffff522  ffffeba5
ffffc837  ffffc45d  ffffb48d  ffffb8b9  ffffd2aa
ffffe4ea  ffffaf6d  ffff9ed6  ffffd870  ffffc2df
ffffd166  ffff7370  ffffb958  ffffab50  ffffbf8e
ffff9689  ffffb5fb  ffffcdaf  ffff6fb2  fffff37e
ffff8757  ffffb571  ffff7ff9  ffffc3e9  ffffe4f6
ffff9a0e  ffffcf6a  ffff8aca  ffffa61f  ffffc4c8
ffffebab  ffffda49  ffff7fc4  ffffbe77  ffffdd5c
ffffc49d  fffff0e5  ffff799d  ffffdf8e  ffffdd18
ffffb7c2  ffffa200  ffffdc34  ffffe0d9  ffffbc1d
ffffd54b  ffffb247  ffffca4d  ffffc3ba  ffffb8d1
ffffc18a  ffffc456  ffffc04a  ffffb381  ffffd001
ffffd879  ffffc14d  ffffbc03  ffffd2c8  ffffff96
ffffc9b8  ffffdd80  ffffe53a  ffffd941  000005f4
ffffdf6e  ffffccb9  fffffd02  ffffdba5  ffffee15
ffffafec  fffff717  ffffc076  ffffcff2  fffffe47
ffffd32b  000021fc  ffff8512  ffffc3fc  ffffd59a
ffffafb1  ffffb253  ffff933a  ffffde78  ffffe348
00002bd7  000043fb  ffffdb26  0000294b  00000ea6
00002c9f  ffffcd5a  fffff974  00000b2d  00002467
fffff85f  ffffe146  ffffe095  000005fe  00000905
ffffdc75  ffffe112  fffffbcc  fffffecb  000018fe
ffffccf6  00000aaa  fffff0ef  ffffff83  00003404
fffff809  ffffff73  0000027e  0000128a  000034eb
ffffd179  ffffbb06  00003142  ffffe48b  00001dbf
ffffc28c  fffff0d7  0000052e  00001e7e  00001044
0000055c  fffff941  ffffc214  00000854  00004fe0
ffffd1cc  ffff77ae  ffff8150  ffffa7f9  000022ff
ffffcc40  0000034c  ffffd0ef  ffffb549  00000c83
ffffc8a7  ffffdd62  fffff140  fffffbe3  fffff41a
00002547  ffffdda7  00000d8e  ffffd855  ffffebf9
00000f83  ffff91dc  0000075d  ffff8db8  00004803
ffffd010  00001480  ffffc68e  ffff8cad  0000158d
ffffa378  0000559f  00000eba  0000052f  000035aa
ffffdc71  000001d9  ffffb294  00004398  00001a0c
00005df2  ffffeb9f  ffffa246  0000339d  ffffe15d
00000ad6  ffffe7d6  ffff9872  00002b16  fffff585
ffffe218  ffffbd65  ffffdd7b  000044af  00001b92
ffffde95  ffffc3b5  00001bc5  ffffd75c  00002a1f
ffffd7e8  00000514  0000537c  ffffecdf  00001e4b
000007b3  ffffe225  fffffa3a  ffffd3f6  00003209
0000199c  00002829  ffffa5a5  ffffaa28  000002d1
00001be4  ffff6277  ffffa143  ffffc740  ffffc58c
fffff05f  ffffe926  fffffc74  ffffda1e  ffffbdd5
ffffe42e  000072ec  ffffeeaf  fffff26f  ffffd9b7
ffffe240  00000206  ffffbc8a  ffffdd43  ffffc0c4
ffffd923  fffff411  ffffd296  ffffd5ea  ffffaaa6
ffffd5e4  ffffea19  ffffd09c  ffffd816  ffffcd50
fffff00b  00000731  ffffd989  fffff4b2  ffffa3dc
ffffdf7a  00001abe  ffffcdb2  0000018f  ffffd005
ffffccb4  00000e53  fffffecd  ffffeee3  ffffc621
ffffd43e  000004b2  ffffa375  0000165c  ffffcbcb
ffffe62f  00000db9  0000103e  00003e4e  ffffdd0d
ffffcb6f  fffffb90  00005d8c  fffff067  fffffa66
ffffd4da  00003fdd  000041db  ffffcf2b  ffffdbed
ffffd22a  0000560c  ffffdcca  00000ece  ffffed93
00005225  00005ae9  00000903  00003b54  ffffe08d
000060c9  000032ad  ffffcd0e  ffffff46  ffffdbc1
00005316  fffff806  00002a2a  ffffeaf8  00000fcd
00003e06  00002952  00006ec8  ffffd15b  ffffeebe
00003255  00000566  000007ae  ffffdc5f  0000076e
000008fb  fffff0c5  ffffe6a5  00001d63  fffff05f
ffffe747  ffffe2e1  ffffdf10  fffffde5  ffffcf7b
ffffd886  fffff6a3  ffffc576  ffffe2ed  ffffb41f
ffffccce  fffff017  ffffd3c3  ffffecfa  ffffa0b2
fffff5b7  ffffe574  ffffd7f0  ffffeb59  ffffbbd9
fffff761  ffffe84c  ffffc8b2  fffff81b  ffffe63f
00000cf8  ffffb857  fffff0b3  000027d4  ffffcc5e
ffffb422  ffffce14  ffffe53d  ffffba42  ffffffca
ffffb63b  ffffbac1  ffffed67  ffffe59c  00001fb1
ffffae75  ffffdb3b  ffffdd7e  ffffee07  00000581
ffffa7bc  ffffe38e  fffff442  ffffc272  ffffd98f
ffff9525  ffffd6a0  ffffaab7  ffffc098  ffffff5e
ffffb3e9  ffffe205  ffffc340  ffffbf13  00000f42
ffffb9d3  ffffdf33  ffffdc56  ffffe844  00003d1e
ffffa772  00000ae7  ffffdf4a  ffffccd6  fffff8c4
ffffa38b  ffffa495  ffffe271  ffffdf68  ffffed55
ffffc449  ffffb608  ffffd95b  00001e0f  ffffee33
ffffb8d6  ffffc36c  ffffa881  ffff9077  fffffa4d
ffffa1d9  ffff66db  ffffde29  ffff96b7  ffffd386
ffff8ecd  ffffaec9  ffffe423  ffffaa08  fffff240
ffff8c70  ffffcaec  ffffba78  ffff9bd3  000018d4
ffffb3a8  ffffcc2b  ffff7f40  ffffbdbc  ffffddc0
ffff9eea  ffff862b  ffffbd51  ffffc731  000003f0
ffffa461  ffff7bfa  ffffc934  00002d16  ffffda80
ffffa59a  ffffcd3f  ffffeaf4  00002090  fffff93d
ffff8ac7  ffffb5ae  ffffd1bf  ffffee7c  fffffc83
ffffa150  ffffc67d  ffffd5d1  ffffc8a9  fffffd71
ffffab9c  ffffe1f4  ffffbae4  ffffd5fe  0000101e
ffff7a86  fffff01d  ffffc297  ffffd0b2  fffffd36
ffff7586  ffffd014  ffffffe4  0000004d  00000b67
ffffa4c5  ffffcd2a  ffffd35b  ffffd41c  00000949
ffffe445  000022e3  ffffe42e  fffffd76  ffffe80a
ffffe63e  ffffb82c  ffffc51e  ffffa7e3  ffffb4e9
ffff9ae9  ffffcb94  ffffe7ab  ffffcf1f  ffffce57
ffffc2bd  ffffcd0c  ffffd468  ffffcd23  ffffe33a
ffffb009  ffffe032  ffffd8e7  ffff78cd  ffffc9b9
ffffb3ec  ffffc281  ffffd8d9  ffff8569  ffffdbed
ffffbcf4  ffffc624  ffffe6df  ffff8fd5  ffffb24c
ffffc7ae  fffffc3e  ffff8fd6  ffffa2c1  ffff9697
ffff632c  ffffd856  ffffe50a  ffffd342  fffff1a6
ffff96a4  ffffd883  ffffcfc5  ffffd3b0  ffffdba2
ffffaff7  ffff8796  ffffb652  ffff99a6  000002e1
ffffd2a0  ffff948d  ffffabdf  ffff6247  ffff86f4
ffff8d99  ffff9774  ffffaf73  ffff7b48  ffff90cc
ffff3368  ffffd664  ffffd51c  ffff288e  000020e5
ffff0efc  ffffb742  ffff597c  ffff5079  ffffdc14
ffff955e  ffffbd93  ffff5203  ffffa64c  ffff7e49
ffffa665  ffff9197  ffff4051  ffffa1f4  ffff8f2e
ffff9376  ffffae7c  ffff8fd2  ffffa7b7  ffff53d3
ffff9567  ffff849d  ffff9e90  ffffb0d7  ffff9148
ffffb411  ffff8d21  ffffd53b  ffffb438  ffffa115
ffff7b85  ffffb2e0  fffff377  ffffe3aa  ffffd578
ffff9405  fffff2e0  ffffffa0  ffffc1de  ffffc658
ffffabe0  ffffd2ff  ffffcdbd  ffffaa8d  ffffc0b9
ffff9c50  ffffa21f  ffff8ba4  ffffa253  ffffe7d2
ffff918b  ffff8a5d  ffffbfdf  ffff68d7  00001cd4
ffffb56e  ffff5b7f  ffffa3d4  ffffe3d4  fffffb4a
0000179d  000010e2  0000026e  fffff4d6  ffffd731
00002c05  00005be4  ffffe76f  00000c6e  00001fd9
0000379a  00006044  000003d3  fffffa96  00000450
00002758  00004913  000012b5  ffffd51c  ffffd271
00002b3c  00006524  fffffdb2  0000086c  ffffec66
000005d9  0000879c  fffffcda  0000117c  fffff648
0000087c  00001767  fffff4be  00000058  00000a9a
00003079  0000251f  00001382  ffffec7e  ffffe67d
00001df7  0000218c  000021df  ffffdc5b  ffffe71e
ffffe737  00006b2e  ffffe75d  ffff7a60  ffffc487
fffff5b6  00006bdb  ffffc512  ffffd408  0000256d
00002e65  00001ced  ffffb2da  000053be  00002fc9
00003d29  fffffe67  ffffa8bf  000094a7  ffffe0d8
00000804  fffffe08  000033f9  ffffd8b8  ffff9c7d
ffffa3ff  00001c87  0000722e  fffff091  00001a2c
ffffd969  00002595  00001e32  fffffedd  00003aad
00000e21  000067a4  ffffbbfd  ffffebed  0000211a
00003b2a  00008b49  fffff596  00001063  000022a1
000021bb  00008e9a  ffffb485  0000120c  00001264
000008d2  0000544a  ffffd783  ffffdf93  000001fd
00000674  00005f20  00001a8b  ffffee8f  00000c21
00001d0c  0000526c  00001dd1  fffffb5c  ffffef4e
00003f09  0000777c  00003c8a  ffffdf83  ffffe33e
000029dd  00005b6d  00000189  fffffac3  ffffeb12
ffffef58  000062bd  fffff3a4  ffffd06a  000002dd
ffffd46a  ffffccf9  ffffbf95  ffffeb80  ffffa818
fffffef0  0000197f  00002008  000053da  ffffe4d2
ffffc25d  fffff5c1  000007e3  000010b9  ffffe132
ffffcdfd  ffffff47  00000e44  ffffdf56  ffffa118
ffffd9fe  ffffc40d  fffff214  0000171f  ffffc56e
ffffcc7d  fffffe78  ffffd564  000025a1  ffffd0b2
ffffc4d4  ffffefc3  ffffc9de  000015bd  ffff8965
ffffc877  ffffe86b  ffffdbf1  fffffdad  ffffc8cd
ffffec65  ffffe009  fffff526  ffffe1af  ffffc865
ffff8ddc  ffffa1b3  000000ab  fffff0f2  ffffb3d4
ffffad9d  ffffdec5  ffffa8cd  ffff9cd9  ffffcc3e
ffff9f9a  ffffaf69  ffff8794  ffff9d87  ffff9b10
fffff7da  ffffbdcd  ffffef7c  fffff9dd  ffffd693
00000805  fffff9d2  00002ab1  ffffe341  fffff174
ffffca2a  000009b4  ffffd5e6  ffffc319  ffffddcc
ffffb37e  ffffd742  ffffbf24  ffffd48c  ffffc375
00001e2f  ffffba45  fffff4cc  000004b9  ffffa47a
00004add  0000094b  000067d4  00001f69  000007d5
ffffe2c2  fffff958  000033b6  00001e3f  000004d7
ffffce88  fffff770  ffffe3f4  00000aac  ffffe542
ffffd4c6  ffffeb5a  fffff484  00004ab7  ffffc370
ffffdba5  00002dad  fffffee3  00002324  ffffc8e5
ffffd66c  00003028  ffffeec6  000010b5  ffffb68e
ffffe447  fffff0f5  ffffd276  fffffa05  ffffb967
ffff8ba3  ffffbefe  ffffc838  ffffe743  00001e2c
ffffbd3f  ffffc70a  00000d0b  ffff87b2  ffffe1af
ffffc247  ffffb0a2  ffffc7bc  ffff9588  00000164
ffffc7b6  ffffacd6  00000067  ffffeb32  fffffa5f
ffffc7c4  ffffc3e9  ffffff3e  fffffc2c  00000fd8
ffffcb72  ffffb39f  ffffb432  fffffdd9  ffffee97
ffffb26b  ffffbbd3  fffffa90  fffff2d7  0000222c
ffffc181  ffffeb36  ffffeda2  ffffd275  00001ccc
ffffb96d  ffffabb5  00003a0e  00000177  00000211
ffffaf6a  ffff9c59  ffffe8db  fffff67d  00000951
fffff970  ffffa5d5  ffff8e10  00004228  00001865
ffffc7ed  ffff90c9  ffffc736  00001840  ffffea53
ffff8cdf  ffff8e9e  000006e7  ffffd4b8  ffffe07d
ffff9771  00000ecf  fffff3dd  ffff6fee  ffffeb2d
ffffbfa0  ffffdcb8  ffff91e4  ffff9493  00001c3d
fffff1a9  ffffbaec  ffff80ba  fffff9d5  fffffdb4
ffffd89f  ffffcf6d  ffff9355  0000091c  00001a9e
ffffd53a  ffff7ba2  fffff2ab  0000026c  0000018e
ffffa96b  ffffc93a  ffffef3e  ffff90f5  ffffd82b
ffff807d  ffffc442  fffffc2a  ffffbfb8  ffffdf43
ffffa939  ffffa0f6  00000a5b  fffff593  00000b58
ffffd6de  ffffa3e4  ffffbe27  ffffe8a5  0000025c
ffffc177  ffff9853  fffff7f7  ffffec11  00001b6b
ffffb40a  ffff86e2  ffffcd7e  0000196d  000016dd
ffffd88a  ffffcacf  000004dc  00000185  0000184a
ffffe81b  ffffebaf  ffffcb56  00001f05  00000698
00001758  00003e85  00000d95  000035d1  0000304d
000051d1  0000b33c  0000101d  ffffdcc9  00001a68
0000807c  0000a604  00001728  00003448  0000125b
00007194  00007301  00000b91  0000311b  00002181
00007f5a  0000aecc  000044f0  000023c0  00004180
0000895a  00009848  00002482  0000674f  0000401d
00007cca  00007e06  000026d2  ffffeabf  00003faf
00004fbc  00003bf1  000067fd  00004b35  000000ea
00005a03  00005f9a  00001ae3  fffff9b9  00001ed8
00006e91  00009f93  0000384b  ffffecde  00002501
00004ec7  00007f71  00002e27  00008216  00002126
00006b17  00005c22  00006a51  00009b0e  000089cc
00004e08  0000260c  000065f9  000060a8  ffffdea8
00002745  000039e6  000065d5  fffff2b7  ffffdf74
0000046e  00005958  00007b53  ffffc363  00002459
00001345  000095a0  00006a71  000044c9  00007218
00003a6e  0000c1d5  fffff3df  00005025  000083e8
000004ce  0000876f  fffff2f8  00007007  00001037
00005acc  000089a4  fffffed9  000045a1  fffffee6
0000510b  0000611c  00001a89  000046d9  00003036
00005d76  00006453  00004e9e  ffffd331  00003afc
00007e6f  0000750d  00006f88  00002dae  000028a5
0000a9d0  00003ea0  00004b21  ffffff5c  00001c2a
00007f70  00004cb4  0000265c  fffff9ba  fffff7d8
00002829  00002e80  fffffca4  ffffeb49  ffffcdd6
00000081  000016ab  0000306c  00001555  fffffeaf
fffffc56  ffff62b4  00001400  fffffe9e  00003306
ffffd90a  ffff7381  ffffffd4  fffffb31  00001116
ffffe64e  ffffb511  fffff374  00002753  000012c3
ffffd51d  ffffae97  000032d9  ffffc6ad  00002170
00000f38  ffffc198  000026f0  0000150d  000055a4
ffffc15f  ffffb235  ffffebb1  00006b22  000019b5
ffffbfbd  fffff0f2  ffffe7a2  00001094  0000096f
00000425  ffff62ff  ffffcfd8  000044a6  000045b6
ffffd957  ffff684e  ffffee4e  00001a9a  fffff46e
ffffe0ed  ffffc257  00001eb0  00001dae  000004d1
fffffc02  ffffc35e  0000338b  ffffe178  ffffe264
ffffd18d  000033c1  00004679  ffff9733  fffff68d
fffffee7  fffffeb2  ffff8bdb  ffffd7f7  00007293
fffff28b  ffffc24f  ffffa9e6  00001f74  000006a1
00003e3f  ffffb35a  ffffdf79  ffffdad2  0000115b
fffffe80  ffff89cd  fffff067  00002859  ffffee3b
00000243  ffff9bc2  00003ba4  000009d0  ffffee33
ffffefd8  ffff98e9  0000255c  00000fe7  00000d0c
0000019c  ffff86ae  fffff726  000000d0  000018b5
ffffc1ea  ffffafb6  000015bb  ffffe381  000014fc
ffffcb7d  ffffbc4a  ffffd614  fffff913  000034af
ffffb6ce  ffffbbd3  ffffc54c  0000589e  00002ea4
ffffe9b1  ffffb13b  ffffe4ea  000001de  0000421d
00000379  000017c9  00006154  00006433  00000970
ffffbbc5  ffffd869  ffffb6cc  ffffe9f5  00001595
ffffecae  00003d7d  ffffaeef  ffff9cf2  fffffde1
fffffec1  00005aa3  ffffaf60  ffffc8fc  000003f0
fffffb1b  00002093  ffffbc45  ffffd5f3  0000114b
000015f0  00002f31  ffffc962  ffffe25b  000014a6
fffff0cd  00003fc2  ffffd557  fffff2ee  ffffda85
fffff797  00001948  ffffc639  ffffd511  00001b51
fffff7cc  00002166  ffffb8e3  ffffc96e  fffff21e
ffffe13a  0000040a  ffffbf5c  fffff6eb  ffffbef7
00002ec6  000038c2  ffffe845  00003bf8  fffff7b9
00000797  ffffce22  000035e4  000037d6  00002ac2
000001ef  000010e6  00005a34  00000f52  0000150d
ffffe6ba  00003a60  00001759  ffffb40b  ffffea66
ffffdcc4  00004b06  0000043e  00000a20  fffff92e
00005f25  000020db  ffffb6db  00005f39  00002d81
00005260  ffffec5f  ffffe76d  00001fd3  000043ae
ffffeb50  00001117  00001dc2  ffffd3df  00000bce
ffffc144  000017fd  00001435  ffffa1cc  ffffeb48
ffffb905  00002430  fffffe38  ffffd316  fffff395
fffffca9  00000218  ffffd843  ffffe7a2  fffff6bf
00000ca3  ffffea07  ffffb332  ffffc201  000005dd
00002103  00000434  ffffeac9  ffffc286  ffffef65
fffff0ef  000005ac  00001ec6  ffffebc9  fffffabf
ffffe2ae  00003239  ffffea07  ffffbdbc  ffffdf60
00000229  000056c7  ffffe6a8  00001eac  ffffc834
ffffea49  00005500  000016f2  000049be  0000277a
ffffc02e  00009078  000023d9  0000794e  00003be2
ffffb5dc  00004b07  fffffddd  00007410  00001738
ffffc167  000051fd  0000252b  00005823  00000b8d
ffffc2a3  0000509e  0000019d  00004e19  ffffef03
ffffaabd  00004156  000015c3  00001ee8  fffff5a0
ffffc6b4  00006617  ffffe02a  000025a8  fffffd64
ffffc11c  fffff208  fffff64c  000073dc  ffffef0b
ffffd1e9  00004b67  0000183e  0000160c  ffffa6ca
ffffcc95  ffffff5a  ffff9cd1  ffffd3f2  ffffd335
ffffb628  0000259d  ffffd650  ffffb4d6  00004f4b
ffff71c5  ffffe435  ffffede5  00004dad  00002df4
ffffd2ab  fffffa6b  fffff917  0000a00b  ffffb1b5
000004d4  00004767  00006780  000033ae  ffffd2c2
ffffdf07  000077e1  0000340a  00000026  00001335
ffffec75  00001c3e  fffffd71  fffff015  000060c2
00000256  fffffcdc  00002a4b  00000a7d  0000473a
000005db  000083cc  000041c0  000039b9  0000310c
ffffdf85  00008bc3  00002026  00007298  00000c20
ffffd782  00004ea4  00000fed  00004de9  fffff4c8
fffffed1  ffffef1b  ffffcf41  000040a8  fffff925
ffffd4e3  0000378f  0000148d  00002c51  0000174d
ffffdc52  00005154  000009ab  000044c0  00000be6
ffffc6fa  00007b2d  00002401  00002b7b  ffff8dd8
ffff87f8  ffffeb62  ffff975d  ffff7ec1  ffffe118
ffffdad1  ffffcaf5  ffffe02d  ffffd5b6  ffffea05
ffffffb6  ffffaafd  ffffe6d5  ffffca87  ffffce6c
00000b2a  ffffbed2  ffffef28  ffffcfd6  ffffc55c
00001601  ffffb8d2  ffffe0d8  ffffc362  ffffb782
00002f19  ffff987f  ffffd214  ffffe2e2  ffffd97f
00001c83  ffffa14b  ffffd633  ffffced2  ffffc523
00000a04  ffffa249  fffff036  ffffc7bd  ffffad8c
00002147  ffffa776  ffffe5bd  ffffa935  ffffc688
fffffc43  ffffaa59  ffffdb04  ffff9f9d  ffffc3ec
ffffffa2  ffffc004  ffffcf87  ffffc013  ffff998d
00001c53  ffff8fb5  ffff96b9  ffffba5f  ffffaa92
000030d4  ffff875c  ffff7c00  ffffccc7  ffff8775
ffffffaa  ffff7f20  ffffbee5  ffff92ee  ffff892f
ffffba93  ffff88e0  ffffefca  ffffbca8  ffff6723
ffffe14e  ffffb20b  ffffb139  ffff9230  ffffa5d0
fffff356  ffffb1f6  ffff8a1e  ffffa16b  ffffb7db
ffffedfb  ffffb86e  ffff7db5  ffffa98c  ffffc057
ffffd2fb  ffffbbcc  ffff9cfc  ffff8be3  ffffc241
fffff231  ffff9a0f  ffffc0c7  ffffb5d3  ffffd0a1
000005e2  ffffac33  ffffefce  ffffcb07  ffffd1f5
fffffe04  ffff990b  ffffff5d  ffffe478  ffffca4a
0000112c  ffff8783  ffffed13  ffffc5dd  ffffc653
00000929  ffff8c93  ffffe82c  ffffb0ff  ffffa6da
00001550  ffff5c79  ffffcb31  ffffbf3b  ffffa54a
000018da  ffffaebe  ffffce6c  ffffb3f2  ffffc363
ffffc834  000026a3  fffff685  000007ad  00000e25
fffff07d  ffffba65  ffffd200  fffff3b9  fffff4b1
00001a79  00000a59  00000566  00000662  fffffab5
000038f0  00003287  ffffe8c3  00000c6b  ffffe7d5
00003e85  000007ff  fffff517  00000074  fffff6cb
00004b6b  00000275  fffff7c1  fffff46b  0000029f
0000376d  000007c9  00001dab  00002fa6  fffffe99
00002884  ffffd9b2  ffffc324  ffffd672  ffffda2b
00001d27  00002873  00000521  ffffcdf9  ffff9ed7
00003fcb  ffffb3dd  0000008c  ffffc6c9  ffff847c
00003dce  fffffda9  0000030c  00000a97  ffffb5f7
00001dd1  00003870  000014b9  ffffe6fd  ffff9181
0000109b  000015ce  ffffb702  ffffb376  ffffb859
ffffee1c  ffffdf0b  ffffd938  fffffdac  ffff9b0c
000030e8  ffffc159  ffffea54  00005762  ffff8999
0000099b  ffffbe80  000023dd  0000322b  ffffaf61
000009f8  ffffb292  ffffd7ab  ffffc2ca  ffffe75f
ffffd140  00000edc  00000369  ffffe2f1  ffffd7a2
fffff655  00003953  fffffd6b  ffffebd5  fffffa7d
000020ab  000014ab  ffffeaf5  0000061b  ffffff50
0000344f  ffffd560  ffffe95e  ffffe73b  fffff57f
00002762  00001d13  fffff3bb  ffffeb9d  fffffe6d
00003195  fffffe4c  000011b5  ffffecc4  ffffd196
00003ad0  ffffcb40  fffff878  ffffb7e8  ffffd267
00003a52  00001cdc  00000778  ffffcdf6  ffffbf49
00002b43  ffffdd0b  ffffbf2d  ffffae05  fffff2d7
000028b7  00004035  ffffbabe  ffffc596  ffffc2a9
0000334d  000034f0  ffffd54d  00000a1d  ffffdc0f
000011a1  fffff80b  fffff7ee  00000ff3  ffffe7ee
ffffff76  00003873  000000f4  000014f4  ffffee27
ffffec0f  ffffe67a  00001fab  ffffc85f  ffffd8cf
000049df  ffffef0f  ffffca0d  ffffc24f  0000119d
00000c07  ffffcd72  ffffc7bc  fffff3ab  ffffd983
00002859  0000117b  fffffe83  ffffd77f  ffffd472
00000bd0  ffffbd3f  ffffc34f  ffffe629  00002464
fffff93f  0000257c  ffffec3f  ffffd6c8  00002b6e
ffffbfdf  000008b8  ffffeec0  0000050f  00001cd0
00004875  ffff9d4c  00001881  00002d5e  00000666
000002ae  ffffa486  fffff4b9  ffffb521  00000d4b
ffff8763  000012b0  000047bd  ffffc94a  00004dc2
ffffad4b  00002fe8  000037b8  ffff8d28  fffff59d
ffffc2ec  000002a7  ffffc680  ffffd424  0000180a
00001547  00002b65  ffffe3be  fffff97a  ffffeb84
fffff918  000043ff  ffffb35c  00000cd8  ffffcf42
0000095f  00004116  fffff45a  ffffeb7e  ffffd616
00004314  000040f3  fffff35b  fffff248  00000045
000024e8  00000ac1  00002c49  00001a9f  ffffeecb
00003392  00000582  000029e0  fffff3c5  fffff79c
ffffcd3b  00005320  ffffdd27  ffffb84d  ffffcb45
000020f9  fffff7d6  ffffa1e2  ffffa979  0000004c
ffffceff  0000139d  ffffb81a  ffffcce9  ffffc9e6
ffffcbf3  ffff9879  ffffe957  ffffca42  ffffe182
ffffc7e4  ffffb1f7  ffffcd28  ffffce7a  ffffd825
ffffcb29  ffffd0fc  ffffdd6d  ffffe402  ffffc953
ffffd497  ffffd301  ffffc885  ffffe96c  ffffc129
ffffc839  ffffbce9  ffffd628  ffffeb93  ffffd434
ffffa344  ffffb7bb  ffffd1d7  ffff908f  ffffa804
ffffc323  ffffd6ae  ffffc432  ffffcc2d  ffffbf42
ffffc4a5  ffffb0de  ffffafe6  ffffe1d9  ffffcfb1
ffff9e65  ffffa560  ffff93b8  ffffb182  ffff9b2b
ffffaecb  ffffa875  ffffc405  ffff9787  ffff8ddf
ffffc18d  ffff82a7  ffff88c6  ffffaaf5  ffff72f5
fffff3eb  ffffd2fe  ffffb430  ffffafc5  ffff8009
ffffff47  ffffb4d4  ffffc3b9  ffffac0a  ffffc509
ffffd8f4  ffff98dd  ffff7841  ffff9259  ffffd606
ffffe909  ffffab9f  ffffad34  ffffc005  ffffaf23
ffffd51f  ffffa04e  ffffd0c4  ffffd508  ffffba12
ffffd72e  ffffb8da  0000037b  ffffefec  ffffa090
ffffc5f4  ffffc8ac  ffffe6a4  ffffc6ee  ffffd921
ffffc39b  ffffa0b3  ffffbabe  0000040e  ffffd8d6
ffffc78d  ffffbff2  fffff2d9  ffffe05d  ffffc7d6
ffffd9a0  ffffa2ca  fffffbe7  ffffcf1a  ffffcd85
ffffd2c3  ffffc1e8  ffffb59b  ffffa911  ffffc88e
ffffe9ef  ffffc218  ffff9c95  ffffcbf6  ffffbf32
ffffa41d  ffffac9c  ffffbde1  ffffc62e  ffffc3b2
000020b2  ffffe565  fffff150  000002af  fffff858
0000433a  fffffe4a  fffff757  ffffe5ea  ffffecc0
000066ee  0000302b  00000289  fffff62e  000003b0
0000768e  ffffea14  00001c98  0000013a  000008d9
000063f7  00000b12  00002c5d  00000f93  000008c9
0000741d  ffffdc7c  0000108f  00001ead  fffff60c
000052c5  ffffce4b  0000520c  000006a1  ffffd90f
0000630f  fffffcfc  00002e0c  ffffb93d  000001f2
000062c5  00002362  fffff321  fffffe93  ffffe6d1
00005ecd  000022f4  0000073b  fffff086  ffff727c
00002290  ffffe768  000032d5  00004d5c  ffffdc13
000059cd  fffff2c3  ffffe4ae  00002df4  fffff90c
fffffe69  0000092e  ffff982f  ffffb86d  00002d05
ffffdee8  00001d84  00001926  00002acc  ffff8286
00002151  ffffa237  00002b3d  000065a7  ffffcf9e
000021ac  fffffdb1  00001988  000082be  00000875
000041a1  fffffbcf  00002d77  ffffa449  00002ed5
00000103  00002510  00003519  ffffe4ac  00002827
00006883  00000aa9  00002823  ffffe093  0000150c
00007dd2  ffffdbef  000007cf  ffffe1b6  ffffeb51
00007f59  00001638  00002bfc  fffff5b1  ffffedbd
00004e83  fffff4c2  000018ad  ffffe969  ffffd553
00004b66  0000107f  00004331  fffffc24  ffffd76f
0000638f  000035a8  fffffbb1  000015c1  fffffa10
0000109c  00004b21  0000643e  00001015  fffffe01
00003e4f  ffffee7f  00001861  fffff45b  ffffe776
0000159a  ffff9460  000015cb  ffffd0c5  ffffeba7
00000f31  ffff9dc3  000010aa  ffffc6bc  ffffde49
00000a1a  ffffd273  fffff4f8  ffffa576  ffffbe74
000011da  ffffcce4  000009d2  ffffab3d  ffffc99b
00000f5a  ffffc7db  000006c9  ffffcb83  ffffd4a7
fffff59d  ffffd34a  fffff0cf  ffffd321  ffffb974
ffffd1bd  ffffb0bc  000010ae  ffff9ecc  ffffd3cb
ffffe40f  ffffd7f5  ffffd0d5  ffffca19  ffffda16
ffffe99a  ffffd0ed  ffff8e42  ffff9509  ffffabd8
fffffdff  ffffd879  ffffba84  ffffeb91  ffff9df1
ffffee2e  ffffc897  ffffb5b4  ffffde89  ffff9eed
ffffb21c  ffffba39  ffffbe69  ffff7c5b  ffffcd3e
ffff86c6  ffff9b34  ffffb381  ffffae7f  ffffaddc
ffffe3af  ffffafdf  ffff9acf  ffffd6dc  ffffe459
0000055b  ffffd65c  ffffa29b  ffffde0d  ffffbe11
ffffe16f  ffffbb10  ffffb046  ffffc64b  ffffad99
000009bd  ffff8386  000006a5  fffff25e  ffffb44d
00002a81  ffffa1ce  00002042  ffffbc12  ffffae47
ffffeae7  ffff9df5  00001470  ffffe8b3  ffffcb0a
ffffece2  ffffba55  ffffdd5e  ffff9538  ffffdbd9
0000022a  ffffd6ca  ffffc46c  ffff9fde  ffffdd62
00002212  ffffd41a  ffff8dc8  ffffc840  ffffb85d
ffffe655  ffff761f  ffffdf1d  ffffd5c2  ffffc5bf
ffffc5fc  ffffcccb  ffffd886  ffffc989  ffffc28e
00002207  00000ba4  00003672  fffffb07  ffffbe4d
00000d83  ffffe060  00005163  00004755  fffff340
ffffff33  ffffdff7  000019b1  000046f8  ffffc355
000023f4  ffffd595  00001d6e  fffffe2a  ffffdfcb
0000386a  ffffda2f  00001340  00002586  ffffbfbc
00003286  ffffc9de  000030fc  ffffed36  ffffe994
00000a4a  fffff3de  00002c7d  00000439  ffff9733
00000763  ffffbba2  0000357b  00004207  ffffc2e2
fffff7d8  0000025e  00000480  ffffc638  fffff2f8
00000743  ffffcf2d  ffffcde3  ffff7b45  ffffa9de
fffffa1a  ffff95b8  ffffc171  ffffe4d7  ffffadf1
00000453  ffffd3a2  ffffa85e  000006d0  ffffa966
ffffef03  ffffed26  00001879  ffffb202  ffff9b33
fffff2c0  ffffd6b3  ffffc859  ffffa336  ffffaf11
0000219f  ffffa561  ffffd081  fffff462  ffffa158
00000dbb  ffffe732  ffffcc77  000007f2  ffffc821
00002600  ffffd46b  ffffe108  000029e2  ffff91b9
000026b9  ffffcf23  00001655  00002482  ffffc8db
000023f8  ffffdd71  000040b2  0000077b  ffffe5a0
00000d3c  ffffda93  00000ce8  00002415  ffffe90d
00001721  ffffb7bf  00000a31  0000257f  ffffb809
000020cf  ffffd853  00000716  ffffec80  ffffce6b
00003c48  ffffd2a3  ffffe311  ffffe7f5  ffffcbc3
000017f8  ffff93ec  00000f68  ffffbd46  ffffba74
fffff02d  ffffa5f6  ffffa925  ffffc4f1  ffffecc0
00002bdc  ffff9f66  ffffb67f  ffffdeee  ffffe7a4
000009ea  ffffb43f  ffffd0d7  00002ea1  ffffd753
00001058  ffffc0ff  ffffacd6  000003d2  ffffca47
fffffc78  ffffc373  ffffe83a  fffffdee  ffffb8d1
fffffed5  ffffeff2  fffffec7  000020bb  ffffc922
fffff917  ffffcec6  000016d3  ffffc8e5  ffffe4f6
0000110d  ffffa7b1  fffff386  ffffe96c  fffffa72
fffff9e1  fffff416  ffff9706  fffff478  ffffcc25
00000894  ffffc382  ffffc994  fffff19a  ffffab8c
00000093  ffff766f  000001c8  ffffcc61  ffffb264
00001ed9  ffffd3e1  ffffe08d  ffff63ae  ffff8bae
ffffdca4  ffffced8  fffff8cd  ffff4b5f  ffffbbd1
00000f93  ffffa7d7  ffff95b2  00000e9d  000012b1
00001230  ffffcad5  ffff6fd2  ffffefe8  fffff698
ffffe784  ffff7f3f  ffffcd08  fffff9e4  ffffc9e5
ffffc41a  ffffc18b  fffff961  ffffe2a0  ffff8443
ffffd4fc  ffffbc70  0000030c  00001e40  ffff93c9
00001403  ffffd6b7  ffffeabe  0000280c  ffffd8ef
fffffbed  fffff32d  ffffbed4  0000029d  ffffc2c5
fffffbe9  ffffd965  ffffcb29  ffffee4b  ffffb44b
00000bad  00000a2e  000004c8  ffffe761  ffffda8d
00001046  ffffc309  00000e13  0000044e  ffffedea
fffff1eb  00000bba  000003f1  00001135  0000020f
ffffd9c4  00003dcd  ffffc938  ffffdfbe  ffffeb2d
0000005d  00003056  000001c5  ffffed7f  ffffb164
000038b9  000041ab  000025c2  0000018b  0000284b
00002193  00008d20  ffffc027  000002a3  ffffeb63
00002a7f  000058bd  fffff1ba  0000148c  fffff4ee
00001286  000000b7  00001dc6  00000de9  ffffdb75
00000b3c  00001fbc  0000130a  0000170e  ffffdbeb
00002b15  fffff1a0  0000247d  ffffc796  0000141e
0000299d  00001e43  000014f1  00000b66  fffffc23
000000d4  00001dcc  fffff693  000018cf  000018d6
000025b2  ffffd9bc  0000061a  00001416  00000797
fffff209  ffffd0a0  00003b93  fffff4bc  00004a1d
ffffe797  00004dc0  000034ac  ffffb638  00004022
fffff145  0000033e  00005073  0000032d  00003c74
00002551  00000ab2  fffff22c  00003f7a  00004b99
00002014  ffffd76a  00000541  000056bc  000034a0
fffffea8  fffff691  00005298  0000298a  fffff27d
000006c4  000000bd  00008646  ffffc715  000015b4
fffff1f1  00004237  000020f5  ffffadd7  00004ad6
00000970  0000528a  ffffd729  ffffd78a  00004c04
00000f86  0000582e  ffffac01  00002537  0000208e
000035d4  00000b55  00002f37  000032d5  fffff2f3
00003656  000009a2  00003619  00001b1a  fffff65c
fffffff7  00000561  0000647b  fffff787  fffff9c4
00000eee  000019f8  00001ac4  fffff581  000000d2
00000348  ffffd664  ffffcfb0  00000b42  00002235
00002160  ffffbd79  00000457  ffffe2e3  00001942
fffffb98  00003706  00000602  0000179c  00001379
00002ba7  ffffc2b3  fffff986  00002bb9  ffffe364
fffffe30  ffffca00  ffffe119  000047b5  ffffc96b
fffffda9  ffffbc29  fffffede  000006c2  ffff86c1
00000964  ffffea5a  0000303f  fffffd0a  ffffd85c
00002b25  ffffdb23  0000217e  ffffbfc8  00000f20
fffffbd6  ffffdc94  000049c1  00003ce2  0000159b
0000234b  00004468  0000104c  00001c42  ffffc025
00000e97  ffffb89e  00000462  0000188a  ffffd4be
00002464  ffffb8ae  00005f0a  ffffc2a0  ffffb608
0000093d  0000221f  ffffe9b6  ffffaeec  00001f48
0000221f  fffff284  0000213f  ffffe7db  ffffec6a
00003f8b  ffff8d44  ffffffaa  000048fc  ffffa30f
00005615  ffff81ad  fffff2a8  ffffbe16  fffff54d
fffff158  ffffdfdb  00001251  ffffad30  00002a64
ffffbcf2  000025e7  000058b2  ffff976b  00002de2
00001fec  fffffc94  ffffde92  fffff6f2  ffffea4c
0000543e  ffffe51d  ffffc183  000048b5  ffffd440
00001728  fffff588  ffffc2cb  0000546a  ffffefa8
00001b48  ffffb04b  ffffda7b  ffffff99  ffffbdeb
00001a94  ffffb6fa  00002dda  ffffd728  ffffd40c
fffffc7f  ffffda32  00002f7f  ffffc4cb  ffffeba3
00003b26  fffffd40  ffffe624  00001210  ffffdcc8
00002ae9  ffffd92f  ffffcbc1  0000122d  ffffe560
00002f8f  00003aef  000020f5  ffffb5df  ffffe750
ffffbd35  ffffebaa  000011d6  ffffc6f8  ffffd685
ffffba4b  ffffb096  000019ae  ffffe13d  00002a95
ffffe7c2  ffffce46  00000836  fffff00a  00000756
ffffe5ae  ffffdb79  00000176  ffffe845  00000266
fffff88e  ffffd064  ffffd3f3  ffffdcea  fffffa64
ffffdf83  ffffe2d4  fffff337  00000455  00000538
ffffbc79  ffffd05e  ffffe63f  ffffd532  ffffd281
ffffbecd  ffffda86  0000081c  fffff328  fffff6f1
ffffb633  ffffd0a3  ffffd33e  ffffc759  00000c18
ffff9e60  ffffc474  ffff7582  ffff90a9  ffffba40
ffffaa9f  ffff909a  ffff9b01  fffff74d  ffffaf01
ffff9edb  ffffb438  ffff729e  ffffe232  ffffb7d3
ffff8624  fffffb69  ffffbdab  ffff787c  ffffd802
ffff9fb9  ffffbbc9  ffff97d4  ffff7282  ffffb64b
ffffd2a3  ffff755b  ffff9934  ffffbcb6  ffffba5e
fffff7d9  ffff6cbc  ffff9b13  ffffdba5  ffffcaf3
ffffcda5  ffff9b8b  ffffb4c4  ffffec31  ffffc6c2
ffff9d16  ffffc80f  fffffab8  ffffffd5  fffff87f
ffffea29  ffffb1f4  0000182c  ffffd4b1  00000d2e
ffffd3bd  ffffbd63  ffffcf95  00000885  0000150e
ffffc9b4  ffffe486  fffff26a  ffffe756  0000009b
ffffe467  ffffbbcc  ffffe1cf  fffff49c  fffffb8a
ffffdf15  ffffc207  ffffcdaa  ffffe379  ffffec1a
ffffcdd1  ffffac21  ffffb865  ffffb129  00001b31
ffffb306  ffffb8ab  ffffba76  00001264  00000ce0
fffffd3c  ffffbdbf  0000096c  ffffeb86  ffffcc83
ffffea7c  ffffbe79  00000e5f  00000ddb  00000004
fffff12b  ffffe3a1  00000ce2  fffffbcd  ffffe646
00000508  fffffaa2  fffff8fd  ffffe87d  fffffa65
ffffe1a4  ffffb80d  00001f27  ffffef1c  fffff9c3
00000091  ffffe6a5  fffff920  000016ef  ffffc53d
000028d8  ffffe5a6  ffffd974  0000325f  ffffc279
00000708  fffff4a3  ffffeb37  ffffedc6  ffffc4db
00002b36  00000d9a  fffffa3e  00001d0e  ffffc39b
0000144a  ffffee23  ffffd8ec  ffffdec2  ffffad3e
00001e34  ffffdbaa  00000d28  ffffcbe0  ffffd0b8
00001fe1  ffffe21a  ffff9acb  ffffcc55  ffffb300
0000036d  fffffaf6  ffffc653  ffffe862  ffffaed7
fffff41d  ffffdff4  ffffe350  00003e6c  ffffbbf3
fffff836  fffff1e7  ffffda6c  000005eb  ffffc08e
00000bf4  fffff660  ffffc2d5  ffffd2b8  ffffcf76
00001904  ffffd14e  00000e02  ffffdbba  ffffc830
fffff8ea  ffffd228  00004ee2  fffff627  ffffe026
0000283e  ffffe073  0000284b  ffffe84b  ffffe929
00001ded  fffff5e3  fffff225  ffffb6ff  ffffeff9
00000cc7  ffffe078  fffffa12  00002966  ffffe377
fffff2c5  0000102b  ffffadeb  fffff5ab  ffffb689
ffffd25a  fffffe74  ffffe5d3  00000525  ffffc13a
00002523  00000415  ffffac99  ffffe874  ffffc8f7
00000095  00000050  00002232  00002a06  fffff576
ffffc0b2  ffffd7c5  ffffc1bb  00009189  00008399
ffffcfb6  ffffa477  000020e0  000021e4  00001053
000006c2  fffffa45  00002b10  00003336  000018fa
0000111b  00001b1e  00000234  000045fd  00001ee2
00001216  ffffd862  00001ba6  ffffda46  00002c12
00003819  fffffe65  fffff183  00003ea5  00004690
00000ca3  fffff713  000002b4  00004bf3  0000235c
00002879  000014ff  000010f5  fffff295  00002c8c
00001690  00004337  00004f90  ffffe4e2  fffff6cc
fffff39c  fffff047  00000063  ffffafc8  ffff72fd
00002509  00003c1b  ffffc6e8  ffffc7c8  00000375
00006701  ffffe6b2  ffff8680  00001f97  00002ca5
00006a52  ffffdb44  fffff56b  fffffcb0  ffffd787
ffffbff2  ffff4f61  0000068f  0000125e  fffffa84
ffffb2c7  ffff9605  000034be  ffffbcaa  00000532
ffffb938  000003d2  00001c18  ffffcfa6  00003cda
ffffe377  000026a1  ffff7943  ffffd1b7  00008985
ffffbffe  0000145d  fffffd9b  00001fcd  0000297b
000024d1  fffffe7a  00003dfb  000062ac  0000122e
0000180b  00000fc1  00003b9c  00001f9a  00002131
fffff316  ffffc2a3  ffffffe0  ffffbaa2  0000227f
00000f5a  00002993  ffffc229  fffff00a  0000216a
000038bb  00002941  00001155  00001aca  00001fcc
0000476e  ffffe18d  00002a45  00002285  ffffec90
000020c3  00007fa4  000052f2  ffff6929  ffffa173
ffffb849  ffffc555  ffffbbac  ffffc04b  fffff685
ffffcdce  ffffb416  fffff1d7  ffffdc18  ffffeb50
fffffcf7  ffffb21b  ffffe683  ffffca08  ffffec6c
ffffdc6d  ffffd5bd  ffffda34  ffffbc7e  ffffc63a
fffff05b  ffffc8f1  ffffbfda  fffff120  ffffeb01
ffffd4d7  ffffe75c  ffffeccd  ffffae56  ffffdefd
fffff982  ffffd581  ffffb795  ffffc5eb  ffffce0a
fffff836  ffffe2c9  ffffcc69  ffffa879  ffffeedc
ffffdda8  fffff762  ffffc4e4  ffffd161  ffffe2e3
ffffd451  ffffd0c7  ffffeb10  00001e9e  00004b9d
00001fd6  ffffe152  ffffab17  ffffb38b  ffffd24e
ffffd43e  ffffdd65  ffffaed8  ffff9b2c  ffffc57f
0000106f  ffffbc01  00000108  ffff9f80  fffffc1f
0000036d  ffffc923  ffffbcd3  ffffaaad  00003c08
ffffefcc  ffffe242  ffffa860  ffffb98e  00002dfb
ffffc76a  ffffcbbc  ffffa8f4  ffff845d  ffffb96b
ffffba55  ffffc7b2  ffffc491  ffffe5cc  ffffbeb4
ffffdbad  ffffb211  ffffe52c  ffffd57e  ffffbbce
ffffd06d  ffffe27b  000005a4  ffffcb95  ffffc530
ffffbd50  fffff2c6  ffffd867  ffffe8e6  ffffd482
ffffe45e  00000911  ffffd8f1  ffffdd9a  ffffeac8
000005bf  ffffd535  ffffedc2  ffffdf75  fffffeb2
ffffee9c  ffffbd66  ffffcb7a  ffffcf31  0000011d
ffffe752  ffffd3f6  fffff717  ffffadff  00000f43
000010f5  000003e7  ffffdc92  00002658  000001d9
