00000196
fffffd74
000000fa
ffffffe2
ffffffe5
00000090
0000011e
00000278
000001e9
fffffe3e
00000519
000003b4
00000073
0000026f
000002c6
ffffff9b
0000018d
00000458
000001f9
000002f8
fffffe73
00000389
0000029d
0000011c
0000070c
0000006c
fffffbe0
00000541
000001c0
000001d1
fffffc76
0000011b
000004ab
000001e5
ffffffe7
000000f4
000003e8
000005db
000002ea
00000046
00000077
0000003a
00000484
00000107
000002f4
0000034e
fffffde6
ffffff8c
fffffe75
000003bd
00000392
000002d0
00000221
00000570
000000dd
000003be
ffffffe5
ffffff12
fffffef9
fffffd1c
0000032f
00000161
00000140
00000061
