000001f6
fffffd84
00000081
0000053c
000000f0
00000680
000003b9
00000093
0000037c
00000013
fffffe51
00000696
ffffff91
00000334
000001ad
ffffff5f
00000085
000005b1
0000028f
fffffffb
fffffc37
0000020c
000006d9
0000037d
ffffffa1
000002b5
fffffc2c
0000082a
000000ed
00000853
0000051c
fffffbcf
ffffffa4
000001b1
00000684
0000014f
fffffe05
fffffc59
0000008a
fffffd44
fffffe22
ffffff89
0000005f
fffffc04
00000002
ffffff21
000006e5
00000654
00000917
00000937
fffffd3e
fffff9ab
0000025b
00000420
000007be
ffffffe5
000004b6
fffffcfb
fffffc16
000000b8
00000274
fffffd0d
fffffff3
ffffffb2
