fffffbd7
000003e7
000001f9
00000422
fffffd1b
fffffed6
0000045b
00000035
fffffea2
fffffbb7
00000407
ffffff27
00000608
fffffdf1
00000453
fffffeeb
fffffc8d
00000545
ffffff8f
00000433
fffffdc7
fffffc17
ffffffc9
000001f3
fffffdb2
000002a6
fffffe36
fffffe2b
00000224
fffffb09
00000106
fffffba5
00000505
fffffc9f
fffffd4e
fffffe91
fffffc3a
00000344
000003ed
fffffd7e
fffffcdd
000004e8
000004a8
fffffc4b
00000345
fffffc3e
fffffd0f
000002ff
0000044d
fffffd65
fffffb53
ffffff1a
fffffc60
000000b9
ffffff7f
ffffffd6
ffffff9d
fffffcbf
fffffc1c
fffffbaf
0000010e
fffffc5c
fffffee0
00000470
