000000bd
00000095
00000185
ffffff72
0000004a
fffffee7
0000018f
0000036f
000005a4
00000355
00000140
00000234
000003a6
0000041d
00000306
000004ba
000003b1
00000387
000001bf
0000038f
0000016a
00000844
000004c1
0000015e
000006c8
fffffee8
ffffff98
00000374
00000585
000000a6
000003b0
00000612
0000016f
00000024
000000ba
0000028d
000007ef
ffffffbd
000002b5
00000119
0000039c
0000042e
00000601
0000005f
00000086
00000124
00000012
000005e4
0000035b
000000b5
00000360
00000245
000001d6
0000033c
00000120
ffffffa2
0000080e
000004f0
000005b3
000005bc
00000234
00000546
0000005b
00000094
