ffffffe8
ffffff46
000000f2
0000000e
ffffffbb
fffffff5
00000010
000000a3
000000a9
0000002c
ffffff9f
ffffffc3
ffffffc5
ffffffe0
000000a4
fffffefd
ffffffc5
ffffff59
000000a8
000000f8
ffffff20
000001af
00000081
ffffffec
ffffffa1
ffffff4e
00000007
ffffffe2
0000009e
00000006
ffffff8e
ffffffb8
fffffe7e
ffffffc2
0000011c
fffffefd
00000082
0000009e
ffffff8d
ffffffd6
00000059
000000a9
fffffff7
0000005b
000000b1
0000005f
00000042
fffffffe
fffffffb
ffffff65
ffffffca
000000d3
00000102
ffffffd2
ffffffdc
00000291
000000a6
0000007b
00000129
0000006e
ffffff6c
000000f8
ffffffe3
000000f6

fffffe95
000000a5
fffffda9
00000094
0000018e
fffffd99
ffffff4a
ffffff7e
fffffd22
000001ea
00000235
ffffffa8
00000212
ffffffc0
0000033f
fffffe3d
fffffeda
00000310
fffffed5
fffffebe
ffffffd0
fffffe54
ffffff80
0000017b
fffffd63
0000005e
ffffff9e
fffffc66
ffffff67
fffffebe
0000016a
000003db
fffffd4e
00000118
fffffd3e
fffffe81
ffffff08
fffffd87
0000000f
ffffff9c
fffffecb
000000b1
fffffee2
fffffe0e
fffffefa
fffffe88
ffffffb7
fffffe90
00000103
ffffff37
0000001d
fffffd8b
fffffdba
0000001d
ffffff15
0000020f
fffffd60
fffffdc8
000002d2
00000261
000003da
fffffd1e
fffffd82
ffffff01

fffffbd7
000003e7
000001f9
00000422
fffffd1b
fffffed6
0000045b
00000035
fffffea2
fffffbb7
00000407
ffffff27
00000608
fffffdf1
00000453
fffffeeb
fffffc8d
00000545
ffffff8f
00000433
fffffdc7
fffffc17
ffffffc9
000001f3
fffffdb2
000002a6
fffffe36
fffffe2b
00000224
fffffb09
00000106
fffffba5
00000505
fffffc9f
fffffd4e
fffffe91
fffffc3a
00000344
000003ed
fffffd7e
fffffcdd
000004e8
000004a8
fffffc4b
00000345
fffffc3e
fffffd0f
000002ff
0000044d
fffffd65
fffffb53
ffffff1a
fffffc60
000000b9
ffffff7f
ffffffd6
ffffff9d
fffffcbf
fffffc1c
fffffbaf
0000010e
fffffc5c
fffffee0
00000470

fffffbe1
fffffc03
00000333
fffffa3a
fffffb9d
fffffcf4
00000183
fffffaa1
00000446
000003ec
000001c2
fffffb2a
000004c9
000004b8
000002b5
0000041b
0000037f
fffffbe0
0000041a
0000040c
fffffb9b
fffffbe8
00000374
00000526
fffffec1
fffffbc0
fffffb52
0000041d
000005a2
000004a2
0000034b
0000066d
fffffb50
000001a9
0000041f
fffffa2f
fffffc86
ffffff9b
fffffbca
00000327
fffffa45
fffffb40
fffffb59
fffff8fc
fffff7e8
000004f1
fffffab2
000004c2
00000246
fffffaf2
fffffaf9
00000438
fffffa3c
0000041c
ffffff67
fffffb6c
0000059d
fffffb9e
00000696
00000390
000004b2
fffffabb
00000432
000004ab
