fffffe95
000000a5
fffffda9
00000094
0000018e
fffffd99
ffffff4a
ffffff7e
fffffd22
000001ea
00000235
ffffffa8
00000212
ffffffc0
0000033f
fffffe3d
fffffeda
00000310
fffffed5
fffffebe
ffffffd0
fffffe54
ffffff80
0000017b
fffffd63
0000005e
ffffff9e
fffffc66
ffffff67
fffffebe
0000016a
000003db
fffffd4e
00000118
fffffd3e
fffffe81
ffffff08
fffffd87
0000000f
ffffff9c
fffffecb
000000b1
fffffee2
fffffe0e
fffffefa
fffffe88
ffffffb7
fffffe90
00000103
ffffff37
0000001d
fffffd8b
fffffdba
0000001d
ffffff15
0000020f
fffffd60
fffffdc8
000002d2
00000261
000003da
fffffd1e
fffffd82
ffffff01
