53  24  00  00  00
00  4d  00  00  00
00  4e  00  00  00
00  20  00  00  00
00  35  00  00  00
00  3c  00  00  00
00  00  00  00  00
00  00  00  00  00
00  00  00  00  0c
00  00  00  00  3f
00  1d  37  00  00
00  00  00  00  00
0a  00  0d  4b  00
00  00  14  00  24
00  00  00  00  00
00  0c  00  00  00
00  0e  00  1a  00
01  00  00  2b  00
00  37  00  00  00
00  23  00  00  00
00  00  0b  15  00
00  35  4b  00  00
00  31  00  00  00
00  00  00  00  00
00  00  00  00  3a
00  00  00  5e  58
00  00  39  5f  77
00  00  34  26  5b
00  0d  35  46  3f
00  3e  2a  00  26
00  14  2a  2b  62
00  06  18  26  63
00  23  30  00  47
01  24  52  51  1f
11  2e  00  65  00
00  0e  48  15  00
00  00  32  00  11
00  00  00  00  35
00  3a  00  23  7f
0a  00  00  7f  26
18  00  25  7f  37
00  00  71  7f  51
00  00  7f  50  5b
00  00  7e  20  48
00  00  4f  3c  35
00  27  00  00  40
00  4d  00  04  58
00  2f  14  75  64
00  2c  7f  7f  2e
00  7f  7f  7f  00
2e  00  16  55  6f
00  00  17  02  00
00  00  00  00  00
00  00  03  00  00
00  00  00  00  00
00  00  00  00  00
00  00  00  35  00
00  22  00  00  06
00  00  00  00  00
00  00  0b  53  14
00  00  00  05  00
00  00  00  00  08
00  31  00  45  6a
00  01  1b  7f  00
2f  00  01  23  00
3c  00  00  14  00
00  00  7f  4c  00
00  00  00  0f  43
00  00  00  17  00
00  00  56  00  00
00  00  00  00  00
00  00  00  24  00
00  0d  00  3c  12
00  00  52  5b  12
00  00  31  13  00
00  29  40  1f  15
00  7f  1f  47  7f
00  7f  00  27  7d
1a  6e  0e  00  21
0e  6b  05  20  36
00  7f  00  00  29
17  6d  00  1d  61
18  29  00  2a  7c
09  27  4f  00  29
04  7f  52  00  70
0f  71  5b  2f  00
2d  7f  3f  19  00
1b  53  00  7f  4e
67  7f  44  53  38
42  39  60  0c  00
41  00  00  1f  00
0f  1a  00  0e  07
00  71  00  4b  7f
0c  59  00  1d  7f
1f  73  00  00  65
1a  47  00  41  66
04  40  00  0d  47
00  43  52  28  7a
09  2f  21  25  50
00  00  25  13  4e
06  00  15  00  2d
00  00  02  00  00
48  00  23  00  00
1c  00  13  00  00
2d  00  32  33  0e
28  00  3d  20  00
40  00  2d  01  00
3f  00  10  00  3b
25  00  00  00  00
3f  0c  06  7b  28
39  00  14  2c  00
00  00  43  00  00
00  00  00  00  7b
00  00  00  66  00
33  00  00  6f  19
00  00  00  2b  00
25  00  5f  00  00
00  0c  0d  00  37
0a  00  28  00  00
00  00  24  24  00
3e  00  00  00  1b
56  00  4d  40  0c
0c  00  45  42  03
19  00  76  4b  25
00  00  44  4e  00
00  00  00  00  00
00  00  00  00  00
00  5d  00  00  00
00  36  00  00  00
00  4a  00  38  00
00  38  00  07  00
00  00  00  00  00
00  00  00  00  00
00  2c  00  00  00
04  00  00  00  00
0e  00  17  2a  00
00  00  00  00  00
00  00  00  00  03
00  00  00  00  00
07  00  00  3d  00
0e  00  00  7f  00
13  00  10  00  00
00  3b  00  00  00
00  62  00  00  00
00  00  00  00  00
00  00  00  1c  00
00  00  0b  00  00
00  00  08  00  00
00  27  00  00  00
00  00  00  00  00
1c  12  00  00  05
00  00  16  00  0a
00  00  00  00  02
00  00  00  00  00
00  00  00  00  01
00  00  00  00  0f
00  00  00  00  00
00  00  00  00  02
00  00  00  00  0d
00  00  00  00  7f
00  00  00  00  42
00  00  00  17  00
00  00  6f  00  00
00  00  1d  00  1a
00  31  00  00  60
00  00  00  00  13
00  00  00  00  00
01  00  00  00  00
00  00  00  00  00
00  00  00  00  00
00  00  00  00  0e
00  00  00  00  37
00  00  00  00  19
00  00  00  00  0d
00  00  00  00  11
00  00  00  00  00
00  00  00  00  00
00  00  00  00  00
00  00  00  00  00
00  00  00  00  00
00  00  00  00  00
0d  00  00  00  00
00  00  00  00  00
00  00  00  00  00
1c  00  00  00  00
17  00  00  00  00
00  00  00  00  00
00  00  0c  00  00
00  00  00  00  00
2f  05  00  00  00
1f  00  00  00  00
1c  00  00  00  00
1a  00  00  00  00
00  00  00  00  00
00  00  00  38  00
00  00  00  00  00
08  00  22  00  00
14  00  00  00  00
00  00  00  00  00
00  00  00  14  00
00  00  00  00  00
12  00  00  00  00
00  00  00  00  00
00  00  00  00  00
00  00  00  00  00
00  00  00  00  00
00  00  00  00  00
30  00  00  00  00
5e  00  00  14  00
1e  00  0e  27  09
0b  00  00  00  00
38  00  00  00  00
43  00  00  00  00
00  00  00  00  00
00  00  00  00  04
00  00  00  00  00
00  00  00  00  00
02  00  00  00  00
00  00  00  00  00
27  00  00  00  00
0a  00  10  00  00
00  00  00  00  00
00  00  00  00  00
00  00  00  00  00
0c  00  22  04  00
00  17  00  10  00
1b  00  15  01  00
4b  34  47  19  0e
30  43  17  00  00
39  40  44  15  2e
2a  6c  47  35  45
29  2f  00  00  0d
12  2f  7f  00  0d
7f  00  57  12  00
50  00  4d  7a  4c
6d  45  18  7f  00
31  00  1c  00  00
7f  00  72  00  26
0d  00  5d  00  7f
00  59  19  02  4b
00  18  00  00  00
00  00  2c  7f  00
38  00  2e  0f  00
04  08  00  0f  00
0b  21  3d  25  1c
1b  7a  7f  10  3c
42  63  7f  1d  48
57  00  33  49  2b
6d  45  0c  0e  2c
07  41  3e  7f  25
00  05  00  00  22
00  00  00  00  3f
0c  00  00  00  44
00  00  00  00  62
00  00  00  00  6d
00  00  00  00  3f
00  00  00  00  20
00  00  00  00  62
00  00  00  0b  5c
00  00  00  00  2a
00  00  00  11  00
00  00  42  00  00
00  00  00  00  00
00  00  00  00  7f
00  00  00  00  00
00  00  00  00  33
00  00  40  06  50
00  00  00  29  44
00  00  00  1c  3f
00  00  00  00  62
00  00  00  00  68
00  00  00  00  24
00  21  00  0f  38
00  75  00  00  0b
00  00  00  00  00
00  1d  00  00  47
00  00  00  00  00
1a  0a  00  00  28
22  00  00  00  3e
00  00  10  00  34
01  00  02  00  00
21  00  1a  23  73
3c  41  00  00  56
2a  00  00  00  00
20  00  26  05  22
1a  00  06  00  4b
00  36  00  00  00
00  00  00  14  7c
00  00  00  33  23
07  00  00  00  00
00  26  00  00  00
00  00  00  00  00
00  29  00  00  34
11  0b  00  00  1e
4a  04  09  00  05
25  00  4e  02  48
17  00  42  00  1a
00  00  2e  00  42
19  00  00  00  2a
00  00  0a  00  0d
00  00  00  00  00
14  28  01  00  0b
53  6e  00  00  00
5b  43  00  00  00
5a  5a  00  00  2c
1d  6c  1d  00  00
3b  00  00  00  0a
6f  00  00  00  00
00  22  00  00  00
58  73  02  00  00
3e  14  11  00  37
25  7f  00  00  00
51  0d  04  00  00
0c  06  00  00  00
28  4e  00  47  7f
00  00  00  00  00
00  00  00  00  00
23  00  22  04  00
16  73  00  00  00
00  24  00  00  00
48  27  00  00  18
66  00  21  00  00
7d  00  28  00  00
3f  30  00  00  00
3c  7f  00  21  4c
00  00  00  00  00
24  00  00  00  00
00  00  00  29  00
00  00  00  00  00
00  00  00  00  00
00  00  00  00  00
00  00  00  00  00
01  00  19  00  00
3d  00  00  00  39
22  00  00  00  00
00  00  00  3a  00
24  00  00  51  00
00  00  7c  00  00
00  00  0d  00  00
00  38  00  00  00
00  7f  00  00  44
10  00  00  00  00
00  00  00  00  00
00  00  00  00  00
00  00  00  00  00
00  00  00  00  00
00  00  00  00  00
00  00  00  00  04
05  00  00  00  00
38  00  00  00  00
39  3f  57  3d  00
00  00  55  4e  00
00  00  22  1f  00
00  00  00  00  00
00  00  15  00  00
00  00  27  00  00
00  30  00  29  00
00  00  62  08  00
00  00  14  00  00
00  00  19  00  00
00  00  00  00  00
00  1d  00  00  00
13  00  00  00  00
00  00  00  00  00
27  00  00  00  00
01  00  00  00  00
00  00  00  15  00
2e  00  00  29  00
08  00  1f  1b  00
00  00  62  28  00
00  00  16  00  00
00  00  00  00  00
00  00  00  00  00
00  00  00  00  00
00  00  00  00  00
00  00  02  28  78
00  00  00  00  18
00  00  00  06  30
00  00  08  4d  15
00  1a  00  0a  00
00  0b  16  1a  00
00  0f  00  33  7f
00  05  00  10  51
00  00  00  00  00
1c  00  00  7f  61
19  00  00  43  00
00  33  7f  00  2f
00  61  58  16  7f
00  66  00  2d  7f
22  7f  00  7f  00
49  00  00  40  00
00  00  6b  7f  1a
00  02  40  00  37
00  00  44  6d  3d
00  00  27  41  0c
00  57  00  00  00
00  00  00  6a  10
00  00  2a  7f  67
00  7f  78  00  7f
01  7f  62  7f  00
00  12  00  00  00
30  00  1a  3a  00
20  00  18  2c  00
2e  18  00  00  00
26  0d  0d  00  00
3d  2f  00  00  00
37  00  00  00  00
00  00  02  00  00
65  00  29  00  00
13  00  0f  00  00
2e  42  00  08  00
3b  26  00  00  00
7f  00  1d  14  00
47  00  60  00  00
00  10  47  00  3c
00  00  37  00  00
1e  00  00  00  00
75  00  00  6e  00
33  00  00  17  00
00  34  00  00  00
0a  30  10  00  00
35  3e  01  00  00
7f  00  00  00  00
42  00  00  00  00
04  00  00  07  00
00  14  47  3b  3a
00  00  0b  17  00
00  00  00  0a  00
00  00  00  00  00
00  00  00  00  00
00  00  00  00  00
00  00  18  2c  00
00  00  00  00  00
00  00  00  00  00
00  00  00  00  00
00  00  00  00  00
00  00  00  00  00
00  00  00  00  00
00  00  00  00  00
00  00  00  00  00
00  00  00  00  00
00  00  00  00  00
00  00  00  23  00
00  00  03  44  00
00  00  00  00  00
00  00  00  00  00
00  00  00  00  00
00  00  00  00  00
00  00  00  00  00
00  00  00  00  00
1c  00  00  00  00
00  00  00  00  13
00  00  00  00  29
00  00  00  00  00
00  00  00  00  10
00  00  24  00  13
00  00  00  00  0b
00  00  1d  00  53
00  00  00  00  00
00  00  00  13  1f
00  00  00  00  00
00  00  13  00  00
00  00  00  00  4e
00  00  00  00  00
05  00  00  00  00
0c  00  00  00  00
00  00  00  00  00
00  00  00  00  09
00  00  00  00  0d
00  00  00  00  1f
00  00  00  00  2a
00  00  00  00  17
00  00  00  00  4e
00  00  17  00  31
00  00  00  00  00
00  47  00  00  00
00  00  00  00  12
00  07  00  00  00
03  11  00  00  2d
00  00  00  32  4c
00  00  03  00  0a
00  00  00  2d  05
13  7b  00  1e  00
05  1b  59  52  00
1c  00  31  00  00
0b  00  34  00  4a
00  42  00  00  00
00  28  00  01  00
2d  11  00  00  00
0d  2c  00  00  00
50  6b  00  00  01
6b  00  00  00  00
35  00  00  00  00
1a  00  00  00  2e
13  00  00  00  67
00  00  2a  7f  26
00  00  0a  00  00
13  13  00  14  00
32  00  00  00  00
00  00  00  00  22
00  4a  2c  00  13
00  00  00  00  76
00  00  12  00  7f
00  2f  11  44  7f
00  39  00  49  6a
00  3b  00  3c  7f
00  00  00  00  7f
00  41  00  00  7f
00  3f  00  63  7f
00  27  22  7f  6b
00  70  00  0d  64
00  78  00  00  7f
00  7f  00  00  42
02  7f  00  01  6c
0e  00  00  7f  7f
00  00  21  7a  5c
00  00  2f  39  4e
00  00  7f  00  00
00  7f  62  00  38
00  39  00  15  7f
00  71  00  40  7f
00  3c  1a  63  7f
00  6a  19  00  7f
00  4a  4e  7f  7f
00  7f  0f  7f  7f
14  00  1a  20  00
00  00  22  00  00
1e  00  56  00  00
00  00  1c  00  00
00  00  00  00  00
00  00  18  33  00
00  00  00  00  00
00  00  7f  00  00
00  00  4c  00  10
00  00  00  00  00
00  00  00  00  00
5d  00  00  00  00
10  00  00  00  00
00  00  00  00  00
00  00  00  00  00
00  00  00  00  00
00  00  00  00  00
00  00  00  00  00
24  00  00  00  00
00  00  6f  00  00
00  00  06  00  00
00  00  00  00  00
1f  00  00  00  00
05  00  0b  00  00
00  00  00  00  00
00  31  22  03  3b
0c  15  3b  1c  7f
16  00  24  01  7f
03  04  28  22  7f
28  00  2d  21  5a
02  01  71  6b  3e
20  16  00  18  7f
02  48  00  33  49
00  00  00  00  05
13  00  00  5a  2f
00  00  00  72  0f
00  2e  02  28  00
00  42  3f  00  1f
00  00  00  00  00
32  00  00  26  4f
72  50  00  3a  10
00  00  00  7f  21
00  06  31  7f  41
0d  00  3e  00  68
11  00  00  39  7a
07  00  01  00  79
5e  00  00  40  5f
00  00  00  21  70
00  00  00  00  00
00  00  00  00  00
60  07  00  00  00
00  78  00  00  00
00  25  00  00  00
00  00  00  00  00
00  00  00  0d  00
00  09  00  00  00
00  00  00  00  00
00  00  00  1f  00
00  00  00  00  00
00  2f  07  00  09
00  00  47  00  00
00  00  32  38  35
00  02  25  43  1a
48  10  2d  16  00
7f  14  00  00  00
3b  00  1b  07  00
00  07  60  00  00
0d  00  00  00  00
00  00  00  00  00
00  00  00  31  00
00  00  00  34  00
00  00  4f  11  00
00  00  03  00  00
00  00  00  00  00
00  00  00  16  14
00  00  00  00  00
00  00  00  00  00
00  00  00  00  00
00  00  00  00  00
00  00  00  00  00
00  00  00  00  00
00  00  00  00  00
00  00  00  00  00
00  00  00  00  00
00  00  00  00  00
00  00  00  00  00
00  00  00  17  00
00  00  00  00  00
00  00  00  00  00
00  00  00  00  00
00  00  00  00  00
00  00  00  00  00
00  00  00  00  00
00  00  00  00  00
00  00  00  00  00
00  00  00  00  00
00  00  00  00  00
00  00  00  00  00
00  00  00  00  00
00  00  00  00  00
1b  00  00  00  27
00  00  00  01  25
00  00  00  00  40
00  00  00  00  39
00  00  00  00  32
00  00  00  00  24
00  00  00  00  42
00  00  00  00  35
00  00  00  00  00
00  00  00  00  19
00  00  00  00  00
00  00  00  00  0a
00  00  00  00  36
00  00  00  00  27
00  00  00  00  1b
00  00  00  00  00
00  00  07  19  00
00  00  00  1f  00
00  00  00  00  00
00  00  00  16  18
00  00  00  00  42
00  00  00  00  3e
00  10  00  00  37
00  16  00  00  00
00  00  00  00  00
00  00  04  30  1f
00  00  00  45  1c
13  37  00  64  00
09  02  1e  2e  3b
2c  66  00  63  00
17  3f  7f  2c  55
02  5a  40  3b  7f
00  41  01  3b  00
00  00  00  00  00
7f  00  00  00  35
71  00  5a  70  14
00  00  7f  00  2c
13  36  60  00  52
00  00  00  00  7f
63  00  00  7f  00
0e  00  5d  7f  0f
00  00  55  7f  00
00  00  3b  70  00
00  00  1b  69  16
01  00  32  57  1e
39  00  00  00  1a
19  58  00  00  3a
10  47  28  7f  66
00  7f  6f  00  33
59  7f  7f  7f  00
00  00  00  00  00
00  00  00  00  00
00  26  00  00  00
1c  1e  00  00  00
12  00  00  0b  00
2e  00  00  00  00
19  00  00  00  00
00  00  00  14  00
1c  08  00  12  00
03  1f  00  00  00
18  00  00  00  00
0b  00  00  00  00
12  06  00  00  00
11  00  00  00  00
00  00  00  00  00
00  00  00  00  00
00  00  0e  00  00
00  00  08  00  00
00  4e  00  00  00
01  22  00  05  00
16  00  00  34  00
04  04  18  00  00
1f  00  11  00  00
42  00  00  00  00
00  00  00  00  00
00  34  00  00  00
31  7f  1f  26  00
7f  7f  6a  1e  00
7f  7f  4d  00  00
7f  7f  46  7f  00
7f  7f  49  49  00
7f  4e  09  23  00
7f  4a  0c  3a  00
7f  7f  3e  00  00
62  58  20  00  00
7f  7e  1e  7f  3d
2a  7f  00  7f  32
7f  00  4c  7f  00
73  00  7f  2e  0e
01  7f  7f  00  2a
30  7f  7f  00  03
5d  7f  0c  00  4c
58  7f  00  62  00
67  7f  00  72  00
6a  7f  7d  23  00
7f  7f  5c  43  00
7f  7f  7f  17  00
7f  58  31  00  00
7f  6e  00  00  00
36  3a  2d  2c  44
00  00  00  00  00
00  00  00  00  07
06  00  04  00  1c
0c  00  00  00  38
18  00  00  00  16
00  00  00  01  32
00  00  00  00  00
00  00  00  00  1f
00  00  35  21  7f
00  00  21  00  00
3e  00  00  00  00
35  00  00  00  00
00  00  1e  00  01
00  00  00  00  08
00  00  00  00  00
00  00  00  00  00
00  00  00  1a  00
00  00  00  00  00
00  00  00  00  1c
00  00  00  00  47
00  00  00  00  1b
00  00  00  00  3a
00  00  00  00  24
00  00  00  00  4f
0b  1a  33  38  28
7f  7a  47  53  3e
7f  7f  7d  7f  00
4d  7f  67  70  20
44  3b  7f  2c  00
43  7c  5e  7f  00
26  5a  7f  0b  00
5d  3e  75  36  43
57  7f  31  5e  4f
70  7f  7f  00  15
3a  7f  1b  73  31
3a  7f  64  2a  76
29  5f  5c  7f  7e
66  00  7f  7f  7e
6a  29  7f  67  7f
52  7f  7f  77  7f
6a  7f  7f  66  50
2e  7f  64  7f  57
7f  7f  7f  7d  64
65  6d  76  7f  52
66  7f  7f  7c  17
7f  7f  3d  7f  00
3a  76  7f  4c  11
4b  7f  56  50  44
15  65  6d  7c  00
6a  16  1b  00  41
00  00  00  00  00
00  00  00  00  00
00  14  00  00  00
00  00  00  00  00
00  06  00  00  00
00  00  00  00  00
00  00  00  00  61
0a  5f  00  00  00
00  00  00  00  00
05  00  00  3b  0f
00  00  04  00  33
00  00  00  00  00
00  00  00  00  00
00  19  00  00  24
00  00  00  00  08
00  37  0f  00  1f
00  17  00  00  13
00  00  00  00  00
00  00  00  00  02
00  2f  00  00  00
00  4e  00  00  00
00  00  00  00  00
07  00  00  00  07
00  00  00  00  00
00  21  00  2f  00
3a  00  00  00  00
00  00  00  68  25
00  00  00  44  2b
00  00  00  00  2c
00  00  00  7f  11
00  00  00  22  1c
00  00  00  00  15
00  00  00  0d  12
00  00  00  27  00
00  00  00  00  1a
00  00  00  00  01
00  00  00  00  00
00  00  00  20  00
00  00  00  00  00
13  00  00  00  09
00  00  00  00  18
00  00  17  00  00
00  00  00  39  00
00  00  00  00  00
00  00  00  00  0f
00  00  00  27  33
00  00  00  7c  44
00  3d  00  53  61
00  7f  00  42  00
00  00  00  4c  00
00  00  00  00  0e
00  00  00  00  00
00  00  00  00  00
00  00  00  00  00
00  00  00  00  00
00  00  00  00  00
00  00  00  00  02
00  00  00  00  00
00  00  00  00  00
00  00  00  00  48
00  00  00  00  00
00  49  00  00  00
58  00  00  00  00
00  00  2a  00  00
00  00  00  00  39
00  00  00  00  00
00  00  00  00  00
00  00  00  00  00
00  00  00  00  00
00  00  00  00  00
00  00  00  00  00
00  00  00  00  05
00  00  00  00  17
00  00  00  00  00
00  00  00  10  00
25  00  00  00  00
02  53  00  28  00
1a  00  00  00  00
00  00  06  00  06
00  00  00  00  00
08  00  03  0a  00
19  00  00  00  00
00  00  00  00  00
41  1d  3a  00  00
0d  30  00  00  00
27  00  00  00  00
00  00  00  00  39
02  00  00  2c  39
18  00  00  4b  00
00  00  00  00  00
0c  00  00  00  10
18  7f  31  00  7f
6b  2d  00  00  5e
2c  00  00  00  00
04  00  19  3d  00
24  03  03  00  00
1b  00  04  3f  00
16  00  00  00  00
00  00  00  00  00
00  00  00  00  00
00  00  0b  00  00
16  00  00  22  26
00  00  00  00  04
00  00  00  00  20
00  00  00  00  1a
00  00  00  0f  00
1f  00  00  00  00
0c  00  00  00  00
00  00  00  05  00
00  00  00  3a  00
00  00  00  00  00
00  00  00  00  00
00  00  00  00  00
00  00  00  00  00
06  00  00  00  00
00  00  00  00  00
13  00  00  14  0a
00  00  0a  0c  14
00  00  01  00  00
16  00  00  00  1a
00  00  1b  3e  1c
00  00  00  3c  00
00  00  00  00  00
00  00  00  00  00
37  00  00  3a  00
12  00  00  06  0b
29  00  00  0a  00
1a  47  00  00  00
00  30  00  00  00
00  1f  00  00  00
00  21  00  00  00
02  12  12  22  00
0e  7f  00  00  00
00  4c  2b  00  00
1a  00  6b  00  00
4b  21  05  00  00
35  38  00  00  01
06  29  00  49  3e
00  00  00  5e  00
37  00  2c  7a  00
0e  00  63  3c  00
17  16  4c  00  05
00  22  00  00  00
01  24  00  16  00
00  24  1e  00  00
00  65  0b  00  00
00  5c  00  14  00
00  74  00  00  00
19  22  00  0d  0f
01  00  6b  16  00
00  00  00  09  00
02  00  00  00  00
00  00  00  00  00
00  00  00  00  00
00  00  00  00  00
00  00  00  00  00
00  00  00  00  00
12  00  00  00  00
00  00  00  00  00
00  00  00  00  00
00  00  00  00  00
00  00  23  00  00
00  00  00  00  00
00  00  00  00  00
00  00  00  00  17
00  14  00  00  00
00  00  00  00  00
00  00  00  00  00
00  00  00  00  00
00  00  00  00  00
00  00  00  00  00
00  00  00  00  00
00  00  00  00  00
00  00  00  00  00
1e  00  00  00  00
00  00  00  00  00
17  00  00  00  00
00  00  00  00  00
00  00  00  00  1c
00  00  00  00  20
00  00  00  00  00
00  00  00  00  4a
00  22  00  00  00
00  00  00  00  00
00  00  00  00  00
00  00  00  00  00
00  00  00  00  00
00  00  00  00  00
00  00  00  00  00
00  00  00  00  00
00  00  00  00  00
00  00  00  00  00
00  00  00  00  00
00  00  00  00  00
00  00  00  00  03
00  00  00  00  0e
00  00  00  00  00
00  00  00  00  01
00  3a  00  00  00
00  00  00  00  00
45  6c  00  41  17
47  00  00  12  3a
00  00  00  09  0e
00  00  00  00  28
00  11  00  00  52
00  00  04  1d  54
00  00  4e  00  2f
00  00  08  30  1a
08  00  00  0d  7f
00  00  00  00  37
00  05  00  00  14
00  00  00  00  00
3b  00  15  00  00
19  00  0c  00  72
00  20  00  00  22
00  7f  17  08  55
00  03  00  6b  29
7f  00  00  52  00
11  00  00  44  00
00  00  00  6d  2c
00  00  2c  00  43
00  08  7f  00  30
0c  00  00  00  4f
29  40  00  00  04
2c  00  00  00  00
00  00  00  00  00
00  7f  00  00  00
00  03  00  00  00
00  00  00  00  00
00  00  00  00  00
00  0c  00  00  00
00  2b  00  03  00
00  17  00  00  00
00  08  00  24  00
00  16  1a  63  00
00  00  7f  00  00
00  66  69  00  00
00  7f  00  18  00
7f  7f  0f  5e  00
7f  51  00  00  00
7f  00  43  00  19
63  42  7f  00  00
50  09  0c  00  0c
0e  00  00  2f  00
00  00  00  00  00
00  00  00  00  00
00  00  00  00  00
00  00  00  00  00
00  00  00  00  00
15  00  00  3f  00
00  00  00  00  00
00  00  00  00  32
00  00  00  00  09
00  00  00  00  00
00  00  00  00  00
00  00  00  00  18
00  00  00  00  61
00  11  00  00  00
00  00  00  00  00
00  00  00  30  00
00  00  00  00  00
00  00  00  00  00
00  00  00  00  00
00  00  00  00  27
00  00  00  00  00
00  00  00  00  06
00  00  00  47  00
00  00  00  34  00
00  00  00  00  00
00  00  00  00  00
00  00  00  00  19
00  00  00  00  00
00  00  00  00  12
00  00  00  00  0f
00  37  00  00  00
00  00  00  00  00
00  00  00  00  00
00  00  00  00  00
00  00  00  00  00
00  00  00  00  00
00  00  00  00  00
00  01  00  00  00
00  00  00  00  00
00  00  00  00  00
00  00  00  00  0b
00  00  00  00  00
00  00  00  00  00
00  00  00  00  3b
00  00  00  00  00
00  00  00  00  00
00  00  00  00  00
00  00  00  00  00
00  00  00  00  00
00  00  00  00  00
00  00  00  00  00
00  00  06  00  00
00  00  00  00  00
00  00  00  00  00
00  00  00  00  34
00  00  00  00  00
27  1c  05  00  00
47  7f  00  15  34
59  7f  07  00  08
40  75  1f  00  00
46  7f  00  0e  00
0a  7f  00  1d  00
0f  26  00  02  12
4e  3c  20  00  00
31  36  37  00  00
00  7f  00  00  00
00  7f  00  00  3c
4b  2f  00  7f  4d
62  00  00  7f  00
0e  00  54  00  00
00  2e  7f  00  2b
00  3d  31  00  5e
18  7f  00  00  36
5f  7f  00  1b  38
37  7f  00  1e  1e
0f  7f  00  00  04
0b  7f  2b  00  14
2f  7f  30  00  00
65  7f  61  00  00
44  7f  04  00  00
00  7f  00  00  06
00  00  00  00  00
02  2d  37  7f  00
00  00  11  1f  00
00  03  1b  00  00
00  00  00  29  00
00  02  00  40  00
00  00  00  27  00
00  00  00  00  00
00  00  00  00  00
00  00  05  00  00
00  00  00  00  00
00  00  00  00  00
00  00  00  00  00
11  00  48  00  00
00  14  00  00  00
00  00  00  00  00
34  00  00  0c  00
7b  13  7f  36  11
00  00  56  34  0c
00  00  00  15  00
00  00  00  7b  00
00  4d  02  3c  00
00  51  00  1f  00
00  00  00  00  00
00  00  00  00  34
00  00  19  00  00
00  00  00  00  07
00  00  05  00  00
00  00  04  00  1e
00  00  00  01  00
00  00  00  00  3b
00  00  00  00  32
00  00  61  07  08
00  00  00  00  14
00  00  00  6e  2b
00  00  00  2b  00
00  00  10  00  00
00  1c  00  00  00
00  00  00  00  32
00  00  00  00  01
00  00  00  13  2f
00  00  00  09  07
00  00  00  00  00
00  00  00  00  00
00  00  15  00  17
00  00  00  00  08
00  00  00  00  30
00  00  00  2d  29
00  00  0c  07  2b
00  00  00  36  0f
21  5f  12  52  49
7e  7f  16  00  26
7f  7f  21  4f  19
7f  7f  0f  4a  31
7f  7f  69  35  64
7f  7f  36  7f  62
7f  7f  3a  00  61
7b  5b  7f  73  00
7f  7f  27  00  2d
7f  7f  55  00  37
79  7f  45  7f  31
7f  7f  7f  7f  7f
78  39  7f  7f  00
3a  58  7f  00  00
03  7f  7f  00  36
1b  7f  7f  69  7f
59  7f  00  7b  7f
04  7f  00  7f  16
7f  7f  00  6b  00
7d  7f  26  6d  49
7f  7f  79  00  5a
7f  7f  7f  45  3d
7f  5f  73  00  29
7f  76  39  00  00
3c  46  00  00  00
00  23  4c  21  00
00  00  1f  00  50
00  00  00  00  1a
00  00  00  3d  1d
00  00  4f  00  34
17  00  3d  20  7f
00  00  00  7f  28
00  00  00  19  0e
05  00  00  6c  6d
00  00  00  29  00
00  00  2f  2e  06
00  00  51  00  00
00  51  6f  00  00
00  00  00  00  7f
00  00  00  31  09
61  00  00  00  1a
00  00  00  3f  00
02  00  5d  0e  00
00  00  3a  18  13
01  00  00  00  26
00  00  21  00  20
00  00  00  00  52
00  00  00  7f  49
00  00  00  02  68
04  25  7f  7f  0e
00  00  00  00  1f
00  5f  00  00  00
00  7f  00  00  03
00  31  00  00  18
20  48  00  00  1e
00  62  00  00  00
00  25  00  00  28
00  32  00  00  00
00  03  00  00  00
47  57  00  5c  00
09  00  53  56  41
00  18  7f  15  1e
00  5a  22  00  00
00  74  04  0d  00
7f  31  00  7f  45
7f  00  00  30  68
00  18  2c  00  10
00  23  1d  00  00
00  36  00  00  00
00  00  00  00  00
11  00  00  00  06
31  04  00  00  00
00  06  2e  00  00
00  4d  00  00  00
00  7f  00  2e  00
00  7f  2a  7a  44
00  7f  3e  7f  64
00  7c  02  7f  2a
00  7f  40  7f  18
00  7f  08  7f  00
00  6d  28  36  00
00  7f  00  41  01
00  00  00  7f  00
00  7d  2c  28  00
00  04  00  00  00
00  41  00  00  7f
00  00  00  7f  4e
00  00  00  7f  00
0d  77  7f  57  00
00  7f  58  06  24
00  32  01  00  7f
09  00  49  16  76
0f  7f  6e  61  53
00  7f  38  7f  19
00  7f  1f  7f  00
04  00  00  6c  00
00  5e  26  4c  2a
00  7f  15  72  18
00  7f  3f  4a  00
00  00  00  00  00
00  00  00  00  00
05  00  00  00  00
17  00  00  00  00
28  00  00  00  00
50  00  00  00  00
32  00  00  00  00
15  00  00  00  00
3a  00  00  00  00
00  00  00  00  00
05  00  00  00  00
32  00  00  00  00
53  00  00  00  00
05  00  00  00  00
00  00  00  00  00
00  00  00  00  00
00  00  00  00  00
00  00  00  00  00
00  00  00  00  00
00  00  00  00  00
0e  00  00  00  00
02  00  04  00  00
20  00  00  00  00
14  00  00  00  00
27  00  00  00  00
2d  00  00  00  00
00  41  00  10  1a
00  00  00  00  00
2e  14  0d  0e  00
5e  54  00  18  00
67  11  00  05  00
7c  08  00  00  08
5c  10  33  50  02
44  00  00  00  00
32  44  0c  00  00
69  00  05  00  00
66  00  09  15  00
33  5d  25  00  00
1e  27  00  00  00
00  00  00  00  00
52  00  00  7f  00
13  00  3d  54  00
14  00  00  00  00
00  1c  09  00  00
00  5f  00  00  00
38  25  00  0e  03
57  00  00  00  00
42  32  00  00  01
53  01  20  00  00
61  00  00  00  00
60  32  10  00  00
47  00  00  00  00
43  69  00  00  00
54  57  00  13  00
1f  00  00  1c  00
02  5c  04  24  00
00  00  35  00  00
78  00  00  00  1f
16  00  00  00  00
43  1f  01  00  00
16  00  00  00  3d
00  3e  00  00  48
00  11  00  0b  31
76  00  2a  4b  0d
07  00  00  00  18
00  21  75  00  7e
00  4f  5b  00  00
00  07  00  00  29
25  48  00  00  00
00  6f  00  17  00
12  6a  00  00  00
6d  6a  00  00  03
3d  14  49  2d  00
55  0c  45  00  00
00  7f  00  00  00
37  00  00  00  03
00  27  00  00  00
00  00  00  00  00
00  00  00  00  00
00  00  00  00  00
00  00  00  00  00
00  00  00  00  00
00  00  00  00  00
00  00  00  00  00
00  00  00  00  00
00  00  00  00  00
00  00  00  00  00
00  00  00  00  00
00  00  00  00  00
07  00  00  00  00
00  00  00  00  00
00  00  00  00  00
00  00  00  00  00
00  00  0e  00  00
00  00  00  00  00
00  00  00  0f  00
00  00  00  00  00
00  00  02  00  00
00  00  00  00  00
00  00  00  00  00
00  00  00  00  00
35  00  00  05  00
6b  00  00  00  00
7f  4d  05  00  07
7f  00  2e  03  0f
7f  12  47  1a  0f
7f  00  1b  32  00
7f  00  7f  0b  00
7f  00  4a  00  04
7f  39  00  00  00
7f  38  0c  00  00
38  00  51  7c  00
7f  00  00  4a  00
00  0f  00  00  48
00  30  29  45  00
36  00  45  7f  00
36  00  29  7f  0e
69  00  49  00  4b
02  3c  55  00  41
7f  12  41  00  22
7f  00  0d  00  00
7f  24  47  00  00
7d  00  28  00  00
78  1b  6b  00  00
7f  56  00  23  00
1b  78  7f  1a  00
68  00  2c  00  00
28  00  28  00  00
1e  00  20  00  00
15  00  00  00  00
22  00  15  00  00
1e  00  10  00  00
00  00  00  00  00
00  00  20  00  00
00  00  00  00  00
00  00  00  00  00
02  00  00  00  00
00  00  00  00  00
00  00  00  00  00
00  00  00  00  00
00  00  00  00  00
0e  00  00  00  00
00  00  00  00  00
15  00  10  00  00
49  00  39  00  00
00  00  26  00  00
00  00  00  00  00
09  00  00  00  00
3b  00  00  00  00
00  00  00  00  00
00  00  00  00  00
35  12  56  00  00
15  00  7f  70  00
00  00  28  70  00
38  00  2e  00  00
59  00  1e  3b  00
4f  00  4d  00  00
10  00  46  06  00
0b  00  54  68  00
00  03  06  00  00
0b  00  00  00  00
00  00  00  00  00
06  00  00  0a  00
00  00  26  00  00
00  00  00  00  00
35  00  00  00  00
15  00  00  0c  00
3c  00  00  42  00
3d  00  23  39  00
38  00  66  0b  00
14  00  14  39  00
24  00  0f  3b  00
33  00  0b  00  00
5f  00  00  00  00
25  00  18  00  00
00  00  00  00  00
44  00  00  00  00
0e  00  00  48  00
18  00  00  04  00
00  00  00  00  00
00  00  00  32  00
00  00  22  00  00
19  00  00  00  00
00  00  00  00  00
0c  00  00  00  00
00  00  01  00  00
2f  00  00  00  00
00  00  00  00  00
17  00  00  15  1c
1b  00  00  00  00
00  00  00  00  00
00  00  00  00  00
00  00  03  2e  00
1e  00  00  3e  00
00  00  00  02  00
00  00  00  00  00
11  0e  06  00  00
18  00  14  05  00
00  11  04  19  01
00  60  00  00  00
00  4b  01  00  00
58  66  3a  00  3e
33  7f  00  02  00
41  7f  00  1e  00
1b  00  2d  14  00
10  30  1c  22  00
42  00  38  00  1e
40  2e  1f  10  00
00  2d  00  25  25
3a  00  08  1e  0a
00  00  5c  00  73
00  79  51  00  64
00  03  7d  03  5e
39  0f  00  63  76
31  00  06  7f  51
00  00  7f  40  00
09  00  7f  00  20
00  67  32  00  75
0d  7f  00  00  76
16  7f  00  39  32
53  10  49  4e  00
54  0d  54  29  00
00  06  7f  00  00
16  27  28  00  00
03  00  00  10  34
33  00  05  00  26
00  52  04  20  1a
40  00  00  40  00
00  00  00  6d  00
00  00  00  06  00
0a  00  47  00  00
3f  00  30  00  13
00  00  70  5b  1d
33  67  15  28  00
12  00  02  22  00
35  00  7f  00  00
0a  31  00  00  2d
31  00  30  00  00
60  00  00  6f  00
7f  00  00  00  00
00  00  18  00  3e
00  37  7f  00  44
2e  00  00  00  00
7f  00  00  6e  00
20  00  00  7f  00
26  00  00  00  00
25  00  44  00  00
00  00  46  00  00
59  00  00  18  00
3f  00  00  18  00
46  58  2f  00  00
00  00  21  00  00
00  00  2d  00  48
00  00  12  00  10
00  00  07  00  08
00  00  00  00  00
00  00  00  0b  0d
00  00  00  00  00
00  00  11  00  00
00  00  00  00  18
00  00  00  00  00
00  00  00  00  00
00  00  00  00  00
00  00  00  00  00
00  00  00  00  00
00  00  00  00  00
00  00  00  00  00
00  00  00  00  00
00  00  00  04  00
00  00  2b  00  19
00  00  00  12  26
00  00  00  00  06
00  00  00  00  00
00  00  00  00  00
00  00  00  00  30
00  00  00  22  19
00  00  11  00  00
00  00  18  18  02
00  00  16  00  00
0a  00  00  00  00
00  00  33  00  00
03  00  00  26  00
42  00  00  52  00
0d  00  00  00  00
46  17  00  30  00
22  00  00  00  00
32  00  17  00  00
34  00  00  00  00
07  00  00  00  00
00  00  00  65  00
00  00  00  0b  00
15  00  00  00  00
29  00  18  00  00
00  00  7f  00  00
42  00  42  00  00
31  00  00  00  00
16  00  00  43  00
00  1b  00  00  00
00  00  00  0a  00
3d  08  00  00  00
03  02  38  44  00
00  00  00  7f  7f
00  00  36  37  1b
0c  00  46  53  29
1d  2c  05  70  32
1e  00  2d  00  47
5a  00  00  65  71
16  00  06  7a  3a
42  23  1c  00  48
25  6c  7f  00  00
00  00  02  00  00
3c  61  00  00  07
7f  00  00  34  48
7f  00  00  00  00
00  00  0c  1f  00
00  00  55  00  0a
00  08  2e  00  62
00  3f  00  00  7f
00  22  00  34  43
3c  00  64  7f  1e
28  1a  60  34  36
00  00  01  00  38
1a  43  00  00  36
5b  43  1d  2c  34
73  00  45  38  00
35  7f  7f  00  00
00  00  00  00  00
00  00  00  00  00
00  00  00  00  00
00  00  00  00  00
00  00  00  00  00
00  00  00  00  00
00  00  00  00  00
00  00  00  00  00
00  00  00  00  00
00  00  00  31  78
33  00  00  00  00
00  00  00  00  00
1a  00  02  00  00
06  00  00  00  5f
00  00  00  00  49
00  00  00  00  00
00  00  00  00  00
00  00  00  00  00
00  00  09  00  00
00  00  00  00  00
00  0e  00  00  00
09  00  00  00  00
00  00  00  00  02
00  00  00  00  18
1b  06  00  3d  03
