06  13  05  05  00
05  0e  02  04  00
03  0d  02  04  00
00  00  00  00  00
00  00  00  00  00
00  00  00  00  00
00  00  00  00  00
00  00  00  00  00
00  00  00  00  00
00  00  00  00  00
00  00  00  00  00
00  00  00  00  00
00  00  00  00  00
00  00  00  00  00
00  00  00  00  00
00  00  00  00  00
00  00  00  00  00
00  00  00  00  00
00  00  00  00  00
00  00  00  00  00
00  00  00  00  00
00  00  00  00  00
00  00  00  00  00
00  00  00  00  00
00  00  00  00  00
03  1f  39  31  15
39  58  69  3c  1c
2b  43  41  26  12
28  37  3c  20  13
34  45  1f  0e  00
0f  19  14  0c  02
14  26  0d  0c  00
02  07  05  04  00
00  01  00  00  00
00  00  00  00  00
00  00  00  01  02
00  00  00  00  01
00  00  00  01  01
00  00  00  00  00
00  00  00  00  00
00  00  00  00  00
00  00  00  00  00
00  00  00  00  00
00  00  00  00  00
00  0d  10  0e  00
00  00  00  00  00
01  10  09  0a  00
18  16  00  00  00
1d  1f  14  15  15
10  14  00  00  00
00  00  00  00  00
00  00  00  00  00
00  00  00  00  00
00  00  00  00  00
00  00  00  00  00
00  00  00  00  00
00  00  00  00  00
00  00  00  00  00
00  00  00  00  00
00  00  00  00  00
00  00  00  00  00
00  00  00  00  00
00  00  00  00  00
00  00  00  00  00
00  00  00  00  00
00  00  00  00  00
00  00  00  00  00
00  00  00  00  00
00  00  00  00  00
00  00  00  00  00
00  00  00  00  00
00  00  00  00  00
00  00  00  00  00
00  00  00  00  00
00  00  00  00  00
00  00  00  00  00
00  00  00  00  00
08  12  0f  00  00
14  21  22  06  00
2b  46  41  11  00
28  46  4c  18  00
24  41  4e  1f  00
17  2c  3d  1d  00
00  25  2a  2d  00
00  11  16  24  00
00  0d  13  21  04
00  0e  20  21  11
04  07  0c  03  09
02  0c  16  11  0e
0a  10  05  00  00
00  00  00  00  00
00  00  04  03  07
00  00  0f  0d  0b
04  0c  31  22  25
02  0e  37  29  29
12  25  4d  2e  23
1c  2e  46  21  17
15  2d  26  0e  00
29  39  29  05  00
11  16  0e  00  00
00  00  00  00  00
00  00  00  00  00
00  00  00  00  00
00  00  00  00  00
00  00  00  00  00
00  00  00  00  00
00  00  00  00  00
00  00  00  00  00
00  00  01  01  00
00  00  00  00  00
00  00  00  00  00
00  00  00  00  00
00  00  00  00  00
00  00  00  00  00
00  00  00  00  00
00  00  00  00  00
00  00  00  00  00
00  00  00  00  00
00  00  00  00  00
00  00  00  00  00
00  00  00  00  00
00  00  00  00  00
00  00  00  00  00
00  00  00  00  00
00  00  00  00  00
00  00  00  00  00
00  04  01  03  00
00  09  06  05  00
00  07  0b  09  02
00  06  09  07  00
00  00  05  02  02
00  00  03  02  00
00  00  00  00  00
00  00  00  00  00
00  00  00  00  00
00  00  00  00  00
00  00  00  00  00
00  00  00  00  00
00  00  00  00  00
00  01  00  01  00
00  01  00  00  00
00  0d  08  0a  00
00  08  05  01  00
01  0b  09  04  00
0a  0c  02  00  00
09  0a  00  00  00
09  0d  00  00  00
0a  0c  00  00  00
04  05  00  00  00
03  03  00  00  00
00  09  02  02  02
00  00  00  00  04
00  00  00  00  00
00  00  00  00  09
00  00  00  00  08
00  00  00  09  06
00  00  00  0d  05
00  00  00  0c  02
00  00  04  02  02
02  02  02  02  02
00  00  00  00  06
00  00  03  00  06
00  00  00  00  08
00  00  11  09  02
00  00  0b  09  02
00  07  0f  02  02
00  0b  08  02  02
00  0e  03  02  02
00  08  03  02  02
00  00  04  02  02
00  00  03  00  00
00  00  08  02  01
00  00  02  04  00
00  00  12  05  02
00  00  0a  07  02
00  00  00  00  00
00  00  00  00  00
00  00  00  00  00
00  00  00  00  00
00  00  00  00  00
00  00  00  00  00
00  00  00  04  04
00  00  00  0f  1d
00  00  12  1d  1e
00  00  00  0d  19
00  00  06  19  11
00  00  00  0a  11
00  00  00  03  0e
00  00  00  06  14
07  26  2c  27  1c
00  04  10  18  10
02  17  1f  18  16
00  02  0b  0a  05
00  00  00  00  01
00  00  00  00  00
00  00  00  00  00
00  00  00  07  0c
00  00  00  00  05
00  00  00  0d  13
00  00  00  00  00
00  00  00  00  00
00  00  00  00  00
00  00  00  00  00
00  00  00  00  00
00  00  00  00  00
00  00  00  00  00
00  00  00  00  00
00  00  00  00  00
00  00  00  00  00
00  00  00  00  00
00  00  00  00  00
00  00  00  00  00
00  00  00  00  00
00  00  00  00  00
05  00  00  00  00
00  00  00  00  00
00  00  00  00  00
00  00  00  00  00
00  00  00  00  00
00  00  00  00  00
00  00  00  00  00
00  00  00  00  00
00  00  00  00  02
00  00  00  00  00
00  00  00  00  08
06  06  06  06  06
06  05  03  02  06
06  05  05  07  06
06  01  02  04  06
05  05  05  06  06
06  06  06  06  06
06  06  06  06  06
06  06  06  03  00
06  05  02  00  00
06  06  06  00  00
06  00  00  00  00
06  06  06  00  00
06  06  06  00  00
06  06  06  01  01
06  06  06  06  06
06  06  06  06  06
04  01  00  06  06
06  06  07  06  06
00  00  02  06  06
05  05  04  06  06
06  06  06  05  03
04  04  05  03  00
06  02  00  00  01
00  00  00  00  00
06  00  00  00  06
02  02  02  02  02
02  02  02  02  02
02  02  02  02  02
02  02  02  02  02
02  02  02  02  02
02  02  02  02  02
03  02  05  00  02
02  00  02  00  02
02  00  00  00  02
02  02  02  02  02
02  02  02  02  02
02  02  02  02  02
02  02  02  02  02
05  00  02  02  02
04  00  02  02  02
00  00  02  02  02
01  00  02  02  02
02  02  02  02  02
02  02  02  02  02
02  02  02  02  02
02  02  02  02  02
02  02  02  02  02
02  02  02  02  02
02  02  04  04  00
02  02  01  02  00
00  07  0b  05  00
00  13  1a  18  00
00  09  11  13  00
00  00  08  08  00
07  23  2b  11  00
0d  24  27  16  00
22  60  72  3e  02
00  24  39  3a  09
00  17  38  3a  12
00  00  0e  12  12
00  00  00  00  00
00  00  00  06  05
00  00  06  16  10
00  00  12  1a  16
00  00  11  18  17
00  00  00  00  00
00  00  00  00  00
00  00  00  00  00
00  00  00  00  00
00  00  00  00  00
00  00  00  02  02
00  05  02  00  00
01  00  00  00  00
0d  11  0f  00  00
00  00  00  00  00
02  00  00  00  07
00  00  00  00  07
00  00  00  00  07
00  00  00  00  07
00  00  00  00  07
00  00  00  00  07
00  00  00  00  07
00  00  00  00  07
00  00  00  07  07
00  00  00  00  00
00  00  00  00  00
01  00  00  00  00
04  00  00  00  00
00  00  00  00  06
00  00  00  00  00
00  00  00  00  00
00  00  00  00  00
00  00  00  00  00
00  00  00  00  07
00  00  00  00  07
00  00  00  00  00
00  00  00  00  00
00  00  00  00  03
00  00  00  00  02
07  01  05  01  07
07  00  00  00  06
07  00  00  00  03
07  02  01  02  07
07  07  07  07  07
04  04  07  07  07
06  00  00  00  07
04  00  00  00  04
07  00  00  00  06
07  00  00  00  04
07  07  02  01  01
07  07  00  00  00
07  00  00  00  00
07  00  00  00  00
00  00  00  00  00
00  00  00  00  00
00  00  00  00  00
00  00  00  05  05
07  07  07  07  07
07  00  00  00  07
07  00  00  00  07
07  00  00  00  07
07  00  00  00  07
07  07  07  07  07
07  07  07  07  07
07  07  07  07  07
00  00  00  00  00
00  00  00  00  00
00  00  00  00  00
00  00  00  00  04
01  01  03  04  04
01  00  03  02  02
00  00  00  00  00
00  00  00  00  00
00  00  00  00  00
00  00  00  00  00
00  00  04  03  03
00  00  00  00  00
00  00  00  00  00
01  00  00  00  00
00  00  00  00  00
00  00  00  00  00
00  00  00  00  00
00  00  00  00  00
00  00  00  00  00
00  00  03  00  00
00  00  00  04  04
00  00  00  04  04
00  00  04  00  03
00  00  00  00  00
00  00  00  00  00
06  04  00  01  05
06  06  00  02  05
06  04  01  05  06
06  05  01  05  06
06  06  03  05  06
06  01  00  05  06
05  00  00  00  06
06  00  00  00  06
06  05  00  00  05
06  06  01  00  05
06  06  00  00  02
06  00  00  00  00
06  00  00  00  00
06  01  00  00  00
06  07  00  00  05
06  06  06  06  06
06  06  06  06  06
06  06  05  06  06
02  00  00  05  06
02  00  00  03  06
05  00  00  02  06
06  02  00  04  06
06  06  06  06  06
00  00  00  05  06
00  00  00  04  06
06  06  05  05  05
06  01  00  00  03
00  00  00  00  00
00  00  00  00  00
00  00  00  00  00
04  04  00  00  00
05  05  00  00  00
06  05  05  05  05
05  03  05  06  05
00  00  00  01  00
00  00  00  00  00
00  00  00  00  00
05  02  00  00  00
04  03  00  00  00
05  04  00  00  00
06  00  00  00  00
06  00  00  00  00
00  00  00  00  02
00  00  00  00  00
02  00  00  00  00
00  00  00  00  00
00  00  00  00  00
00  00  00  00  01
05  00  00  00  01
00  00  00  00  00
18  20  2a  1a  0d
3b  5f  7b  51  23
26  31  45  2f  1a
19  23  35  2b  1a
01  00  15  1f  1b
04  0b  1c  18  12
01  05  29  32  2f
08  10  24  1e  15
08  10  1c  14  0a
00  00  00  02  02
03  02  02  00  00
00  00  00  00  00
00  00  00  00  00
00  00  00  04  03
00  00  00  00  00
00  00  0b  16  15
03  01  0f  0e  0f
03  03  11  10  0f
00  00  06  23  21
05  08  04  0c  06
0f  16  0c  14  0a
00  00  07  0c  07
16  21  13  11  04
00  00  00  06  04
00  00  00  00  00
00  00  00  00  00
00  00  00  00  00
00  00  00  00  00
00  00  00  00  00
00  00  00  00  00
00  00  00  00  00
00  00  00  00  00
00  00  00  00  00
00  00  00  01  04
06  06  06  05  07
06  06  06  00  00
01  04  01  06  06
05  07  06  05  05
01  00  00  06  06
06  06  06  06  06
06  06  06  06  06
06  06  06  06  06
06  06  03  04  03
00  02  00  00  00
00  00  00  00  00
00  00  00  00  00
00  00  00  00  00
00  00  00  00  00
00  00  00  03  03
00  00  00  05  05
06  00  02  00  05
06  06  05  06  06
06  01  01  00  04
05  00  00  00  05
06  05  02  02  04
03  00  00  00  00
06  00  00  00  00
00  00  00  00  00
00  00  00  00  00
00  00  00  00  00
00  00  00  00  00
00  00  00  00  00
00  00  00  00  00
00  00  00  00  00
00  00  00  00  00
00  00  00  00  00
01  00  00  00  00
02  00  00  00  00
05  00  00  00  00
01  00  00  00  00
00  00  00  00  00
01  00  00  00  01
00  00  00  00  05
05  00  00  00  04
00  00  04  05  05
08  0f  04  03  00
13  20  09  09  00
08  13  04  06  00
00  00  00  00  00
00  00  00  00  00
00  00  00  00  00
00  00  00  00  00
00  00  00  00  00
06  08  00  00  00
00  00  00  00  00
0c  0e  00  00  00
00  00  00  00  00
03  05  00  00  00
01  02  00  00  00
0b  0d  00  00  00
1e  21  00  00  00
17  17  00  00  00
19  1b  00  00  00
0d  0f  00  00  00
00  00  00  00  00
00  00  00  00  00
00  00  00  00  00
00  00  00  00  00
00  00  00  00  00
00  00  00  00  00
05  07  0a  03  01
00  03  0c  0b  05
00  02  01  00  00
00  00  00  00  00
00  00  00  00  00
00  00  00  00  00
00  00  00  00  00
00  00  00  00  00
00  00  00  00  00
00  00  00  00  00
00  00  00  00  00
00  00  00  00  00
00  00  00  00  00
00  00  00  00  00
00  00  00  00  00
00  00  00  00  00
00  00  00  00  00
00  00  00  00  00
00  00  00  00  00
01  01  00  00  00
00  00  00  00  00
00  00  00  00  00
00  00  00  00  00
00  00  00  00  00
00  00  00  00  00
00  03  00  00  02
00  00  00  00  00
00  00  00  00  01
00  00  00  00  00
00  00  00  00  00
00  00  00  00  00
00  00  00  00  00
00  00  00  00  00
00  00  00  00  00
00  00  00  00  00
00  00  00  00  00
00  00  00  00  00
00  00  00  00  00
00  00  00  00  00
00  00  00  00  03
00  00  00  00  00
00  00  00  00  00
00  00  00  00  02
00  00  00  00  02
00  00  00  00  00
00  00  00  00  00
00  00  00  00  00
00  00  00  00  02
00  00  00  00  03
00  00  03  05  05
00  00  00  00  01
00  00  00  00  00
00  00  00  00  03
00  00  00  00  00
00  00  00  00  00
00  00  00  00  04
00  00  00  00  00
00  00  00  00  00
00  00  00  00  02
00  00  00  00  00
00  00  04  00  00
00  00  00  00  00
00  00  00  00  00
00  00  00  00  00
00  00  00  00  00
05  02  00  00  00
00  03  00  00  00
00  01  00  00  00
00  00  00  00  00
00  00  00  00  03
00  00  00  00  04
00  00  00  00  08
00  00  00  00  08
00  00  00  00  00
00  00  00  04  07
24  3d  4f  3e  2c
19  03  00  00  0a
18  00  00  00  00
0e  00  00  00  00
0e  00  00  00  00
22  1e  2f  2e  00
24  17  13  18  00
11  00  00  00  00
13  00  00  00  00
00  00  00  00  00
00  00  00  08  0d
00  00  07  0a  0c
0c  1a  28  1a  00
16  1f  21  17  00
06  00  00  00  00
00  00  00  00  00
02  00  00  00  00
17  14  1f  00  00
19  10  23  0f  0e
14  09  00  30  10
1e  1c  00  05  00
0c  00  00  00  00
00  00  00  00  00
00  00  00  00  00
00  00  00  00  00
00  00  00  00  00
00  00  00  00  00
00  00  00  00  00
00  00  00  00  00
00  00  00  00  00
00  00  00  00  00
00  00  00  00  00
00  00  00  00  00
00  00  00  00  00
00  00  00  00  00
00  00  00  00  01
00  00  00  00  00
00  00  00  00  00
00  00  00  00  00
00  02  05  0d  02
00  07  09  18  07
00  0e  11  23  0a
00  0a  0b  17  07
00  0c  09  07  00
04  08  05  00  00
00  02  00  00  00
00  00  00  00  00
00  00  00  00  00
00  00  00  00  00
00  00  00  00  00
00  00  00  00  00
00  00  00  00  00
00  00  00  00  00
00  00  00  00  00
00  00  00  00  00
02  03  09  00  00
00  00  00  00  00
00  00  05  03  05
00  00  00  00  00
00  00  00  00  00
00  00  00  00  00
00  00  00  00  00
00  00  00  00  00
00  00  00  00  00
00  00  00  00  00
00  00  00  00  00
00  00  00  00  00
00  00  00  00  00
00  00  12  15  15
00  00  04  0c  03
00  00  04  0c  04
00  00  07  0a  0b
00  00  01  01  00
00  00  05  04  08
00  00  00  00  00
00  00  00  00  00
00  00  00  00  00
00  00  00  00  00
00  00  00  00  00
00  00  00  00  00
00  00  00  00  00
00  00  00  00  00
00  00  00  00  00
01  00  00  00  02
00  00  00  01  00
06  06  03  03  03
06  06  00  00  00
06  06  02  04  02
06  06  00  00  00
06  06  03  03  02
06  06  03  03  03
06  06  06  06  06
06  06  06  06  06
00  00  00  00  00
00  00  00  00  00
00  00  00  00  00
00  00  00  00  00
00  00  00  04  06
06  06  00  00  00
06  06  08  08  08
09  09  09  09  09
09  09  09  09  09
09  09  09  09  09
09  09  09  09  09
09  09  09  09  09
07  07  09  09  09
08  08  09  09  09
08  07  09  09  09
09  09  09  09  09
09  09  09  09  09
09  09  07  06  06
09  09  07  07  07
08  08  08  07  06
00  00  09  09  09
00  00  09  09  09
00  00  07  07  09
00  00  02  02  09
09  06  04  04  09
09  07  04  03  09
09  09  09  09  09
09  09  09  09  09
09  09  09  06  05
05  06  09  07  06
00  00  09  08  06
00  01  09  09  09
00  00  00  00  00
00  00  00  00  00
00  00  00  00  00
00  00  00  00  00
00  00  00  00  00
00  00  00  00  00
00  00  00  00  00
00  00  00  00  00
00  00  00  00  00
00  00  00  00  00
00  00  00  00  00
00  00  00  00  00
00  00  00  00  00
00  00  00  00  03
00  00  00  00  00
00  00  00  00  00
00  00  00  00  00
00  00  00  00  00
00  00  00  00  00
00  00  00  00  00
00  00  00  00  00
00  00  00  00  00
00  00  00  00  00
00  00  00  00  00
00  00  00  00  00
05  03  00  05  04
04  00  00  05  03
04  00  00  04  02
04  00  00  02  03
00  00  00  00  00
00  00  00  00  00
00  00  00  00  00
02  00  00  00  00
02  00  00  00  00
04  00  00  04  03
05  05  05  04  03
05  05  06  00  00
05  05  03  00  00
05  03  00  00  00
04  00  00  00  00
04  00  00  05  05
05  04  04  04  04
05  05  05  03  01
05  05  05  01  00
05  05  03  00  00
05  03  02  00  00
04  00  00  00  00
00  00  00  00  00
00  00  00  02  00
00  00  00  01  00
00  03  03  00  00
00  02  00  00  00
04  03  00  00  00
07  07  00  00  00
00  00  00  00  00
00  00  00  00  00
00  00  00  00  00
00  00  00  00  00
00  00  00  00  00
00  00  00  01  00
00  00  06  05  06
00  00  00  00  03
06  07  02  00  02
07  06  03  00  00
08  07  07  00  00
09  09  03  00  00
0a  0a  00  00  00
00  02  00  00  00
00  00  00  00  00
00  00  00  00  00
00  00  00  00  00
00  00  00  00  00
00  00  00  00  00
00  00  00  00  00
00  00  00  00  00
05  10  0f  14  02
0b  1e  1f  18  03
15  27  2a  1e  0b
07  0f  11  0c  03
0a  13  14  08  00
16  13  17  05  02
20  20  2e  0c  06
1a  20  24  08  04
18  2c  2f  29  12
00  06  0b  17  0c
00  0d  20  26  1c
00  00  19  1a  1e
00  00  13  10  0f
10  1c  32  33  1e
0f  1e  20  1f  0c
0b  23  25  2a  13
01  0d  0b  0b  01
06  0a  0b  00  00
0b  0c  1a  05  02
1e  2f  5d  33  24
1b  41  64  43  23
0f  38  5d  56  26
11  42  50  45  13
08  1e  35  3a  21
05  18  24  1e  0f
00  00  00  00  00
00  00  00  00  00
00  00  00  00  00
00  00  00  00  01
00  00  00  00  02
00  00  00  0c  10
00  00  15  1a  0a
00  00  0e  07  01
00  00  00  00  00
00  00  11  00  00
00  00  0e  00  06
00  00  00  00  00
00  00  00  00  00
00  00  00  00  00
00  00  00  00  00
00  00  00  00  00
00  00  00  00  00
00  00  00  00  00
00  00  00  00  00
00  00  00  00  00
00  00  00  00  00
00  00  00  00  00
00  00  04  0d  0d
00  00  15  28  18
01  0d  1b  12  03
00  00  00  00  00
00  00  00  00  00
00  00  00  00  00
00  00  00  00  00
00  00  00  00  00
00  00  00  00  00
00  00  00  00  00
00  00  00  00  00
00  00  00  00  00
00  00  00  00  00
00  00  00  00  00
00  00  00  00  00
00  00  00  00  00
00  00  00  00  00
00  00  00  00  00
00  00  00  00  00
00  00  00  00  00
00  00  00  00  00
00  00  00  00  00
00  00  00  00  00
00  00  00  00  00
00  00  00  00  00
00  00  00  00  00
00  00  00  00  00
00  00  00  00  00
00  00  02  08  08
00  00  05  10  12
00  00  02  08  08
00  00  04  0b  09
00  00  00  09  0a
00  00  0f  23  25
00  00  01  11  14
00  00  03  1a  1e
00  00  00  00  00
02  02  00  00  01
01  00  00  00  00
05  08  07  00  00
00  00  00  05  07
00  00  00  01  01
00  00  00  00  00
00  00  00  00  00
00  00  00  00  00
00  00  00  00  00
00  00  00  04  06
00  00  00  00  00
00  00  00  08  0c
00  00  02  04  02
00  00  00  00  00
00  00  05  10  10
00  00  00  00  00
00  00  00  00  00
00  00  00  00  00
00  00  00  00  00
00  00  00  00  00
00  00  00  00  00
00  00  00  00  00
00  00  00  00  00
00  00  00  00  00
05  04  00  00  00
05  05  03  00  00
06  04  00  01  06
03  05  00  00  00
10  0e  02  0f  14
12  0f  00  00  00
27  1e  03  09  05
10  0a  00  00  00
0f  0a  00  00  00
00  00  00  00  00
00  00  00  00  00
00  00  00  00  00
00  00  00  00  00
00  00  00  00  00
00  00  00  00  00
00  00  00  00  00
00  00  00  00  00
01  00  00  00  01
00  00  00  00  01
00  00  00  00  00
00  00  00  00  04
00  00  04  00  0e
00  00  1d  00  1a
00  00  2a  00  15
03  00  27  00  09
07  00  1b  00  00
04  00  08  00  07
0b  00  00  00  1a
0c  00  00  00  17
07  00  00  00  1a
00  00  00  00  0b
00  00  00  00  00
02  00  00  00  00
02  00  00  00  00
00  00  02  00  04
01  00  0d  00  02
01  00  15  00  01
00  00  12  00  00
00  00  14  00  00
00  00  13  00  00
00  00  0b  00  03
00  00  01  00  03
01  00  04  00  00
00  00  00  00  00
00  00  03  00  00
00  00  00  00  00
00  00  00  00  00
00  00  00  00  00
00  00  00  00  00
00  01  00  00  00
0a  0a  06  00  00
0a  0f  00  00  00
0b  0b  05  00  00
07  09  00  00  00
00  01  00  00  00
16  1d  00  00  00
0a  0b  00  00  00
17  1a  00  00  00
02  03  00  00  00
00  00  00  00  00
00  00  00  00  00
00  00  00  00  00
00  00  00  00  00
00  00  00  00  00
00  00  00  00  00
00  00  00  00  00
00  00  00  00  00
00  00  00  00  00
00  00  00  00  00
00  00  00  00  00
00  00  00  00  00
00  00  00  00  00
00  00  00  00  00
00  00  00  00  00
00  00  00  00  00
00  00  00  00  00
00  00  00  00  00
00  00  00  00  00
00  00  00  00  00
00  00  00  00  00
00  00  00  00  00
00  00  00  00  00
00  00  00  00  00
00  00  00  00  00
00  00  00  00  00
00  00  00  00  00
00  00  00  00  00
00  00  00  00  00
00  00  00  00  00
00  00  00  00  00
00  00  00  00  00
00  00  00  00  00
00  00  00  00  00
00  00  00  00  00
00  00  00  00  00
00  00  00  00  00
00  00  00  00  00
00  00  00  00  00
00  00  00  01  00
00  00  00  00  00
00  00  00  01  01
00  00  00  00  00
00  00  00  00  00
00  00  00  00  00
00  00  00  00  00
00  00  00  00  00
00  00  00  00  00
00  00  00  00  00
00  00  00  00  00
00  00  00  00  00
00  00  00  00  00
00  00  00  00  00
00  00  00  00  00
00  00  00  00  00
00  00  00  00  00
00  00  00  02  01
00  00  00  00  00
00  00  00  00  00
00  00  00  00  00
00  00  00  00  00
00  00  00  00  00
00  00  00  00  00
00  00  00  00  00
00  00  00  00  00
00  00  00  00  00
00  00  00  00  00
00  00  00  00  00
00  00  00  00  00
00  00  05  08  07
00  00  09  0b  08
0f  0c  10  11  10
00  00  06  08  09
0d  10  01  02  03
00  00  00  00  00
00  00  00  00  00
00  00  00  00  00
00  00  00  00  00
00  00  00  00  00
00  00  00  00  00
00  00  00  00  00
0b  09  00  00  00
00  00  00  00  00
00  00  00  00  00
00  00  00  00  00
00  00  00  00  00
00  00  00  00  00
00  00  00  00  00
00  00  00  00  00
00  00  00  00  00
00  00  00  00  00
00  00  00  00  00
00  00  00  00  00
00  00  00  00  00
00  00  00  00  00
00  00  00  00  00
00  00  00  00  00
00  00  00  00  00
00  00  00  00  00
00  07  05  08  00
00  00  00  00  00
00  05  04  08  00
0c  10  00  00  00
00  00  00  00  00
0a  10  00  00  00
00  00  00  00  00
00  00  00  00  00
00  00  00  00  00
00  00  00  00  00
00  00  00  00  00
00  00  00  00  00
00  00  00  00  00
00  00  00  00  00
00  00  00  00  00
00  00  00  00  00
00  00  00  00  00
00  00  00  00  00
00  00  00  00  00
00  00  00  00  00
00  00  00  00  00
00  00  00  00  00
00  00  00  00  00
00  00  00  00  00
00  00  00  00  00
00  00  00  00  00
00  00  00  00  00
00  00  00  00  00
00  00  00  00  00
00  00  00  00  00
00  00  00  00  00
00  00  00  00  00
00  00  00  00  01
00  00  00  00  00
00  00  00  00  00
00  00  00  00  00
00  00  00  00  00
00  00  00  00  00
00  00  00  00  00
00  00  00  00  00
00  00  00  00  00
00  00  00  00  00
00  00  00  00  00
00  00  00  00  00
00  00  00  00  00
00  00  00  00  00
00  00  00  00  00
00  00  00  00  00
00  00  00  00  00
00  00  00  00  00
00  00  00  00  00
00  00  00  00  00
00  00  00  00  00
00  00  00  00  00
00  00  00  00  00
00  00  00  00  00
00  00  00  00  00
00  00  00  00  00
00  00  00  00  00
00  00  00  07  07
08  07  05  07  07
05  03  02  07  07
00  00  02  07  07
00  00  07  07  07
00  00  00  07  07
00  00  00  07  07
00  00  00  07  07
0a  08  06  07  07
07  07  07  07  07
07  07  07  07  07
07  07  07  07  07
07  06  05  05  07
03  00  00  02  04
00  00  00  03  04
09  08  07  08  08
07  07  07  07  07
07  07  07  07  07
07  07  07  07  07
07  07  07  07  07
07  07  07  06  05
07  07  07  05  05
07  07  07  08  08
07  07  07  07  07
07  07  07  07  07
00  00  00  00  00
00  00  00  00  00
00  00  00  00  00
00  00  00  00  00
00  00  00  00  00
00  00  00  00  00
00  00  00  00  00
00  00  00  03  0a
00  00  00  00  00
00  00  00  03  07
00  00  00  0b  10
00  00  00  00  00
00  00  00  03  07
00  00  00  00  00
03  08  04  00  01
00  03  02  03  0b
01  05  00  02  0b
00  01  00  02  08
00  00  00  00  02
00  00  00  00  00
00  00  00  00  00
00  00  00  08  08
00  00  00  00  00
00  00  00  07  06
00  00  00  00  00
00  00  00  00  00
00  00  00  00  00
00  00  00  00  00
00  00  00  00  00
00  00  00  00  00
00  00  00  00  00
00  00  00  00  00
00  00  00  00  00
00  00  00  00  00
01  00  00  00  00
00  00  00  00  00
00  00  00  00  00
00  00  00  00  00
00  00  00  00  00
00  00  00  00  00
01  00  00  00  00
07  00  00  00  00
00  00  00  00  00
00  00  00  00  00
00  00  00  00  00
00  00  00  00  00
00  00  00  00  00
00  00  00  00  00
00  00  00  00  00
00  00  00  03  01
00  00  00  00  00
00  00  00  00  00
03  00  00  00  03
02  00  03  00  0d
00  00  00  00  00
00  00  00  00  00
00  00  00  00  00
00  00  00  00  00
00  00  00  00  00
00  00  00  00  00
00  00  00  00  00
03  00  00  00  00
00  00  00  00  00
00  00  00  00  00
00  00  00  00  00
00  00  00  00  00
00  00  00  00  00
00  00  00  00  00
00  00  00  00  00
00  00  00  00  00
00  00  00  00  00
00  00  00  00  00
05  00  00  00  00
0c  00  03  00  05
06  00  09  00  0a
00  00  01  00  00
01  02  05  00  00
00  00  00  01  03
00  00  00  00  00
00  00  02  02  02
00  00  00  00  00
00  00  02  03  05
00  00  00  00  00
00  00  00  00  00
00  00  00  00  00
00  00  00  00  00
00  00  00  00  00
00  00  00  00  00
00  00  00  00  00
00  00  00  00  00
00  00  00  00  00
00  00  00  00  00
00  00  00  00  00
00  00  00  00  00
00  00  00  00  00
00  00  00  00  00
00  00  00  00  00
00  00  00  00  00
00  00  00  00  00
00  00  00  00  00
00  00  00  00  00
00  00  00  00  00
00  00  00  00  00
00  00  00  00  00
00  00  00  00  00
00  04  00  00  00
00  00  00  00  00
03  04  00  00  00
00  00  02  07  00
00  00  00  07  02
00  0b  0f  17  0a
05  0b  11  10  0d
18  1d  0b  0e  11
2a  3e  1f  14  00
20  3a  1a  23  05
1a  40  1b  20  00
01  1e  13  19  00
00  01  01  02  00
00  00  00  00  00
00  00  00  00  00
00  00  00  00  00
00  00  00  00  00
03  08  00  00  00
0f  19  00  00  00
0f  10  00  00  00
06  06  06  06  06
06  06  06  06  06
06  06  06  06  06
06  06  06  06  06
06  06  06  06  06
06  06  06  06  06
06  06  06  06  06
06  06  04  06  05
06  06  00  03  02
06  06  00  00  03
06  05  00  00  04
06  05  06  05  06
06  05  00  00  00
06  06  00  00  00
06  06  00  00  00
06  06  00  00  00
06  06  06  06  06
06  06  06  06  06
06  06  06  06  06
06  06  06  06  06
06  06  06  06  06
06  06  06  06  06
06  06  03  00  02
06  06  00  00  00
06  06  00  00  00
00  00  00  00  00
00  00  00  00  00
00  00  00  00  00
00  00  00  00  00
00  00  00  00  00
00  00  00  00  00
00  00  00  00  00
00  00  00  00  00
00  00  00  00  00
00  00  00  00  00
00  00  00  00  00
00  00  00  00  00
00  00  00  00  00
00  00  00  00  00
01  03  00  00  00
00  00  00  00  00
0a  0e  00  00  00
00  00  00  00  00
00  00  00  00  00
00  00  00  00  00
00  00  00  00  00
00  00  00  00  00
00  00  00  00  00
00  00  00  00  00
00  00  00  00  00
06  00  00  08  06
06  00  00  09  06
06  00  00  08  06
06  00  02  07  06
06  06  06  06  06
06  00  00  08  06
06  00  00  0a  06
06  00  00  0a  06
06  00  00  06  06
06  06  06  06  06
06  06  06  06  06
06  06  06  06  06
06  06  06  06  06
01  04  07  06  06
04  04  07  06  06
02  03  07  06  06
06  06  06  06  06
06  06  06  06  06
06  06  06  06  06
06  06  06  06  06
06  06  06  06  06
06  06  06  03  05
06  06  06  00  00
00  00  00  00  00
00  00  03  00  00
00  00  00  00  00
00  00  00  00  00
00  00  00  00  00
00  00  00  00  00
00  00  00  00  00
00  00  00  00  00
00  00  00  00  00
00  00  00  00  00
00  00  00  00  00
00  00  00  00  00
00  00  00  00  00
00  00  00  00  00
00  00  00  00  00
00  00  00  00  00
00  00  00  00  00
00  00  00  00  00
00  00  00  00  00
00  00  00  00  00
00  00  00  00  00
00  00  00  00  00
00  00  00  00  00
00  00  00  00  00
00  00  00  00  00
00  00  00  00  00
00  00  00  00  00
00  00  00  05  06
04  06  05  00  00
00  00  00  05  04
00  00  10  0f  0e
00  00  04  06  05
00  00  0f  0f  0e
00  00  04  04  04
04  04  00  00  00
06  05  00  00  00
19  19  22  1e  1d
05  04  1c  20  1d
10  2b  4a  41  1e
05  11  2a  23  16
00  1b  1a  21  06
0f  20  36  31  22
04  08  13  14  11
0a  15  43  40  32
03  06  1e  19  14
00  02  13  13  0c
00  00  07  07  05
00  00  00  00  00
00  00  00  02  01
00  00  00  00  00
00  00  00  00  00
00  00  00  00  00
04  04  01  04  04
04  02  00  00  00
01  02  00  00  00
03  04  00  00  00
00  00  00  00  00
00  00  00  00  00
00  00  00  00  00
09  09  01  01  00
09  09  01  00  00
09  09  09  02  03
09  09  09  04  03
09  09  09  05  04
07  08  08  09  09
00  00  00  03  03
02  01  00  05  03
01  00  00  02  02
09  09  05  06  06
09  09  07  07  06
09  09  06  05  05
09  09  09  09  09
06  06  00  00  00
04  05  00  00  00
00  00  00  00  00
00  00  00  00  00
00  00  00  00  00
00  00  00  00  00
00  00  00  00  00
00  00  00  00  00
00  00  00  00  00
00  00  00  00  00
00  00  00  00  00
00  00  00  00  00
00  00  00  00  00
00  00  00  0d  04
00  00  00  10  12
00  02  0a  30  29
00  00  02  1b  1b
00  00  03  1d  1d
00  00  00  00  00
00  00  00  00  00
00  00  00  00  00
00  00  00  00  00
00  00  00  00  00
00  00  00  00  00
00  00  00  00  00
00  00  00  00  00
00  00  00  00  00
00  01  01  02  00
00  08  00  00  00
00  00  00  00  00
0a  0a  0a  0a  0a
0a  0a  09  08  07
02  00  00  00  00
02  00  00  00  00
00  00  00  00  00
00  00  00  06  06
00  00  00  09  09
09  07  08  0a  0a
0a  0a  0a  0a  0a
0a  0a  0a  0a  0a
0a  0a  0a  0a  0a
0a  0a  0a  0a  0a
0a  0a  0a  0a  0a
07  04  04  0a  0a
07  05  05  0a  0a
06  03  05  0a  0a
09  09  0a  0a  0a
09  09  0a  0a  0a
0a  0a  0a  0a  0a
09  09  08  0a  0a
00  00  00  06  05
00  00  00  06  06
00  00  00  05  05
00  00  00  09  09
00  00  00  09  09
00  00  00  00  00
00  00  00  00  00
00  00  00  00  00
00  00  00  00  00
00  00  00  00  00
00  00  00  00  00
00  00  00  00  00
00  00  00  00  00
00  00  00  00  00
01  00  00  00  00
00  00  00  00  00
00  00  00  00  00
00  00  00  00  00
00  00  00  00  00
00  00  00  00  00
00  00  00  00  00
00  00  00  00  00
00  00  00  00  00
00  00  00  00  00
00  00  00  00  00
00  00  00  00  00
00  00  00  00  00
04  00  00  00  00
05  00  00  00  00
04  00  00  00  00
02  00  00  00  00
00  00  00  00  00
00  00  00  00  00
00  00  00  00  00
00  00  00  00  00
00  00  00  00  00
00  00  00  00  00
00  00  00  00  00
00  00  00  00  00
00  00  00  00  00
00  00  00  00  00
00  00  00  00  00
00  00  00  00  00
00  00  00  00  00
00  00  00  00  00
00  00  00  00  00
00  00  00  00  00
00  00  00  00  00
00  00  00  00  00
00  00  00  00  00
00  00  00  00  02
00  00  00  00  06
00  00  00  00  03
00  00  00  00  06
00  00  03  02  06
00  00  00  00  00
00  00  00  00  00
00  00  00  00  00
00  00  00  00  00
00  00  00  00  00
00  00  00  00  00
00  00  00  00  00
00  00  00  00  00
00  00  00  00  00
0a  0b  07  00  00
1d  1e  18  03  02
1a  1d  0f  00  00
1b  1b  13  01  00
00  00  00  00  00
00  03  01  05  00
00  00  00  00  00
00  03  02  05  00
01  00  04  00  00
0a  09  0f  00  00
07  07  09  00  00
08  06  0b  04  03
02  0b  07  13  0b
00  0b  08  1a  05
03  14  10  14  02
00  07  05  09  00
00  00  00  00  02
00  00  00  00  00
00  00  00  00  00
00  00  00  00  00
00  00  00  00  05
00  00  00  00  01
02  02  06  06  06
00  00  06  06  06
01  00  04  03  04
02  00  00  00  00
04  03  00  00  00
06  06  02  00  00
06  06  00  00  00
06  06  06  02  02
06  03  03  03  06
06  00  00  00  05
03  00  00  00  07
07  00  00  00  05
00  00  00  00  06
00  00  00  00  06
00  00  00  00  04
00  00  00  00  05
00  00  00  03  05
00  00  06  04  05
02  00  05  04  06
00  00  00  00  05
00  00  00  00  02
00  00  00  00  04
00  00  01  07  06
04  04  07  07  07
05  05  07  07  07
03  03  07  07  07
02  02  07  07  07
04  05  06  07  07
05  04  07  07  07
06  06  05  00  00
06  05  02  00  00
03  02  00  00  00
00  00  03  00  00
00  00  00  00  00
00  00  00  00  02
00  00  0a  07  08
00  00  00  05  04
06  06  07  07  07
00  00  03  07  07
07  02  00  00  07
00  00  04  09  07
07  01  01  00  07
07  07  07  07  07
07  07  07  07  07
