12  00  0d  05  00
19  00  17  00  00
07  00  00  00  00
00  00  00  00  00
00  00  00  00  00
04  00  00  00  00
0d  00  00  00  00
00  00  00  00  00
00  00  00  00  00
00  00  00  00  00
00  00  00  00  00
00  00  00  00  05
00  00  00  00  00
00  00  00  00  00
00  00  00  00  00
00  00  00  00  00
03  00  00  00  00
00  00  00  00  00
00  00  00  00  00
00  00  00  00  00
00  00  00  00  00
00  00  00  00  00
00  00  00  00  00
00  00  00  00  00
01  00  00  00  02
19  40  24  26  00
06  0f  3f  43  00
13  55  2a  31  00
39  34  00  00  00
1f  00  00  1e  00
3e  00  35  00  00
02  18  10  00  00
15  00  05  00  00
00  00  00  00  10
00  00  00  00  00
00  00  00  00  00
00  00  00  00  17
00  00  00  00  10
00  00  02  00  00
00  00  00  00  00
00  00  00  00  00
00  00  00  00  00
00  00  00  00  00
00  00  00  00  00
00  00  05  00  00
00  00  38  00  00
00  02  00  00  00
13  00  00  00  00
40  07  00  00  00
23  21  00  29  20
15  00  0c  00  1b
1c  3c  45  1d  1c
1e  02  35  17  00
0d  00  2d  0d  00
15  14  4b  04  04
13  4b  25  23  12
52  00  1c  41  1a
21  32  3d  5f  11
6c  7f  30  7f  2a
60  36  40  32  00
5f  6c  30  3a  2c
25  6a  0b  1c  2e
25  44  45  62  28
58  1b  1a  7f  47
22  00  44  37  1d
1d  2b  22  4d  49
15  35  2f  51  5a
38  3a  55  7f  52
3a  23  45  5f  27
60  2d  3b  13  06
28  1c  23  00  00
28  00  38  05  00
51  7a  7f  2e  05
56  45  30  38  24
34  00  43  36  26
00  00  00  00  00
00  00  00  00  00
00  13  00  00  00
14  25  15  00  00
17  2a  1c  05  00
12  48  1c  02  00
00  4a  1d  02  00
00  16  34  00  00
00  00  28  00  00
00  00  33  00  02
00  00  1e  11  00
00  00  00  1b  00
00  0f  10  22  00
18  12  01  00  00
0e  00  00  00  0e
05  03  00  0a  00
00  00  04  06  00
00  00  00  18  00
00  0d  0d  23  00
00  2d  13  46  00
00  15  10  3a  00
07  10  26  00  00
1a  40  13  00  00
16  29  00  00  00
1f  00  0a  00  00
00  00  11  00  00
00  00  00  00  00
00  00  00  00  00
00  00  00  00  00
00  00  00  00  00
00  00  00  00  00
00  00  00  00  00
00  00  00  16  00
00  00  00  05  00
00  00  00  00  00
00  00  00  00  0b
00  00  00  00  12
00  00  00  00  00
00  00  00  00  00
00  00  00  00  00
00  00  00  00  00
00  00  00  00  00
00  00  00  00  00
00  00  00  00  00
00  00  00  00  00
00  00  00  00  00
00  00  00  00  00
00  00  00  00  00
00  00  00  00  00
00  00  00  0f  00
00  00  00  00  00
00  00  10  00  00
00  00  19  00  00
00  09  0b  00  04
00  00  00  16  00
00  00  0a  0c  00
08  00  00  00  00
00  00  00  00  00
00  00  00  00  00
00  00  00  00  00
00  00  00  00  00
00  00  00  08  00
00  00  00  00  00
00  00  00  00  00
00  00  00  00  00
00  00  13  00  00
00  00  10  00  00
00  00  1b  00  00
00  10  00  00  00
00  10  00  00  00
1e  00  06  00  00
1d  00  00  00  00
0e  00  00  09  00
17  00  00  00  00
10  00  00  00  00
09  00  00  00  00
27  00  00  00  00
0c  2d  23  0d  00
0a  50  36  30  14
18  2d  04  09  00
18  11  2b  0d  00
09  1b  2a  00  00
05  0a  00  00  00
00  00  00  00  00
02  00  00  00  00
00  00  00  00  00
00  11  00  1a  00
00  35  0c  00  00
00  33  1d  00  00
3a  29  00  00  00
20  1a  00  00  00
39  00  00  00  00
21  00  00  00  00
01  09  00  00  00
00  00  00  00  00
00  00  00  00  00
00  09  00  00  07
00  24  00  00  00
00  2a  14  00  00
1d  31  03  00  00
00  00  00  00  04
09  00  00  00  00
00  00  00  00  00
00  00  00  00  00
00  00  00  00  00
00  00  00  00  00
00  00  00  00  00
00  00  09  00  17
00  00  00  02  40
00  00  00  3b  00
06  00  00  08  00
00  00  00  00  0e
00  00  00  00  29
00  00  00  00  1d
00  02  00  00  11
00  2b  38  00  28
00  00  2b  00  1e
00  00  00  00  15
00  00  00  00  00
00  00  00  00  00
00  00  00  0c  00
00  00  00  00  0b
00  00  00  00  1e
00  00  00  00  10
00  00  00  18  05
27  38  0b  11  00
30  4e  1e  40  00
2b  57  1d  3e  00
1c  27  1b  32  04
06  1d  00  38  00
07  0f  00  22  00
19  34  00  10  00
13  27  18  00  00
26  19  13  13  27
1f  37  0a  5a  0e
19  2a  29  51  0f
16  16  3c  43  10
09  09  26  2c  1e
07  00  51  3c  3b
0d  00  5c  0c  4d
05  00  71  17  23
00  29  34  48  1c
2e  41  30  39  2e
3d  53  31  2c  0b
28  6c  2a  20  00
19  3b  59  1d  00
2e  20  47  0d  07
30  10  36  0f  05
08  26  24  00  00
00  07  01  12  05
00  00  00  00  00
00  00  00  00  00
00  00  0c  00  00
00  03  00  00  00
00  00  00  00  00
00  00  00  00  00
00  00  00  00  00
00  00  00  00  00
00  00  00  00  23
00  00  10  00  26
00  00  00  00  39
00  00  00  00  2c
00  00  00  00  0d
00  00  00  00  00
00  00  00  00  00
00  00  00  00  00
00  00  00  00  00
00  14  00  00  00
00  00  00  00  00
00  00  00  00  00
00  05  00  00  00
00  00  00  00  0c
00  00  00  00  21
00  00  2f  00  00
1a  1f  0c  00  00
00  00  00  00  00
00  00  00  00  00
00  00  00  00  00
00  00  00  00  00
00  00  00  00  00
00  00  00  00  00
00  00  00  00  00
04  00  17  00  00
00  00  00  00  00
00  00  00  00  00
00  00  00  00  00
00  00  00  00  00
00  00  00  00  00
00  00  00  00  00
1b  00  00  00  00
12  00  00  00  00
00  00  00  00  00
00  00  00  00  00
00  00  00  00  00
00  00  00  00  00
00  00  00  00  00
00  00  00  00  00
00  00  00  00  00
00  00  00  00  00
00  00  00  15  00
00  00  3a  00  00
00  00  30  00  00
00  00  0c  0e  00
00  00  00  14  00
00  00  10  00  00
0b  77  54  00  00
00  00  59  03  00
03  00  58  36  00
00  06  00  41  00
0b  00  00  00  00
00  00  00  00  00
00  00  00  00  0f
00  00  00  28  0f
0a  00  00  49  00
08  00  00  11  00
00  00  00  00  00
00  00  00  00  00
00  00  00  00  00
00  00  00  00  00
00  00  01  19  00
00  00  00  00  00
00  00  00  00  00
00  36  00  00  00
00  00  00  05  00
11  00  00  00  00
00  2d  00  00  00
00  16  23  00  00
09  2e  1b  00  00
11  2a  28  00  00
2d  4d  3c  00  00
2c  2d  2b  00  00
1d  34  2e  00  00
1d  3b  00  00  00
0d  15  1a  00  00
00  3c  00  00  00
00  0b  00  22  00
00  05  00  37  00
0c  00  0f  00  0a
00  0a  2b  00  00
00  32  00  00  00
12  53  05  2f  28
00  69  1b  0e  2b
00  29  4d  00  00
00  18  2c  00  00
00  1c  15  00  00
25  2e  40  00  00
1f  45  4d  00  2b
15  1b  3f  00  28
00  00  13  00  00
00  00  00  00  00
00  00  26  11  00
00  00  13  00  00
00  00  00  00  00
00  00  00  00  00
00  00  00  00  00
09  00  00  00  00
00  00  15  00  00
00  00  36  00  09
00  00  00  00  00
00  00  00  00  00
00  00  00  11  00
00  00  00  2a  03
00  00  25  2a  22
00  00  43  3c  1c
0e  0d  2d  2d  00
08  22  00  07  00
00  00  00  00  00
00  00  00  00  00
00  00  00  00  00
00  00  1d  00  00
00  00  1a  00  00
00  00  00  00  00
00  00  00  00  00
00  00  00  00  00
00  00  00  00  00
17  00  3b  1d  13
33  00  55  00  0f
25  00  1d  00  00
07  00  00  00  00
00  00  00  00  00
07  00  00  06  00
2d  00  08  00  00
05  00  3d  2a  00
39  00  00  32  0b
46  00  00  00  00
29  00  00  00  00
24  00  00  02  09
08  00  0f  46  22
03  00  20  53  29
00  00  58  09  0b
00  18  0e  00  00
00  00  00  1d  03
13  00  00  18  1f
39  00  00  00  13
3a  00  00  00  00
1b  10  00  00  00
39  00  00  00  00
17  00  00  00  00
2b  00  00  00  21
07  00  00  26  33
00  00  10  07  00
00  00  04  00  00
00  00  00  00  00
00  00  0b  00  00
00  00  00  00  00
00  00  00  00  00
00  00  1f  00  00
00  04  32  00  00
00  00  09  08  00
00  00  00  00  00
00  00  00  13  00
00  00  00  2b  00
00  00  3e  4b  00
00  00  3d  11  00
00  00  00  00  00
00  00  00  00  00
00  00  00  00  00
00  00  00  00  00
00  00  03  00  00
00  17  13  00  00
00  0e  17  00  00
00  00  00  00  00
00  00  00  00  00
00  00  00  00  00
0a  15  15  00  00
00  02  05  02  00
00  15  1c  12  00
00  21  12  1c  00
03  0b  1f  13  00
00  03  00  2f  00
00  00  00  15  00
00  00  00  00  00
00  02  00  00  00
00  13  00  00  00
00  18  0e  34  17
00  11  07  54  2c
00  00  0a  43  00
00  02  08  34  10
00  00  09  26  37
00  00  18  37  30
00  00  3a  15  00
00  17  39  06  00
00  24  3b  10  00
00  0d  32  1e  00
0b  38  1d  13  00
12  43  4d  27  00
0e  1e  49  0b  00
00  00  22  07  00
02  1a  21  18  00
00  0c  19  1f  0a
0a  58  58  2f  0e
0f  4d  31  32  17
00  4e  23  20  23
00  13  00  00  13
00  00  00  06  16
01  00  00  41  26
04  20  19  2d  0a
00  16  16  1d  11
00  00  00  07  10
00  15  00  00  00
00  00  00  00  00
06  00  00  00  00
00  00  00  00  00
00  00  00  00  00
00  00  00  00  25
00  18  00  00  00
00  08  00  31  02
00  00  00  20  30
18  00  00  00  0c
00  00  00  00  23
00  0a  07  15  12
24  26  1c  00  13
00  00  00  00  00
00  00  00  00  0e
00  00  00  18  13
03  0c  20  11  07
00  2f  3d  2a  04
00  7e  4c  41  27
0c  7f  2b  49  28
0d  68  3e  57  36
17  48  28  23  30
00  5d  00  10  00
00  33  00  00  00
00  01  00  00  00
00  00  00  00  19
00  00  00  00  00
00  00  00  00  03
00  17  00  00  00
00  00  00  00  00
00  00  00  00  00
00  00  00  00  00
00  00  00  00  00
00  00  00  00  00
00  00  00  11  00
00  28  01  62  17
00  49  2a  31  28
00  7f  10  1d  19
00  3c  00  09  00
09  2f  00  03  00
0a  2f  00  00  00
00  00  00  00  00
00  00  17  00  08
00  00  00  00  00
00  00  00  00  00
05  00  21  05  00
00  00  06  08  00
00  06  21  1a  00
00  00  34  1a  00
53  0e  56  34  01
31  2c  57  13  00
38  3f  7b  42  00
14  00  53  2e  00
2b  00  65  2a  25
43  25  5c  40  41
29  08  27  67  20
13  02  21  7f  1c
00  08  38  35  19
00  00  65  3f  05
00  08  74  65  16
04  00  2d  31  00
13  00  01  13  00
1c  00  1e  00  00
00  00  26  00  00
19  00  02  04  00
00  00  08  00  0c
34  00  29  00  00
26  00  1d  00  00
0d  00  00  00  00
00  00  00  00  00
00  00  00  00  00
00  00  00  00  00
00  00  00  00  00
0b  00  00  00  00
03  00  00  00  00
15  00  00  00  00
0f  00  00  00  00
1a  00  00  00  09
00  00  00  00  00
00  00  00  00  00
14  00  00  00  00
2c  00  00  00  00
46  00  00  00  00
1f  00  00  00  00
09  00  00  00  00
12  00  00  00  00
06  00  00  00  00
00  00  00  00  00
00  00  00  00  00
00  00  00  00  00
00  00  00  00  00
03  00  14  1f  0c
00  1d  00  00  00
00  00  00  00  00
00  00  00  00  04
00  00  00  00  00
00  11  00  00  00
0a  00  00  00  00
00  00  00  00  00
00  00  00  00  00
00  00  00  00  00
00  00  00  00  00
00  00  00  00  00
00  00  00  00  00
00  00  00  00  00
00  00  00  00  00
00  00  00  00  00
00  00  00  00  00
00  00  00  00  00
00  00  00  00  00
0f  00  00  00  00
0f  00  00  11  00
00  00  00  03  00
00  00  00  00  00
00  00  00  00  00
00  00  00  00  00
19  02  00  10  14
05  13  00  19  28
00  34  00  19  0f
0e  68  00  61  1b
07  49  23  5b  22
10  62  00  15  32
0c  5d  00  3c  37
06  1f  00  40  28
35  11  14  17  1f
3f  28  45  00  2a
13  5e  4c  59  2f
00  34  00  51  4e
08  55  02  1b  1d
46  34  00  20  00
33  02  0b  2a  00
1e  00  46  29  19
00  04  04  00  31
00  30  00  14  07
00  1e  00  56  06
00  1e  0f  60  26
05  23  0b  3f  19
13  40  1b  00  01
00  71  33  1c  00
09  26  00  00  00
00  00  00  00  00
3c  3c  2c  19  00
21  34  64  1e  00
08  46  54  27  00
29  25  20  00  00
4c  0d  4b  19  00
60  00  78  3e  00
1b  1a  49  00  00
15  05  5e  21  00
1a  1f  2b  2f  00
32  00  00  03  00
1f  00  00  00  25
08  00  06  00  28
09  00  4b  35  21
14  00  63  73  62
00  0c  00  43  3d
00  00  00  00  00
01  00  00  2b  00
12  00  00  1a  0c
1d  00  00  1a  00
29  0c  29  16  00
12  55  63  00  00
3c  18  35  00  00
52  32  05  00  00
42  34  0a  00  00
32  01  00  22  0e
00  4e  6c  0f  03
00  7d  69  3b  43
00  59  2d  42  2a
00  60  0e  26  0a
00  37  00  33  18
00  3f  00  2d  32
00  7f  32  60  26
00  7f  35  53  20
00  42  04  1a  00
00  50  00  00  00
00  00  00  00  00
00  00  00  20  00
00  00  00  1d  18
00  32  2d  0d  2d
0c  43  26  19  3b
00  20  1c  06  20
00  0f  00  0a  20
00  10  10  12  1b
00  58  00  19  00
00  58  15  50  0a
00  4f  42  63  19
0f  61  52  36  2e
00  36  36  00  21
00  00  1b  03  30
00  00  00  02  0e
00  00  00  00  00
00  00  00  00  00
00  00  00  00  00
00  00  00  00  00
00  00  00  00  00
00  00  00  00  00
0e  00  00  00  00
00  00  00  00  00
08  00  00  00  00
06  00  00  0c  00
00  00  00  00  01
00  00  00  00  0d
00  00  00  00  00
00  00  00  00  00
00  00  16  00  00
01  00  26  04  23
00  00  15  00  2b
00  00  22  00  00
00  18  08  00  00
16  00  00  00  00
04  00  00  00  00
00  00  00  00  09
00  00  00  00  15
00  00  00  00  00
00  00  00  00  00
00  00  00  00  00
00  00  00  00  00
00  00  00  00  00
00  00  00  00  00
00  00  00  00  00
00  00  00  00  00
00  15  00  0c  00
00  00  03  00  00
00  00  00  00  0f
00  00  00  00  00
00  00  00  00  00
00  00  00  00  00
00  00  00  00  00
00  00  00  00  00
00  00  00  00  00
00  00  00  00  00
00  00  00  00  00
00  00  00  00  00
00  00  00  00  00
00  00  00  37  00
00  00  00  2e  00
00  00  02  00  00
00  00  00  00  00
00  00  0f  00  00
00  00  00  1e  00
00  00  1d  1a  00
00  20  23  28  00
00  3c  00  2e  00
00  27  00  1c  00
00  00  00  38  00
00  07  00  1a  00
00  1e  00  18  00
00  1c  0f  04  00
00  21  00  0e  04
00  00  00  0c  00
00  00  00  05  00
00  00  00  01  00
00  00  00  1a  0b
00  00  00  12  00
00  00  00  0c  00
00  00  00  00  00
00  00  00  00  00
00  00  00  00  00
00  00  00  00  00
00  22  0e  3e  00
11  2a  14  36  00
12  39  07  01  00
00  00  00  00  00
00  00  00  00  00
00  00  00  1c  00
00  00  00  00  00
00  00  00  00  00
00  00  00  00  00
00  00  00  00  00
00  00  00  00  00
00  00  00  00  00
04  00  00  00  00
00  00  00  00  00
00  00  00  00  00
00  00  00  00  00
00  00  00  00  00
00  00  00  08  00
00  00  00  00  00
02  00  00  00  00
22  00  00  00  00
2b  00  00  00  00
00  00  04  00  00
00  00  12  00  00
00  00  00  00  00
00  00  00  00  00
00  00  00  00  00
00  00  00  00  00
00  00  00  00  0b
0a  00  00  00  00
1f  00  00  00  00
1e  30  00  00  00
12  2d  00  2e  03
00  3b  00  3c  19
00  17  17  17  34
17  5f  00  57  31
1c  11  03  2e  0c
00  0e  2f  1a  30
25  13  2c  00  29
4e  06  7f  00  26
19  7c  38  15  4f
5c  7f  79  7f  24
4e  64  3f  54  1a
57  48  5a  00  19
2d  4a  5d  00  01
2f  4a  00  00  00
35  5a  36  47  26
2b  69  1c  5f  05
4d  5e  35  0f  1a
20  52  64  1b  27
00  3f  15  0c  3a
00  00  30  00  1d
02  21  00  09  00
14  14  33  72  00
00  50  3e  1f  0b
00  3d  1b  00  07
00  00  00  00  00
00  27  00  00  0a
00  0f  00  00  00
01  1f  01  03  00
1c  40  11  09  00
2c  7f  1e  11  00
01  67  0c  3e  00
00  46  19  1e  00
00  34  00  04  00
00  00  00  00  00
00  00  00  00  00
00  00  00  0d  00
00  00  00  53  00
00  00  00  14  00
00  2c  00  00  00
00  02  00  00  00
00  00  00  00  00
00  00  00  0a  00
00  00  00  00  00
00  02  00  29  00
00  00  00  0b  00
05  0d  00  2a  00
26  60  00  00  00
1d  66  00  11  00
27  38  00  00  00
14  00  00  0c  2d
13  00  00  0c  3c
00  00  00  10  1c
00  06  00  1c  16
05  00  00  2a  29
18  26  00  0e  45
27  2b  00  44  4b
16  4a  00  52  2c
1d  30  00  25  06
3e  00  00  00  09
3c  00  00  00  00
00  00  00  0b  00
00  00  00  1d  00
00  09  00  00  00
00  04  00  00  0c
00  00  00  00  2f
00  00  00  0f  3b
00  00  00  40  2e
0f  12  00  38  24
2b  08  17  22  2e
11  12  04  48  3b
27  10  00  2f  2f
1f  36  00  1b  26
40  30  00  37  23
19  32  02  36  29
00  0b  2b  00  00
00  20  1a  00  24
00  24  10  00  19
00  2d  21  09  09
00  00  00  00  04
00  0d  00  02  05
00  4f  08  07  13
00  4f  0e  15  09
00  08  05  00  00
00  16  2e  0c  33
00  0a  00  0a  23
00  00  00  28  00
00  09  00  3b  00
00  13  05  00  0d
00  37  2a  11  3b
00  21  1f  00  1b
00  00  15  00  08
00  00  00  00  00
00  28  00  00  00
00  29  0b  21  00
00  3e  38  7e  00
00  2f  59  2c  03
00  00  29  00  1d
00  1f  39  14  16
00  23  15  35  23
1a  4c  23  0a  04
22  64  50  3c  03
19  4b  51  3d  32
1f  51  3e  19  2c
2d  7f  3c  2e  20
3f  51  4b  08  1c
1f  64  2b  08  00
2f  59  00  00  03
0a  5e  1f  00  07
00  66  00  22  18
00  1c  0c  0d  0f
14  35  00  05  12
31  45  12  00  16
20  33  1f  00  4b
3d  3a  02  26  55
58  27  11  04  36
04  6b  38  25  27
00  5c  52  0b  38
00  45  42  1d  29
00  59  42  34  1d
00  50  7f  04  2a
18  77  7f  0a  32
12  1e  51  2e  24
06  29  34  03  00
00  07  00  00  00
2c  44  3f  15  0c
4b  7c  7f  2b  23
40  7a  70  3e  14
32  5e  58  3c  13
24  5b  7f  5b  2d
2c  7f  7b  71  3d
35  74  7f  54  38
2d  70  79  48  29
5b  7f  4f  6a  3e
59  66  3c  5e  0b
64  78  3f  59  14
21  44  36  40  19
17  30  3b  63  29
12  33  38  5b  4a
00  2c  33  3e  47
02  3c  2a  34  31
07  48  2b  39  3c
27  48  40  53  3b
29  3c  42  5c  24
39  5f  54  79  1f
3a  7f  79  6f  14
59  6a  7f  35  1b
3a  69  7f  15  22
26  4d  65  3c  2b
0b  23  24  41  2d
00  00  00  26  17
00  00  00  2a  09
00  00  00  0d  00
00  00  00  00  02
00  00  00  2f  0d
00  00  00  1f  17
00  00  00  31  28
00  00  02  00  13
00  00  00  00  21
00  00  00  00  00
0f  20  00  00  00
1c  00  00  00  20
00  00  00  1d  00
00  00  00  10  00
00  00  00  00  00
00  07  00  00  00
00  00  00  00  00
00  00  00  00  00
00  00  00  00  0c
04  02  00  00  37
00  00  00  00  00
00  00  00  0f  00
00  00  00  2e  00
00  00  00  04  00
00  00  00  0b  1e
00  00  01  03  00
00  00  00  00  00
00  00  00  00  00
00  00  00  00  00
00  00  00  00  00
00  00  00  00  00
00  00  00  00  00
00  00  00  00  00
0f  00  00  0e  00
1d  00  00  00  00
00  11  00  00  00
00  00  00  00  23
0d  00  00  01  00
3d  00  00  24  00
2f  00  00  00  00
31  00  00  00  00
00  00  00  00  00
00  00  00  00  00
00  00  00  00  00
0a  00  00  00  00
0e  00  00  00  00
00  00  00  00  00
00  00  04  00  00
00  00  00  00  00
00  00  00  00  00
07  00  00  00  02
00  00  00  00  05
00  00  00  00  00
00  00  00  00  00
00  00  00  00  15
00  00  14  00  21
00  00  5d  00  2f
00  00  3e  11  15
11  00  26  0f  13
0a  00  20  00  15
28  22  24  10  34
14  00  00  00  30
0b  00  00  09  2f
00  00  00  10  29
00  04  13  0e  1a
18  0f  00  18  10
00  00  00  00  0b
00  00  00  00  00
00  00  0d  00  09
07  00  25  00  01
00  00  1d  00  00
00  00  09  00  00
00  00  2c  00  00
00  00  11  00  02
00  01  02  07  14
0a  00  00  00  00
01  12  00  07  00
00  00  00  00  00
00  00  00  00  00
01  00  00  00  00
00  00  00  00  00
00  00  00  00  00
00  00  00  00  00
11  00  00  00  00
0f  1c  00  00  00
20  00  00  00  00
02  00  00  00  00
04  00  00  00  00
11  00  00  00  00
4b  00  00  00  00
18  00  00  00  00
00  00  00  0f  00
00  00  00  00  00
00  00  00  00  00
00  00  00  00  00
00  00  00  00  00
00  00  00  00  00
00  00  00  00  00
00  00  00  00  00
00  00  00  00  00
26  4a  2a  05  05
46  7f  3b  48  29
33  73  38  3d  1b
1f  7f  1b  34  16
2c  7f  36  42  2d
2f  7f  3a  5f  3d
2d  7f  3a  7f  24
2f  7f  4b  58  19
31  7f  46  68  22
3d  7a  48  56  1d
58  51  40  16  00
27  62  43  18  00
19  65  26  2b  15
1a  70  41  3d  49
23  37  4c  2b  4a
00  19  40  1d  3f
0e  55  3b  46  45
1b  5b  34  66  5a
2b  7b  2d  74  1b
2f  7f  1e  7f  0d
10  7b  2c  7f  16
44  7f  50  66  18
45  7f  51  2d  13
23  53  2b  3c  44
0e  15  00  4a  29
00  00  00  03  04
00  00  00  00  00
00  00  00  00  00
00  00  00  00  00
00  00  00  00  00
00  00  00  00  00
00  00  00  00  00
00  00  00  1c  00
00  00  00  00  00
00  00  00  00  00
00  00  00  00  00
00  00  00  00  00
00  00  00  00  00
00  00  00  00  00
00  00  00  00  01
00  00  00  00  00
00  00  00  00  00
00  00  00  00  00
00  00  00  00  00
00  00  00  00  00
00  00  00  00  00
00  00  00  00  00
00  00  00  00  00
00  00  00  00  00
00  00  00  17  07
00  00  00  00  00
00  00  00  00  00
00  00  00  00  00
00  00  00  00  00
00  00  00  00  00
00  00  00  00  00
00  00  00  00  00
00  00  00  00  00
00  00  00  00  00
00  00  00  00  00
00  00  00  00  09
00  00  00  00  04
00  00  00  19  00
00  00  00  1f  00
31  00  00  17  00
00  00  00  00  00
00  00  00  00  00
00  00  00  00  00
00  00  00  00  00
00  00  00  00  00
00  00  00  00  00
00  00  00  00  00
00  02  00  00  00
00  05  00  09  00
25  00  00  00  00
00  00  00  00  00
00  00  00  00  00
00  00  00  00  00
00  00  00  00  00
00  00  00  00  00
00  00  00  00  00
00  00  00  00  00
00  00  00  00  00
00  00  00  00  00
00  00  00  00  00
00  00  00  00  00
00  00  00  00  00
00  00  00  00  00
00  00  00  00  00
00  00  00  00  00
04  00  00  00  00
00  00  00  00  00
00  00  1b  00  00
00  00  00  00  00
00  00  00  00  00
29  00  00  00  00
00  00  00  00  00
00  00  00  00  00
00  00  00  00  00
00  00  00  00  00
00  00  00  00  00
00  00  00  00  00
00  00  00  00  00
00  00  00  00  00
00  00  00  00  00
00  00  00  00  00
00  00  00  00  00
00  00  00  12  00
00  00  00  00  00
00  00  00  00  00
00  00  00  00  00
09  00  00  00  00
00  00  00  00  00
00  00  00  00  00
00  00  00  00  00
00  00  00  00  00
00  00  00  00  00
00  00  00  00  00
00  00  00  00  00
00  00  00  00  00
00  00  00  00  00
00  00  00  00  00
00  00  00  00  00
00  00  00  00  00
00  00  00  1c  0d
00  00  00  00  00
00  00  00  00  00
00  00  00  00  00
00  00  00  00  00
00  00  00  00  00
00  00  00  00  00
00  00  00  00  00
00  00  00  00  00
00  00  00  00  00
00  00  00  00  00
00  00  00  00  00
00  00  00  00  00
00  00  00  00  00
00  00  00  00  00
00  00  00  00  00
00  00  00  00  00
00  00  00  00  00
00  00  00  00  00
00  00  00  00  00
00  00  00  00  00
00  00  00  00  00
00  00  00  00  00
00  00  00  00  00
00  00  00  00  00
00  00  00  00  00
00  20  00  00  00
00  03  00  00  00
00  00  00  00  00
00  0c  00  00  00
0a  00  00  00  00
15  00  00  00  00
00  31  00  00  00
00  2e  00  00  00
00  00  00  00  00
00  00  00  00  00
00  00  00  00  00
00  00  00  00  00
00  00  00  00  00
00  00  07  00  00
00  16  00  00  0a
00  00  00  00  00
00  00  00  00  00
00  00  00  00  00
00  00  00  00  00
00  00  00  00  00
00  00  00  00  00
00  00  00  00  06
00  00  00  00  00
00  00  00  00  00
00  01  00  00  00
00  00  00  00  07
00  00  00  00  00
00  00  00  00  00
00  00  00  00  00
00  00  00  00  00
00  00  00  00  00
00  00  00  00  00
00  00  00  00  00
00  00  00  00  2b
00  00  00  14  00
00  00  00  00  00
00  00  00  00  2c
00  00  00  00  0e
00  00  00  00  00
02  00  00  00  00
06  21  00  00  16
00  1b  00  00  2e
00  00  00  00  1c
00  00  00  00  00
00  00  00  00  00
00  00  00  00  00
00  00  00  00  14
00  00  11  00  27
00  00  00  00  00
00  00  00  00  00
0b  0a  2d  07  00
06  31  22  0f  1a
07  2b  00  13  00
00  37  00  5d  0f
00  1b  00  3c  00
00  7f  02  32  08
0d  4a  00  39  00
00  26  00  3d  00
00  00  00  19  00
06  00  14  00  19
00  26  0f  0a  24
00  23  00  3d  17
00  3b  00  47  01
42  00  00  3e  00
1a  00  1f  0f  1f
00  00  5e  00  00
00  00  15  00  00
00  00  00  17  00
00  2f  00  2f  00
00  3a  29  77  00
00  39  00  7f  00
16  35  07  4e  00
14  7f  5b  2c  00
28  57  00  12  00
15  06  00  00  00
17  4e  22  0a  18
21  2a  24  30  39
0e  00  16  00  3e
0b  00  17  00  0b
22  18  57  02  1f
2f  1c  6c  4d  2c
33  1c  7f  36  5b
3b  30  7f  32  67
6a  35  7f  6b  5e
58  54  4d  6c  12
74  5a  5f  67  05
4f  23  5d  2c  1c
3b  00  6a  08  55
15  46  7f  32  69
1c  5e  5f  37  57
00  7f  56  70  6f
41  7f  43  38  7b
54  7d  55  5b  7f
3f  2e  58  4a  7f
21  28  3a  3f  72
12  22  2a  34  64
37  32  5c  3a  67
3e  0e  44  1f  54
16  00  48  0a  56
00  00  3e  1b  38
00  17  00  00  00
00  00  00  18  00
00  04  00  00  00
00  00  00  00  00
00  00  00  00  00
00  00  00  1d  00
00  00  00  00  00
00  00  00  00  00
00  00  00  00  00
00  00  00  00  00
00  00  00  00  00
00  00  00  00  03
00  00  00  00  00
00  00  00  00  00
00  00  00  00  00
00  00  00  00  00
00  00  00  0f  00
00  00  00  0d  04
00  00  00  00  00
00  00  00  00  00
00  00  00  00  00
00  00  00  00  00
00  00  00  00  00
0a  00  00  00  00
00  00  00  00  00
00  00  00  00  00
00  00  00  00  00
00  00  00  00  00
00  00  00  00  00
00  00  00  00  00
00  00  00  00  00
2b  00  00  00  00
00  00  00  00  00
00  00  00  00  00
00  00  31  03  03
00  00  09  00  32
00  1d  00  00  36
00  45  00  00  0b
4c  00  00  21  04
74  00  49  00  00
25  00  56  00  0d
00  00  20  00  01
00  00  08  00  00
00  00  00  00  00
00  00  00  00  00
00  00  00  00  00
00  00  00  00  00
00  00  06  00  00
36  00  01  00  00
56  00  07  00  00
00  00  00  00  00
00  00  00  00  00
00  00  00  00  00
00  00  00  00  00
00  00  00  00  00
00  00  00  00  00
00  00  00  00  00
00  00  00  00  00
00  00  00  06  00
00  00  00  10  00
00  00  00  00  00
00  00  03  00  02
00  00  00  00  00
00  00  00  34  00
00  00  00  31  00
00  00  00  00  00
00  00  00  00  00
00  00  00  00  00
00  00  00  00  00
00  00  00  00  00
00  00  00  00  00
00  00  00  00  00
00  00  00  00  00
00  00  00  0b  12
00  00  02  0f  23
00  00  00  00  10
00  00  00  00  00
00  00  00  00  00
00  00  00  00  00
00  00  00  00  00
00  00  00  00  00
00  00  00  00  00
00  00  00  00  00
00  00  00  00  00
00  00  00  00  00
00  00  00  00  00
00  00  00  00  00
09  00  00  00  00
00  00  00  00  00
00  00  00  00  00
21  00  00  00  00
00  00  00  00  00
00  00  00  00  00
00  00  00  00  00
00  00  00  00  00
00  00  00  00  00
00  00  00  00  00
00  00  00  00  00
00  00  00  00  00
00  00  00  00  00
00  00  13  00  00
00  00  13  00  00
00  00  0f  00  00
00  00  00  00  00
00  00  00  00  00
00  00  00  00  00
00  00  2f  00  00
00  00  2f  05  00
00  00  00  00  00
00  00  00  00  01
00  00  00  00  00
00  00  00  00  00
00  00  00  00  01
00  00  00  00  00
00  0b  00  00  00
00  00  00  00  00
00  00  00  00  00
00  00  00  00  00
00  00  00  00  00
00  00  00  00  00
00  00  00  00  00
00  00  00  00  00
00  00  00  00  07
00  00  00  00  21
00  28  00  19  0e
05  00  00  00  00
00  00  00  00  00
00  00  00  00  00
00  00  00  00  00
00  00  00  00  00
0c  00  00  00  00
00  00  00  00  00
00  00  00  00  00
00  00  00  00  06
00  00  00  00  00
00  00  00  00  00
00  00  00  00  00
00  00  00  00  00
00  00  00  00  00
00  00  00  00  00
00  00  00  00  00
00  00  00  11  00
00  00  00  00  04
00  00  00  00  00
00  00  00  00  00
00  00  00  00  00
00  00  00  00  00
00  00  00  00  00
00  00  00  00  00
00  00  00  0d  00
00  12  03  00  00
00  00  00  00  23
00  0f  00  00  03
08  00  00  00  00
00  00  00  35  00
00  00  00  1d  00
00  00  00  07  00
00  00  00  04  00
1e  00  00  00  00
1d  02  00  00  00
1e  18  00  5c  00
00  00  00  58  00
0b  00  51  0c  00
16  0a  19  00  00
00  00  00  00  18
00  21  12  54  12
00  1e  04  17  0b
0b  00  10  37  01
00  00  04  26  00
00  00  00  00  00
08  00  00  00  00
04  00  00  00  00
00  00  00  17  00
00  00  00  00  00
00  00  00  00  00
00  10  00  07  00
00  04  00  00  09
00  00  00  25  0c
00  12  00  34  0e
00  04  00  22  13
10  20  00  02  04
00  00  00  05  00
00  00  00  1d  00
00  00  00  00  00
00  00  00  00  07
00  00  00  00  0e
00  00  00  00  00
00  00  00  00  00
00  03  00  00  00
00  1e  00  12  00
00  00  00  00  00
00  00  00  00  00
00  00  00  09  00
00  00  00  00  00
00  00  00  00  00
00  00  00  00  00
00  07  00  33  00
00  07  00  22  00
03  35  00  40  00
1a  2e  00  00  00
00  00  00  00  00
00  00  00  00  00
00  00  00  00  00
02  00  00  00  00
00  00  06  00  00
00  00  00  00  00
00  00  00  00  00
00  00  00  00  00
00  00  00  00  00
00  00  16  00  26
00  00  00  13  31
00  00  00  18  3c
00  00  00  00  00
00  00  00  00  00
09  00  00  00  00
04  00  00  00  00
00  00  00  00  00
00  00  00  00  00
00  00  00  00  00
00  00  00  00  00
00  00  00  00  00
00  00  11  00  00
00  00  0c  00  00
00  00  01  00  00
18  00  00  00  00
00  00  00  00  00
00  00  00  00  00
00  00  00  08  00
00  2a  00  2a  00
00  04  00  0d  00
11  33  00  03  00
00  0a  00  00  00
00  00  00  00  00
00  00  00  00  00
00  00  00  00  00
00  00  00  00  00
00  00  00  00  00
00  00  00  00  00
00  00  00  00  00
00  13  00  00  00
00  00  00  00  00
05  00  00  00  00
00  00  00  00  00
00  00  00  00  00
00  00  00  00  00
00  05  00  00  00
00  30  00  0f  00
00  0f  00  00  00
16  1e  00  03  00
28  12  00  00  00
1c  45  41  1f  0b
02  33  52  32  34
04  2b  34  20  24
00  1d  16  1e  12
00  00  16  3c  16
00  00  33  2a  1b
00  23  55  10  17
0c  12  2a  08  1e
06  00  00  2a  29
00  02  0e  66  32
00  0f  0e  54  46
13  00  32  24  3d
06  1b  23  25  46
06  14  37  5a  52
13  16  4b  38  69
02  1a  39  25  22
12  1e  00  00  0c
00  37  38  0a  0d
04  15  3b  26  2c
0a  3e  4e  23  31
02  46  69  24  18
00  00  6b  38  1e
00  00  66  25  1f
06  00  48  19  1d
00  01  04  07  18
00  27  1c  12  0b
00  13  1c  47  00
14  1a  2b  58  00
1e  0f  32  42  00
34  1e  50  0e  0b
2a  46  6b  22  1e
47  2f  67  2a  15
1c  28  55  51  14
44  2e  5f  59  00
3e  4f  1a  00  00
46  7f  16  0e  00
29  7e  00  25  06
3d  2e  5e  55  16
5c  02  72  53  0c
43  17  49  08  00
2c  5e  03  3a  13
31  56  00  32  1c
43  24  3c  59  05
2e  40  22  49  05
1e  30  3d  05  0f
18  22  2d  00  00
0b  00  14  00  09
3c  41  1c  00  00
47  00  00  0a  00
47  00  1f  00  00
0f  00  00  00  03
00  00  00  0a  00
00  00  00  00  00
00  00  00  00  00
00  0e  00  00  00
00  0c  00  00  00
00  00  00  00  00
06  00  00  00  00
00  00  00  00  0f
00  00  00  00  07
12  22  00  00  00
1b  3d  00  00  19
0c  00  00  00  00
00  00  00  00  00
00  00  00  00  00
00  00  1f  00  00
00  00  00  00  00
00  00  00  00  00
00  1c  00  00  00
00  2b  00  00  00
00  00  00  00  0e
00  00  00  00  1e
14  0b  14  0c  10
00  00  25  00  00
00  00  09  00  00
00  00  18  11  00
00  32  2b  17  00
2b  27  37  19  00
2f  0d  2d  07  00
09  08  07  11  00
06  00  00  00  00
17  00  00  00  00
11  00  00  00  00
17  00  00  00  00
0b  00  00  0a  00
00  00  00  1b  00
00  00  00  22  00
00  00  00  03  10
00  00  00  00  01
00  00  00  00  00
00  00  0d  00  00
00  00  2b  05  00
00  0b  3f  00  00
00  00  3d  00  00
0a  35  1b  00  00
3a  55  2f  00  00
31  4e  00  00  07
19  00  00  00  06
15  00  08  00  00
0c  00  05  00  00
10  41  2b  12  00
00  39  2a  0c  00
11  13  00  02  00
05  00  00  00  00
00  00  00  00  00
06  00  00  00  00
08  00  00  00  00
08  00  00  00  00
0b  00  00  00  00
00  04  00  00  00
00  00  00  00  00
00  00  00  04  22
05  00  00  13  36
0f  00  00  37  18
20  00  0b  05  00
2d  04  00  00  00
14  22  00  0b  00
01  00  00  00  00
00  00  00  00  00
02  00  00  00  00
1f  0b  00  00  00
02  00  1b  00  00
00  00  00  00  00
00  00  00  00  00
00  00  00  00  00
