00  00  00  00  00
00  00  00  00  00
00  00  00  00  00
00  00  00  00  00
00  00  00  00  00
00  00  00  00  00
00  00  00  00  00
00  00  00  00  00
00  00  00  00  00
00  00  00  00  00
00  00  00  00  00
00  00  00  00  00
00  00  00  00  00
00  00  00  00  00
00  00  00  00  00
00  00  00  00  00
00  00  00  01  00
00  00  00  00  00
00  00  00  00  00
00  00  00  00  00
00  00  00  00  00
00  00  00  00  00
00  00  00  00  00
00  00  00  00  00
00  00  00  00  00
00  01  00  11  00
00  02  00  0b  00
00  00  00  00  04
00  00  00  01  09
00  00  00  00  05
00  00  00  06  07
00  00  00  00  00
00  00  00  00  00
00  00  00  00  00
00  00  00  00  04
00  00  00  00  0d
00  00  00  00  00
00  00  00  00  00
00  00  00  00  00
00  00  00  00  00
00  00  00  00  00
00  00  00  00  00
00  00  00  00  00
00  00  00  00  04
00  00  00  00  08
00  00  00  00  0e
00  00  00  00  02
00  00  00  00  00
00  00  00  03  00
00  00  00  00  00
00  00  00  00  05
00  19  00  00  05
00  03  00  00  05
00  00  00  00  00
00  00  00  00  00
00  00  00  03  00
00  00  00  00  00
00  00  00  00  05
0e  01  00  00  00
00  00  00  0c  00
00  00  00  15  00
00  00  03  10  00
00  00  01  27  00
00  12  00  38  00
05  20  00  5a  00
32  1b  00  20  00
26  00  00  00  00
26  00  00  00  00
14  00  00  00  00
18  00  00  00  00
13  00  00  00  00
00  00  05  00  00
00  00  00  00  00
00  00  00  0d  00
00  00  05  05  05
00  05  0a  0a  0a
00  00  0a  0a  0a
08  09  0a  0a  0a
07  07  0a  0a  0a
0a  0a  0a  0a  0a
0a  0a  0a  0a  0a
0a  0a  0a  0a  0a
0a  0a  0a  0a  0a
0a  0a  0a  0a  0a
0a  0a  0a  0a  0a
0a  0a  0a  0a  0a
0a  0a  0a  0a  0a
0a  0a  0a  0a  0a
0a  0a  0a  0a  0a
0a  0a  0a  0a  0a
0a  0a  0a  0a  0a
0a  0a  0a  0a  0a
0a  0a  0a  0a  0a
0a  0a  0a  0a  0a
0a  0a  0a  0a  0a
0a  0a  0a  0a  0a
0a  0a  0a  0a  0a
0a  0a  0a  0a  0a
0a  0a  0a  0a  0a
0a  0a  0a  0a  0a
00  00  00  00  00
00  00  00  00  00
00  00  00  00  00
00  00  00  00  00
00  00  00  00  00
00  00  00  00  00
00  00  00  00  00
00  00  00  00  00
00  00  00  00  00
00  00  00  00  00
00  00  00  21  00
00  00  09  41  00
00  00  03  17  29
14  00  23  14  1c
36  00  40  0d  00
18  0c  4a  11  00
00  0f  27  00  00
00  00  01  00  00
00  00  00  00  00
00  00  00  00  00
00  00  00  00  00
08  00  14  00  00
0c  00  09  00  00
00  06  11  00  00
00  00  00  00  00
00  2f  22  00  00
00  00  00  22  00
00  07  11  1e  00
00  00  10  00  00
00  00  0b  04  00
00  00  3e  52  02
00  00  67  00  02
00  00  65  00  03
00  00  47  00  00
02  00  00  00  00
1c  05  00  16  06
0b  00  00  01  00
00  00  0b  00  01
00  0c  33  00  00
00  31  25  0c  00
00  7d  00  06  00
4b  4a  00  00  00
36  00  00  00  00
29  00  00  00  00
09  00  00  01  0e
00  00  00  09  13
00  00  00  13  00
00  00  00  04  00
00  00  00  00  00
00  00  00  00  00
0b  0b  0b  0b  0b
0b  0b  0b  09  09
0a  0a  09  08  08
09  09  09  07  0c
09  0b  0a  0b  0b
07  00  00  00  0b
05  00  00  00  04
03  00  00  00  00
09  00  00  00  00
05  00  00  0f  00
00  01  01  0b  0b
00  0c  00  0b  0b
05  06  06  0b  0b
00  00  08  0b  0b
00  00  0b  0b  0b
0b  00  0b  0b  0b
0c  08  0b  0b  0b
0b  08  08  00  09
0a  00  00  00  07
09  00  00  00  04
08  00  13  00  01
06  07  00  00  04
02  03  00  02  02
00  00  00  00  0a
04  00  00  00  08
2d  00  0c  09  00
27  00  22  1f  00
1f  00  24  28  00
1f  00  17  15  00
22  00  14  17  00
2b  00  3a  00  00
35  00  49  00  00
4a  00  2c  00  00
59  00  01  00  00
5b  00  00  00  00
4c  00  00  00  00
2f  00  00  00  00
12  00  00  00  00
17  00  00  00  00
24  00  00  00  00
31  00  00  05  00
2e  00  07  05  00
21  00  0d  0a  00
22  00  1c  00  00
2e  00  16  00  00
21  00  02  00  00
20  00  00  00  00
21  00  00  00  00
0f  00  0b  05  00
06  00  0e  07  00
00  0f  00  10  00
00  0e  00  1c  00
00  15  00  43  00
00  0a  06  44  00
00  0c  00  53  00
00  17  01  43  00
00  03  0c  27  00
0e  00  17  03  00
23  0f  1f  02  0c
1f  1b  00  1d  00
1d  27  00  5f  00
00  1b  00  4c  00
00  00  00  45  00
00  00  02  18  00
00  09  00  1c  00
00  11  00  0e  00
00  13  00  14  00
00  13  00  12  02
00  00  00  1a  00
00  00  00  1e  00
00  0e  09  1c  00
09  19  00  16  01
08  18  04  21  08
09  26  02  2e  00
00  1b  00  02  0b
00  04  3d  41  2f
1a  20  50  7f  66
0d  07  38  75  42
15  00  2d  4d  2a
00  00  3e  6d  46
00  0c  51  7f  6e
0b  2d  59  7f  6b
18  24  61  7f  4e
6c  54  48  57  3d
72  46  22  20  11
7b  67  21  11  1a
53  25  22  13  01
30  1f  2e  58  2b
46  2c  2e  60  40
03  00  25  63  44
00  0c  21  2f  18
0d  00  10  23  18
31  17  2e  6c  6f
63  37  52  7f  78
63  1d  53  7f  7f
11  1d  47  78  46
37  30  39  46  10
28  49  4d  32  0c
4a  20  3c  55  50
00  00  37  7f  70
00  00  00  00  09
00  00  00  00  01
00  00  00  00  00
00  00  00  00  00
00  00  00  00  00
00  00  05  00  00
00  00  00  00  00
00  00  00  00  00
00  00  00  00  00
00  00  00  00  00
00  00  00  00  00
00  00  00  00  00
00  00  00  00  00
00  00  00  00  00
0d  00  00  00  00
00  00  00  00  00
00  00  00  00  00
00  00  00  00  00
00  00  00  00  00
00  00  00  00  00
00  00  00  00  00
00  00  00  00  00
00  00  06  01  00
00  00  0e  06  00
03  02  05  00  00
2c  46  14  00  00
00  3b  1c  16  1a
00  1a  2a  00  00
00  03  16  00  00
00  00  10  02  00
00  00  04  06  00
00  00  00  02  00
00  00  00  02  00
00  08  1d  21  16
07  0e  1a  48  41
00  00  00  54  7f
00  00  00  15  5c
00  00  01  1c  30
13  00  00  2d  42
00  00  1e  0b  53
00  00  2c  03  27
00  2d  00  00  1d
00  47  01  0e  1a
00  02  03  00  00
20  26  23  00  00
00  38  6b  00  00
00  00  7f  00  00
00  00  5b  0f  00
00  00  2f  00  00
00  00  00  00  00
0a  0a  00  00  00
00  00  07  04  04
09  0a  00  00  00
07  02  0f  0c  0a
0f  0f  06  00  04
0f  0f  00  00  00
00  00  00  00  00
00  00  00  00  00
00  00  00  00  00
00  00  02  00  06
00  00  03  08  09
00  00  05  05  00
00  00  0f  0f  0f
0f  0f  0f  0f  0f
00  04  0f  0f  0f
00  00  00  00  01
00  00  00  00  00
00  00  00  00  00
0f  0f  00  00  00
00  06  00  00  00
08  09  00  00  00
05  00  0f  0f  0f
0f  0f  0c  06  06
00  00  00  00  05
01  00  00  00  02
00  00  00  00  00
00  00  00  00  00
00  00  00  04  00
00  02  07  09  00
00  00  00  00  00
00  00  00  00  00
00  00  00  01  00
00  00  00  00  00
00  00  00  00  00
00  00  00  00  00
00  00  00  00  00
00  00  00  00  00
00  00  00  00  00
00  00  00  00  00
00  00  00  00  00
00  00  00  00  00
00  00  00  00  00
00  00  00  00  00
00  00  00  00  00
00  00  00  00  00
00  00  00  00  00
00  00  00  00  00
00  00  00  00  00
00  00  00  00  00
00  00  00  00  00
00  00  07  00  09
00  00  0a  00  09
00  00  00  00  09
00  00  00  00  00
00  00  00  00  02
00  00  00  00  00
00  00  00  00  0a
00  00  01  00  0f
00  00  00  00  0b
00  14  00  0a  00
00  00  00  04  00
00  00  00  00  00
00  00  00  00  00
0b  00  00  00  00
0b  00  00  00  07
0b  00  03  00  06
04  00  0a  00  0f
07  0a  09  00  0e
00  08  00  09  0b
00  00  00  00  0b
00  00  00  00  0a
00  00  00  00  0c
00  00  00  00  0c
00  00  00  00  0b
00  05  00  00  0b
00  00  33  00  00
00  55  3e  00  1c
00  32  30  00  17
00  46  21  00  04
00  4b  07  00  03
00  48  00  02  00
00  64  00  27  00
00  4b  05  00  00
00  35  22  00  00
00  2b  30  02  2a
00  06  00  00  00
00  25  00  0a  00
00  39  00  10  00
00  39  05  0d  00
00  2c  07  00  00
00  0c  0b  00  08
00  00  10  00  00
00  03  16  00  00
00  3d  16  14  00
00  44  00  31  00
00  30  00  4c  00
00  4c  30  36  00
00  47  3f  06  00
00  12  3c  00  2a
0d  00  0d  00  08
00  00  00  00  00
00  00  00  00  00
00  00  00  00  00
00  00  08  00  00
02  00  1d  00  13
15  01  2b  00  1e
1a  00  6f  07  43
1f  00  7b  1a  44
5a  1e  7f  69  52
43  2f  6e  45  0f
46  6e  7f  4e  13
3a  3c  66  13  33
23  10  65  21  49
0b  1b  70  41  37
0b  29  2b  33  02
00  2e  00  48  10
01  36  05  25  1d
12  45  21  0e  29
00  00  3b  10  3b
00  00  27  0e  1f
00  00  04  00  00
00  00  00  00  08
00  00  0f  00  1c
00  00  2b  09  34
00  00  28  15  28
0d  0d  0d  0d  0d
0d  0d  0d  0d  0d
0b  0c  04  0a  06
0b  04  02  01  05
05  04  00  00  00
0a  00  00  00  00
00  06  00  00  00
07  07  00  06  04
02  00  00  03  0d
0d  04  04  00  04
0d  00  00  00  00
0d  0d  0c  00  00
0d  0d  0a  0b  0a
0d  0d  0b  0b  0a
0d  0d  09  0a  0a
0d  0d  0d  0d  0d
0d  0d  0d  0d  0d
0d  0d  0d  0d  0d
0d  0d  0a  0c  0a
03  09  02  0a  0a
06  05  00  0a  09
00  03  00  0d  0d
0d  0d  0d  0d  0d
0d  0d  0d  0d  0d
0d  0d  0d  0d  0d
00  00  21  00  06
00  07  38  00  15
00  00  3f  00  16
00  00  2b  00  11
00  00  4a  0d  14
00  00  52  2f  18
00  00  57  15  09
00  00  23  08  00
00  00  02  00  02
00  00  0b  00  0a
00  03  0b  00  08
00  06  09  00  00
00  00  01  00  01
00  00  00  00  12
00  00  00  00  1d
00  00  00  12  14
00  00  09  00  13
00  00  36  21  07
00  00  2c  27  0d
00  00  32  36  0c
00  00  18  05  09
00  00  36  18  0f
00  00  46  00  17
00  00  3d  16  06
00  14  1f  02  07
00  00  0c  07  00
00  00  02  00  00
00  00  00  00  00
00  00  00  00  00
07  00  00  00  00
0c  00  00  00  00
01  00  1c  00  00
09  00  00  00  00
0e  00  00  00  00
00  00  00  08  0a
00  00  00  08  0a
0a  0a  0a  0a  0a
00  00  0a  0a  0a
00  00  16  00  00
00  00  0e  01  00
0a  09  00  0f  00
0a  00  05  1a  00
00  00  1c  00  00
00  00  2a  00  00
00  00  00  00  00
0a  0c  00  00  00
0a  05  00  00  00
0a  0a  0a  0a  0a
0a  0a  0a  0a  0a
0a  0a  0a  0a  0a
00  00  00  06  1a
00  00  00  00  28
00  00  18  00  1b
00  00  2d  06  04
00  00  1d  00  00
00  00  00  00  0b
00  00  00  00  18
00  00  1b  06  14
00  00  37  16  13
00  00  23  1e  0d
00  00  00  14  0a
00  11  08  0b  0d
00  1d  00  12  14
00  0e  00  00  11
00  00  03  01  12
00  00  1d  00  2d
00  02  1d  00  37
00  14  00  00  26
00  00  00  00  16
00  00  07  0a  1c
00  00  19  02  59
00  00  12  00  7f
00  00  17  00  66
00  00  45  04  2b
00  00  4b  03  08
00  08  02  0f  00
00  12  01  1a  0a
00  0a  00  18  00
00  0f  02  1e  00
00  1d  14  18  00
00  29  05  11  00
00  1a  00  02  00
00  04  00  02  00
00  00  06  0b  0a
04  0f  45  36  21
01  28  51  28  08
04  2d  40  0e  08
00  2a  00  23  10
01  16  0f  2b  16
13  11  3f  49  29
09  00  3b  00  0b
00  00  2a  00  08
00  14  12  20  00
00  31  21  2a  00
00  4f  12  4a  08
00  3c  00  38  0d
02  24  00  3b  03
00  04  00  18  00
00  0e  15  29  00
00  0d  01  00  00
00  00  4d  1a  00
00  00  6f  21  00
00  00  37  3a  00
00  00  1f  30  00
00  00  20  13  00
00  00  22  02  00
00  03  11  00  00
00  00  00  1a  00
00  00  06  0b  00
00  00  00  00  00
00  00  00  00  19
00  00  00  00  0c
00  00  00  00  2d
00  00  00  1c  36
00  00  05  35  21
00  00  1c  15  07
00  00  4a  0a  00
00  00  5a  03  00
00  07  2e  00  00
00  00  03  09  00
00  00  06  07  00
00  00  03  02  00
00  00  00  2a  00
00  00  0a  23  00
00  00  01  0b  00
00  00  00  00  00
00  00  00  29  04
26  06  06  1d  0a
2a  00  00  04  0a
00  00  00  00  04
00  00  00  00  04
2e  07  00  04  04
1b  00  00  0a  04
19  00  00  04  04
1b  00  00  00  00
08  00  00  00  00
13  00  00  00  00
00  00  00  00  00
00  00  00  00  00
00  00  00  00  00
00  00  00  00  00
18  00  00  09  00
1e  00  1d  3f  16
2c  00  00  00  04
0c  00  00  00  00
00  00  00  00  00
00  00  00  0c  05
2b  00  00  00  00
3e  22  12  04  00
27  17  25  17  10
00  05  00  00  00
00  08  00  00  04
00  00  00  00  00
00  00  00  00  00
00  04  00  00  00
00  00  00  00  00
00  0b  00  10  00
00  11  00  0f  00
00  11  00  0c  00
00  03  00  04  00
00  00  00  00  00
00  00  00  0a  00
00  00  00  0d  00
00  00  00  12  00
00  00  00  00  00
00  00  00  00  00
00  00  00  04  00
00  00  00  05  00
00  00  00  08  00
00  00  00  00  00
00  00  00  01  00
00  00  00  02  00
00  00  00  01  00
00  00  00  00  00
00  00  00  00  00
15  00  18  00  04
17  00  17  00  04
14  00  06  00  0a
06  06  06  00  0e
06  06  06  00  0f
06  00  0d  00  1b
06  00  0a  00  1d
09  00  11  00  1f
00  00  00  00  0d
00  00  00  00  16
00  00  00  00  19
00  00  00  00  1d
00  00  00  00  05
00  00  00  00  00
00  00  00  00  00
00  26  00  00  00
00  04  00  00  00
00  05  00  00  2a
06  00  0a  00  32
06  01  0a  00  38
00  00  08  00  29
00  0a  00  00  1e
00  04  00  00  07
01  09  00  06  06
06  06  05  06  05
00  08  00  00  15
00  26  00  00  61
00  3e  2e  1b  6c
0a  52  6c  54  7f
00  54  2b  5a  6d
00  4f  1c  13  54
00  43  38  06  7f
00  4e  09  15  65
00  00  04  00  28
0c  18  7a  33  7f
04  6a  5f  7f  73
00  5b  1d  6d  00
00  7f  6b  20  00
10  7f  45  00  00
00  7f  2d  2a  35
00  6f  79  57  7f
00  33  7b  00  42
00  6e  64  0c  16
00  7f  68  33  67
14  5a  64  21  7f
13  2f  63  76  7f
00  34  13  7f  7f
00  49  43  7f  6c
00  79  72  68  2b
1f  7f  7f  12  1e
1e  00  05  08  00
40  00  19  05  00
43  00  0a  06  00
2a  00  02  20  00
13  00  21  14  00
00  06  33  19  00
19  0e  25  02  00
21  00  0f  03  00
27  00  00  00  00
39  00  0a  39  00
24  00  2f  14  00
18  00  58  1a  00
04  00  00  00  00
00  00  02  1f  00
00  00  1a  0d  00
0c  00  29  0e  00
39  00  2d  00  00
4c  00  1f  00  00
46  19  1d  00  06
36  00  08  00  06
3c  00  00  21  0b
34  00  0d  14  00
1e  00  2b  13  00
09  00  09  00  00
00  14  05  00  00
0d  00  00  05  00
31  00  0c  00  00
2e  00  00  23  00
19  00  05  2c  00
02  21  00  11  00
00  16  20  00  00
00  0e  30  08  00
1b  00  21  2b  00
16  00  62  00  00
1e  4b  4c  00  00
12  7f  71  00  00
45  7f  43  00  00
61  7f  06  00  00
73  14  36  00  00
79  00  27  00  00
74  00  07  00  00
56  25  00  00  00
42  25  00  00  00
1c  22  06  00  00
00  00  0e  19  00
00  0f  24  00  00
00  22  67  00  00
00  12  7b  00  00
00  22  61  00  00
01  03  1c  02  00
00  00  00  00  00
00  00  00  00  00
00  00  00  00  00
00  00  00  00  00
00  00  00  00  00
00  00  00  00  00
00  00  00  00  00
00  00  00  00  00
00  00  00  00  00
00  00  00  00  00
00  00  00  00  00
00  00  00  00  00
00  00  00  00  00
00  00  1e  01  00
00  00  05  00  16
00  00  02  1e  06
00  00  00  00  00
00  00  00  00  00
00  00  00  00  00
00  00  00  00  00
00  00  00  00  00
00  00  00  00  00
00  00  00  00  00
00  00  00  00  00
00  00  00  00  00
02  02  02  02  02
02  02  02  02  02
02  02  02  02  02
02  02  02  02  02
02  02  02  02  02
02  02  02  02  02
02  02  02  02  02
02  02  02  02  02
02  02  02  02  02
02  02  02  02  02
02  02  02  02  02
02  01  00  1a  02
02  00  06  1a  02
00  00  34  0a  02
00  00  34  03  02
00  00  13  02  02
00  00  04  02  02
02  02  02  02  02
02  02  02  02  02
02  02  02  02  02
02  02  02  02  02
02  02  02  02  02
00  16  02  02  02
00  12  02  02  02
00  05  02  02  02
24  5f  69  3c  00
12  7c  54  1b  2e
18  77  37  2e  00
22  42  3d  19  00
17  19  00  27  00
24  48  29  00  00
15  7f  4c  06  00
00  5a  73  30  00
00  0b  15  50  00
0c  10  02  07  07
09  12  00  0c  00
00  00  19  1c  08
00  00  60  63  1f
00  01  62  73  2c
00  2e  30  14  40
00  38  26  05  07
0a  19  0b  39  04
07  06  00  23  0b
0a  1f  1a  00  00
19  7f  3f  06  00
1c  60  4c  11  00
20  14  06  47  00
1a  00  0b  00  00
00  1e  08  00  00
00  00  00  01  00
00  00  00  00  09
00  00  01  0d  0c
00  07  04  00  00
00  0c  00  00  00
00  0b  00  00  00
00  00  00  00  00
00  00  00  00  00
00  00  00  00  00
02  01  0c  00  00
00  16  0b  00  00
0c  0c  07  00  00
00  07  05  00  00
02  04  06  00  00
00  0b  0c  0c  0c
00  00  0c  0c  0c
00  00  0c  0c  0c
00  03  00  00  00
00  0b  00  00  00
00  0c  00  00  00
00  00  00  00  00
00  00  00  00  00
00  00  00  00  00
00  06  00  00  05
0c  03  00  00  00
0c  00  07  00  07
00  0a  00  03  00
00  1f  05  1f  00
00  0e  0c  1e  00
00  02  0d  17  00
00  04  00  00  00
00  01  01  00  00
00  0b  00  00  00
01  1b  00  00  00
09  17  00  00  00
0c  0f  00  00  00
00  03  00  00  00
00  00  00  00  00
01  00  00  00  00
04  00  07  06  00
00  00  06  03  00
00  00  01  00  02
00  12  00  0c  00
14  23  19  0b  00
18  1d  21  08  00
1e  1f  2b  00  00
21  12  2d  00  00
0d  16  25  00  00
00  09  0b  00  00
00  00  00  00  00
00  00  00  00  00
00  00  00  00  00
00  06  00  26  00
00  64  00  44  0e
00  75  12  4f  20
00  4b  28  3f  52
00  5e  26  18  5c
00  7f  3e  4d  41
00  7f  3e  7f  33
00  73  4e  4c  1e
10  51  51  18  18
46  55  4a  05  06
00  67  19  00  07
00  78  00  00  00
00  3a  00  00  00
00  00  00  00  01
00  00  00  00  0a
00  0c  04  17  0e
00  2f  00  2d  07
00  4c  00  37  00
00  49  17  5f  0d
00  25  1e  50  0e
00  22  15  1a  11
00  44  00  00  00
00  3e  02  2b  02
00  3f  00  44  03
06  03  00  00  00
14  1e  00  00  00
0e  00  00  00  00
0a  08  00  00  00
00  00  00  00  00
00  00  00  00  00
00  00  00  00  00
00  00  00  21  23
00  00  00  4c  04
00  00  10  5f  00
00  00  2c  2b  00
00  1a  4a  00  00
00  44  23  00  08
13  59  00  32  04
6f  00  00  24  00
1e  00  00  13  10
37  00  00  02  00
16  00  02  00  00
00  00  01  00  00
09  00  00  00  00
01  00  00  00  00
00  00  00  10  12
00  00  00  1b  00
00  00  00  27  0e
00  00  00  11  00
43  65  00  16  36
65  66  00  43  49
2c  4d  0c  44  51
01  34  00  2b  43
2b  48  09  1d  4e
49  4d  14  30  57
56  50  2d  64  62
48  7f  27  6f  4c
5e  7f  3b  43  3a
5a  7f  10  13  0f
6f  7f  19  07  00
76  76  06  15  03
66  43  40  16  11
0e  41  7c  1e  2c
00  7f  7f  00  37
1f  7f  33  31  72
7f  7f  00  6b  7d
7f  7f  00  7f  7c
7c  62  00  41  70
43  31  00  0a  7f
0b  17  00  06  7d
14  16  00  41  7f
25  23  00  32  5c
0c  23  11  3d  67
00  2c  16  1d  41
00  00  00  00  00
00  00  00  00  00
00  00  00  00  00
00  00  00  00  00
00  00  00  00  00
00  00  00  00  00
00  00  00  00  00
00  00  00  00  00
00  00  00  00  00
00  00  00  00  00
00  00  00  00  00
00  00  00  00  00
00  00  00  00  00
00  00  00  00  00
00  00  00  00  00
00  00  00  00  00
00  00  00  00  00
02  00  00  00  00
00  00  00  00  00
00  00  00  00  00
00  00  00  00  00
00  00  00  00  00
00  00  00  00  00
00  00  00  00  00
00  00  00  00  00
00  00  00  00  06
00  00  00  00  09
00  00  00  00  00
00  00  00  00  02
00  00  00  00  09
00  00  00  00  00
00  00  00  00  08
00  00  00  00  00
00  00  00  00  00
00  00  00  00  00
00  00  00  00  00
00  00  00  00  00
00  00  00  00  00
00  00  00  00  00
00  00  00  00  00
00  00  00  00  00
00  00  00  00  00
00  00  00  00  00
00  00  00  00  0a
00  00  00  00  09
00  00  00  00  00
00  00  00  00  00
00  00  00  00  00
00  00  00  00  00
00  00  0b  00  00
0c  5d  43  00  00
37  51  55  0c  00
40  33  37  09  00
17  29  20  0b  00
06  32  2a  00  02
12  6b  39  2f  14
39  5d  75  1b  29
28  72  5f  00  2e
0a  48  1c  1f  13
00  55  00  41  00
00  48  00  38  00
00  18  07  4b  00
00  00  0a  33  1a
00  13  27  03  29
00  47  5c  00  2a
08  7e  4e  00  46
00  7f  48  00  4b
00  66  4b  06  20
07  5b  25  13  04
02  5d  3e  39  00
1f  74  67  5f  33
3e  78  7f  1d  58
31  3a  79  00  5a
0b  06  3c  00  27
00  00  0b  00  05
00  02  00  00  00
00  02  0c  02  00
16  16  29  06  00
21  00  57  00  06
39  22  50  0d  02
10  05  35  16  00
28  20  31  00  00
0b  08  32  00  00
59  22  7f  25  03
33  60  72  32  0c
5d  7f  7f  66  14
2f  76  59  44  04
4b  50  7f  2e  00
53  23  7f  25  2a
37  13  61  17  13
3c  4d  65  7e  4d
1f  7d  69  6f  3f
69  56  7c  74  25
42  7d  7f  74  26
2e  76  33  0e  00
31  41  44  00  00
2c  01  58  00  00
43  29  5e  00  00
27  0f  4a  00  00
34  00  63  00  01
06  04  00  00  00
00  01  00  00  00
00  00  00  00  00
00  00  00  00  00
04  05  00  00  03
05  02  00  00  00
00  00  00  00  00
00  00  00  00  00
00  00  00  00  00
00  00  00  00  00
00  00  00  00  00
00  00  00  00  05
00  00  00  00  0a
00  00  00  00  0b
00  00  00  00  00
00  00  00  00  00
00  00  00  00  00
05  05  00  00  00
05  04  00  00  00
00  00  00  00  00
00  00  00  00  00
00  00  00  00  00
00  00  00  00  00
00  00  00  00  00
00  00  00  00  00
00  00  00  00  0b
00  00  00  00  0b
00  00  00  00  0b
00  00  00  00  0b
00  00  00  00  0b
00  00  00  00  0b
00  00  00  00  0b
00  00  00  00  0b
00  00  00  00  05
00  00  00  00  00
00  00  00  00  00
00  00  00  00  00
09  00  00  00  00
00  00  00  00  00
00  00  00  00  00
00  00  00  00  00
00  00  00  00  00
00  00  00  00  0b
00  00  00  00  09
00  00  00  00  0b
00  00  00  00  0b
00  00  00  00  0b
00  00  00  00  0b
00  00  00  03  0b
00  00  00  06  0b
0b  09  07  00  00
13  37  25  06  00
14  2a  50  32  0b
0b  31  52  21  07
0f  15  23  24  13
20  21  1c  17  07
2f  29  2e  0a  00
1d  5d  3e  16  00
00  6a  3a  49  22
03  1e  5f  7f  47
14  07  33  31  58
0b  39  3f  1a  0b
09  4e  3b  57  1f
0d  2f  5d  7f  6c
00  45  62  53  34
06  0f  12  12  1d
15  0d  34  19  00
20  22  2b  07  02
35  35  26  21  28
35  59  41  00  00
12  6c  6c  24  00
0f  1e  41  4c  10
36  1b  36  30  32
49  7f  7f  6b  5e
54  7f  7f  7f  62
0d  09  00  0a  09
1b  00  23  01  00
00  00  00  00  00
00  00  00  00  00
00  00  00  00  00
00  00  00  00  00
00  00  00  00  00
00  00  00  00  00
00  00  00  00  00
00  00  00  00  00
00  00  00  00  00
00  00  00  00  00
00  00  00  09  00
00  00  00  00  00
00  00  00  00  00
00  00  00  00  00
04  00  00  00  00
00  00  00  00  00
00  00  00  00  00
00  00  00  00  00
00  00  00  00  00
00  00  00  00  00
00  00  00  00  00
00  00  00  00  00
00  00  00  00  00
00  00  00  00  00
04  11  04  0c  05
1e  41  00  05  02
05  37  00  01  03
00  31  00  00  00
00  00  00  00  00
07  1c  00  00  00
18  33  00  00  00
0d  42  00  00  00
00  36  0a  12  00
0a  32  00  0e  00
17  40  00  10  00
13  54  2e  0d  06
04  2a  2a  13  13
0a  00  28  0c  0c
09  14  0d  00  07
11  22  20  03  09
11  22  1d  0a  0e
0b  09  12  0a  00
04  1f  00  06  00
0b  23  00  00  00
00  1e  00  00  00
00  19  00  00  00
00  03  00  00  00
00  04  00  00  00
03  00  19  00  00
0e  27  39  00  00
17  3a  38  07  00
19  27  3a  15  00
07  2e  44  41  00
00  0b  29  48  01
00  03  11  04  00
00  00  00  00  00
00  00  00  01  00
00  09  00  27  00
00  07  0c  47  00
00  00  03  1f  0f
00  00  00  00  04
00  00  02  03  0d
00  0b  06  1f  10
00  18  09  18  02
04  15  00  00  02
00  00  00  00  00
00  03  00  00  00
03  2d  12  13  00
3a  68  71  14  00
4f  69  7f  00  00
2d  2f  7f  00  00
0b  26  62  00  00
00  00  00  00  00
00  00  03  0e  0c
00  00  00  0a  0c
02  0c  00  0d  06
00  00  00  00  00
00  00  00  00  00
07  00  00  00  00
0a  00  00  00  00
01  18  1c  2a  0b
00  00  00  00  07
0d  00  00  00  0f
05  00  00  00  00
00  00  00  00  00
00  00  11  00  00
00  00  00  27  05
00  00  00  04  00
00  00  00  00  07
00  00  00  00  07
00  00  00  02  07
07  07  0b  0c  0f
0e  1e  16  1a  12
00  00  00  00  07
00  00  00  00  00
16  24  05  00  00
0c  00  00  00  04
00  00  00  00  00
0a  0a  0a  07  07
0a  0a  0a  09  07
0a  0a  0a  0a  0a
0a  0a  0a  0a  0a
0a  0a  0a  0a  0a
0a  09  0a  0a  0a
0a  00  00  03  08
0a  00  00  00  08
0a  05  00  00  05
0a  00  01  00  08
00  00  00  00  07
00  00  00  00  0a
00  00  00  07  0a
00  00  00  0a  09
01  00  04  06  09
03  00  04  05  09
0a  08  05  07  0a
0a  0a  0a  0a  0a
0a  0a  0a  0a  0a
0a  0a  0a  0a  0a
0a  0a  0a  0a  0a
0a  0a  07  09  09
0a  0a  08  08  09
0a  0a  09  08  09
0a  0a  0a  0a  0a
04  16  1d  21  09
04  11  00  00  06
00  0c  00  00  00
00  00  00  00  00
00  00  00  11  03
00  00  00  00  00
00  00  00  00  00
00  00  00  00  00
00  00  00  00  00
00  00  00  09  02
00  00  00  00  00
00  13  01  01  00
05  1d  00  03  00
00  08  00  00  00
00  00  00  00  00
00  00  00  00  00
23  3a  06  00  00
13  4d  04  00  00
00  00  00  00  00
00  00  00  00  00
02  19  00  04  00
00  45  15  38  00
00  00  00  23  00
00  00  00  00  00
00  00  00  00  00
00  00  00  00  00
00  13  00  00  00
17  0d  00  00  00
24  1d  15  00  00
17  33  2c  05  00
0b  3a  00  00  00
0d  27  00  00  00
09  20  00  00  00
0b  38  00  00  00
02  0f  00  00  00
00  00  08  00  00
00  00  00  00  00
00  00  00  00  00
00  00  00  00  00
11  02  00  02  00
23  1c  07  00  00
14  4c  16  00  09
00  17  12  00  00
00  00  00  00  00
16  15  00  02  00
30  1e  12  04  00
21  20  45  06  00
03  13  28  00  00
00  18  00  00  00
00  00  00  00  00
00  00  09  00  14
00  2f  00  00  2a
1b  00  18  30  0c
00  21  00  7e  00
00  00  28  00  0c
07  7f  00  00  19
48  23  00  1b  14
00  29  00  6e  00
19  44  00  7f  00
69  00  7e  00  00
00  5e  2b  00  4f
02  7f  00  11  2d
0e  77  00  58  00
7f  00  00  54  00
3f  00  6e  00  00
0a  01  00  00  1c
19  00  05  00  3b
00  40  00  4e  00
00  2f  00  3a  00
3d  18  26  00  00
2a  5f  00  3d  00
00  00  42  41  00
00  7f  47  00  03
4c  3a  00  34  0e
6f  00  00  00  02
04  50  16  44  1f
0d  7f  10  7f  24
14  7f  45  7f  59
18  7f  4e  7f  6b
13  7f  2e  7f  7a
13  65  48  5c  7c
0e  51  21  3c  43
07  3a  03  10  36
06  3f  01  03  17
08  45  00  00  00
0a  5b  00  00  00
13  4e  00  00  00
0e  43  00  00  00
04  16  00  00  00
00  0a  00  00  00
00  00  00  00  00
00  57  00  25  00
0b  75  23  30  1e
21  7f  25  48  34
16  76  33  43  7c
12  5f  3f  43  7f
0e  52  39  54  7f
0c  30  1d  33  3f
00  0e  0e  24  29
00  00  00  06  10
01  01  01  00  09
01  01  01  00  00
01  01  01  00  00
01  01  01  01  01
00  03  07  00  10
00  00  0c  01  00
00  04  1d  00  04
00  00  19  00  03
00  00  00  00  00
00  00  00  00  00
05  00  00  0b  03
00  00  05  06  0f
00  00  00  07  00
00  00  0a  00  00
00  09  16  03  03
00  0d  01  05  0d
00  07  00  00  0a
00  03  00  00  01
01  01  01  00  14
01  01  01  00  01
01  01  01  00  00
01  01  01  00  00
01  01  00  00  05
01  00  00  00  15
01  00  00  00  00
00  00  09  24  24
00  10  05  1b  00
0b  0e  00  01  00
0f  00  00  0b  04
10  0c  2c  11  00
1e  5f  2a  00  00
3d  13  00  00  00
20  00  00  00  09
1f  00  00  21  37
02  00  16  07  00
04  46  23  00  00
0f  5b  00  00  48
27  5b  00  29  3a
41  00  00  5b  00
1e  00  38  12  00
2c  39  2e  00  00
27  06  00  00  08
16  00  00  00  00
0a  0b  12  0e  00
19  32  23  0f  1e
19  1f  00  00  10
17  01  00  21  00
20  38  4e  57  00
49  24  13  03  00
1c  00  00  00  00
00  00  00  00  00
00  2b  00  2f  00
00  00  00  00  00
00  03  00  00  00
21  6f  0c  11  00
0f  63  3f  21  00
00  00  00  3b  00
20  07  00  00  00
00  37  0b  16  00
00  00  0d  00  00
18  00  00  00  00
1c  5c  00  00  0b
00  04  12  22  00
10  00  24  2b  00
15  00  00  00  00
00  00  00  00  00
00  00  00  00  00
00  00  01  03  2f
06  35  00  00  00
0b  32  00  10  00
00  00  00  00  07
17  00  00  1a  02
5d  6e  3c  3a  00
06  19  19  00  00
10  00  16  05  00
00  00  00  00  00
00  02  00  19  00
00  16  00  11  00
00  30  00  1f  00
00  0d  00  1d  00
00  00  00  1e  00
00  1c  00  2b  00
00  12  00  0a  00
00  05  00  00  12
00  08  00  06  0a
00  0a  00  07  12
00  07  00  1b  00
00  00  07  04  00
05  00  25  15  00
0e  00  1f  0b  00
00  00  34  14  00
00  1c  05  03  00
00  1d  21  00  00
00  26  00  36  00
00  12  00  19  00
00  05  00  0a  00
00  00  00  00  0e
00  01  00  00  0c
00  01  0e  00  13
00  00  00  00  01
38  72  05  09  16
34  7f  11  35  40
1f  5c  08  39  4f
1e  5b  1a  52  48
35  7d  2d  6e  32
41  7f  32  60  24
2b  7f  0a  3c  08
25  7b  1a  10  00
2a  72  3d  1e  1d
20  48  56  6c  37
0b  2e  6d  7f  26
09  4e  59  57  16
2e  7f  4e  23  2f
4f  7f  5f  4b  69
38  71  55  71  7f
20  54  65  7f  7f
2e  72  7f  7f  7f
40  7f  7f  7f  7b
40  7f  7f  7f  4e
26  78  3a  5c  2b
25  75  5a  61  31
44  7f  7f  7f  30
4d  7f  7f  78  20
3d  7f  30  30  05
10  22  02  00  00
15  36  00  07  00
38  36  38  06  00
46  72  58  0f  00
66  7f  52  10  00
75  7f  7f  1a  00
7d  79  7f  1c  00
46  7f  50  00  00
2f  48  26  00  00
19  25  2b  00  00
12  2c  00  00  10
00  00  00  06  14
00  1a  00  33  00
18  22  76  2f  00
2b  4f  7f  00  00
25  55  00  00  00
03  24  00  00  00
07  18  00  00  00
15  01  00  00  00
04  00  00  32  00
00  1b  45  40  00
0f  68  7d  09  00
42  7f  39  00  02
5b  75  12  00  04
5d  67  39  00  00
62  4a  1b  00  00
1e  34  00  00  00
21  38  00  00  05
2b  43  00  00  00
1c  2f  00  00  00
1f  32  00  0a  13
15  25  00  00  00
05  0f  00  00  00
1e  2f  00  00  00
0b  17  00  00  00
22  35  00  00  00
29  3e  00  00  00
07  13  00  00  00
16  25  00  00  00
0e  1a  00  00  00
00  00  00  00  00
00  00  00  00  00
21  30  00  00  00
25  39  00  00  00
00  00  00  00  00
09  13  00  11  1b
28  49  07  29  11
16  2b  00  1d  10
00  00  00  00  00
00  00  00  0c  09
00  00  00  00  00
00  00  00  00  00
00  00  00  00  06
00  0d  00  00  27
00  00  00  02  11
00  00  0d  07  15
00  09  00  04  00
00  00  00  00  00
00  00  00  00  11
00  00  00  0b  31
00  00  0e  29  0a
00  00  00  0e  0f
00  00  00  00  00
00  00  00  00  00
00  00  00  00  18
00  00  00  00  2e
00  00  00  00  08
00  0e  00  00  00
00  12  00  00  29
00  00  00  00  3c
00  00  00  0a  25
00  00  00  2b  02
00  00  41  15  02
00  00  00  00  00
00  00  00  00  00
00  00  11  36  1c
10  09  20  00  00
23  14  3b  00  00
25  0b  21  00  00
12  01  07  00  00
00  00  00  00  00
00  00  00  00  00
00  00  00  00  00
00  00  00  00  00
00  00  00  00  00
00  00  00  0c  05
00  00  00  0e  04
09  04  15  12  02
04  00  09  00  00
0a  00  02  00  00
00  00  00  00  00
00  00  00  00  00
00  00  00  00  00
03  00  0b  00  00
00  00  03  00  00
04  00  00  00  00
00  00  04  00  0a
00  00  00  00  02
00  08  11  18  00
00  0a  00  08  00
00  0d  00  01  00
29  00  00  00  00
56  66  00  00  00
33  53  30  00  00
25  27  31  00  2e
10  49  05  00  02
10  42  00  3c  00
26  00  00  00  00
00  04  1e  00  00
28  37  00  29  38
25  06  00  19  00
13  25  35  00  00
09  03  21  00  00
00  1a  13  00  00
00  25  00  1c  00
1e  00  07  00  00
0c  22  41  00  03
1c  00  35  5e  11
4d  00  00  37  44
42  01  16  00  00
33  09  00  0f  00
1b  00  00  00  00
40  4f  00  00  00
38  4d  29  00  00
05  78  3b  00  00
12  0e  0c  38  0f
00  00  00  0a  0b
00  00  00  00  01
00  00  00  00  07
00  00  00  00  00
00  00  00  02  06
0b  0b  0b  0b  00
00  00  00  0b  0b
05  00  00  0a  0b
00  00  00  00  06
00  00  00  00  00
00  00  00  00  00
00  00  02  0d  00
0c  00  00  00  00
00  00  00  00  00
00  00  00  00  00
00  00  00  00  00
00  00  00  00  00
00  00  00  00  00
00  00  00  07  00
00  00  00  00  00
00  00  00  00  06
09  08  00  00  08
0b  05  05  0b  0b
0b  0b  0b  0b  0b
0b  0b  0b  0b  0b
