0037b5de1f09c11007ecf94015122029c84fece7ef00f2223fd60ff8c60929b5181cd604fe2de4eb0aaff0d0f23b1d2338024328d7e613d81513cacbf0d000cf
dcd00206eee31011e637fc2004f01918c951e7cdf3dc01011914ddeef505f93ff0f80b49282b13fffd34cff3d0e8000dfbdb281b0efbe3d717e20aec10dff316
f908090ddad81402fdfc0cd601f2cfecf217cc24132510d8270e33f00ce7f5cd20fd12c805f30fe0cc3ffe272816e3de02eb13062726f304e5f201f726fbf41d
db2fdaf9093cebeeed4afdce3515df31d60e0df2f0edff3b10fcee30c71ed3e711f9dfce19061bec16bcf2ceb92ff4cafdc9daf42020f0c209cb2c29fef31501
fdf2140dd0e6d6cdf932e8f8fee3e4f72b0c08dd1e11050e24f40df227100aedf80a2ef51add02f4f6ec04320516050f0004fb302906f738db07e5c21bc5fdee
2622fbdca0eb241f30fafbc8dd0d1d1a02b5d314b135c4e2d0000606f03cf915bf241809cfea2cd53a20f322fc19e0c7e02cdede10b0f6f6041b191ae93546f6
2e0cbf0c51ef1524001e23fd1728ffefb221053422caa7cefc281d03fadf1d08170c115ee7fdf8dc0f0ae3001ec00b0aaff8ed0b17fd4203e6f6070ffbe2bc16
d01cef0c18f1fe3fd41ce2f52309d10fde321f05e9e715fadf18e4081dd30abd15f81adc130ff000fefce4f3321df827d6e708ddfdcf19e116d505db1701e8fd
07f61ff1dedd10edf41e15001ac2eb3dfceaaf4816330311cdfde02ed8dedfe43100f9f3152c1ee40a03de3305ca1c05d1f9ac3ad7c40bcd0adf21ed0411fc18
eb31f9dff2f00cd9190a01031e0b3f42141a39c505cd21d3de21eae6fae50d4a24d3edb6d0fe2717edef011c0102ec0bd7e207fc042d3ee9f61609eddfe52ecd
ddeae1d267f90af3efdccd0f11f70138e611fef016df3d2f0e2c2e1632dc040c3f27deebe225f1d90b2cd8020dd43812160c1e761be7caf01709f8f2d8c6f0e5
cf01c60722f400ffe8180bd90c1ddafbd90ee8e3dbdfe8d02aea0600d122041b04142a08e600e424eee11cc8d1fb1ce1cde5f01fed2bfd28efeb2309361b110f
2612d7bffb0c0db6e5e8e2072cf20b12f2f6c9efdf0aedfdd4e00712c6ab3209f40ee802ddb20e3a0fdcdbf8cb0a17064514d4d032e90e2ffe22c7222746dbbf
0fc6d4ed160e1307e496d9d9ee0d15f3390a22e8cddb131726edf4c6f5de02ff0ff133d2e72de0f625c003a8e8e601e5f3f4fcdac902f3e6b92ad9da05010f06
46c7c7033e3b350507c8343af9de1edf1df711e802da05df31e123c5e0fc1401e90fd31f172911051322f05bfef70717f60cc41d10c911d91a321922eae00c35
013404df33ed06ec0defebccfe17ecfcf4faf4b211fc13e5a7d7b935f6260e1fd3f20fd8162df7f109e223ff23f8ebe651dcdafd0117f22204fffa26121e0a07
e524f3172e16fd090029f6fedde221cefaec3b04fc0318e6e900f0fef71ef4ec0a44fe05b94105ceab2a18f3a70922ea3ae70cc5c9d3e8e1d0d5090306f33dc9
1cb804edffc92ad5d9defef7e4dddbea3ee32702d71225152e330c1ec9ed042441e1f2f80f3af8dc04ebdef81619f11c591532e00027690125ee1b0c19453b09
f1ce29ddf6bf0903cd350a0603eb1e30e1d1f3e2c9f6c701341d04eb1817030d06c304d1d224fbe2c0f112d7fffa31d903ea0621fc04df1eedd4f823cb07f6de
1b37c7174f082013df2606f6fd2fe6f32844e402e037182e1508e0dfcd1e0bc60bc7ebd118d1fb140d0bda0100f329e416efcf02cdf7ec01d700f1e3f0240ac9
d6fbe7d7ebdcdad3daedd423fecdecf638e1ee12f6ddd2f4f8dde7e1d3d7f426d7ef1e1cd91e02ebbd24e13e1724cc061402001df3f821dc16fade1d0de623c3
35a32022e41923370ee7cb15e2d59dec07ee2ad9003205ec12fce6193a2700fbf2e2e3edee400ffa1cebff27d518ea163218142a0d1b2ee2121d021b0149e027
ff4b2819260712eaeb21d72cfed3eb39c128bce536ef100119f9ec38f9f2e829d711112fec2317f0c2f91d0a26d801e6f4f1f2dfe20ef2ecfdbc23e900d425ef
f439e927d5ee0936ece117fbf3e507d4302134050315d8f72bf5df0fee30c10403f12bdcfa28f3012311202df4efebd9370511d6b41fea0710e8e6debb30f8d4
ff0a03ff09f922061600f128c7dc03bfc7fcd9021a12e7300bd2cc0adc2746332206f40cfbb9fa131be649df0be0ea2fcf2ac915fbd7f507052de6f2ed5a021e
ebbbe623e922c92204f8fff0dfebcfb50fc71e1cd231f8e2f70af4e60df5dfb80f0e1c051ebae4eb04eb132209d50804d8220ad21330190907ff1edaedf5d823
daeb10e70c0910f3c42bf220e7e03bfcdee5da2230af03d2b6e9f8e608fed2c7171cdd0516c5d41234e3bd142ce2a9e6e8a7e5fc2300d935e3bae30f4b221736
231d191adab6c5042d242cedba29c2e6f1f807e522d4f0f60d0b0cee05cdf1cbf017f4cb05b9d317fcf92737061ae6ebe7f92343d3eee7f4ff020430fec21beb
ff1a11fff7e118eccff32d25e200d3121412de1a23eff7f33bfa16f30edf01c1df04f9231307eb17eb2dfb07dce1d2c8cefcfa24e9c5ff0a061c05dc19dbd4f6
fcaaceec1115ca36f4fcd8d2f400f913da455bbec10a0230dbeeffdd00edede103d3e1d2fc440efefa0205e1fc2dddcbf32bfbeedd2b0a2ccf06d312fe09ecd3
d0e3fa1803f21423ff03dff121f25fd1f62deafe22d1fbc81b11fcfd1be7c23fb330f2e2f62f09ecfc28f6ef1ce401d32d10bbe9162b1ccdd803f020060416ba
111038e9fd3e12130a0107de2b22e30741c6d124dfe8e120d5d909f9e5f300f0e81216e90b51e608f8d2d7c90e00cee34611df40ee141616f506d9eb14e900c4
14d010f0c012b9d8f0d925e204103632dcfd130002e5f71ac001ce0422210c381f32ec32e2e90edae833bd342201bd1cf4f2e6d8de0108ea050a08d315fd18f4
f3ac02120dd6f92dd5cb34c2f90c4f0b12edd62814eb114022e2abd90206ee34e4fe0919e2e8e6fe0e14c4e519ef15121121fd28b719f4d326fe0ee53214fa09
09fe0d03fe31283c1cd21aefed0800da29d311162cf3fbde2529cae8eb05091bdec60bf804a92a1310bb1c41e7e7ead6edf21de71bbc01fbd52de5e3fff0fcf5
ff111cde25da03fefff31903e3c9330825e81d222bc9d413180f16f2e124e4dae8f4cf2917f2fcd9e4cefc272dc201f9d9db0d21db190fe2e6bc0c17b6c623d3
f7d8f4d40603070f10dfe71100f2b1012fde0921fed901f31510f842dcfdfd1c111f1dc1f81f23f10ece15dbf31628141625f6fededefe1116051db80cf40dfe
2a04fed8020033239ec2f820051ef2c0d6d3cbf8ed0dd8db09f3220ff91f0e5434182bf5ebcdf7a5f7ca1509efc00525ed131ecce6af1b2fdcade9aa11d7dbfe
f54d21e2e10ae5c3ef02d2031001ed2034dbf8a7dabbe6f7ccdb310d150b12b415f5c71bea0efbf3f31f0bff01e028c82f0ae4dd46ecdc3dc102f0e5e6550bdb
0af50d0c111b0a44e5eef6fcd10215072ae2241f072d140604ebe5f3ebde1a081f33151d1a1bd12c2bfc1cf3402a0be8f10d4b1d2112efd0d42e1ceb0312cf22
0b35edefcdfbe5f4141dee104b1dc51bef2b2dcd35f80bc0ffd00a19dbe6eec914fe114f0c1be8f9d2dd5527e5e0ed13e60a002803fd2fffffd32531d9fe25dc
1ef218cec8330dccf1d9055ada011708e6ffff2ef3fdfb0441fe19d33237290aee55f918e3ed17c20c36c304fc1ebf1ff5fc17f1f4f44d371d13dcfcd7f5f52c
fd5c36fc00e4bef211efd8e424fc06e70435db0af7e4cd1eefd9d2f2f91e01b0e4e8f53a12dce018db2630b231fbe847ad2a100215cd07f51cf6ee021fe5e900
2a0f0d3a160125c3f83631cde8f7c4133600e40914261d12dcfbc6272af806d706df2ee5a409e7f40a2cc6201a0ecedb4324e6fd1297210f0e0bdf37ebf522e8
c9bc28f2050f14001bf9ed2af623ddf4f81c0be738d61919cb24d1f9eeefd3f9263cdb03ce4613ee06a909fee606360e20f715eae1e7ece203e1150519eae410
10bc131ef926a81ce3e4cde9cc15fae801d7202fcd231cdeb8f6fcd9e4e6022df21d1010f60bfa0a24b9d9e6f0caf7f70ec3221dd7cb19ce1131f706fbdecb16
e8c2ef03fd260118283de232e612ca181c4ee8af160fba00c8fc03ec012e9dbc1926dc22ded0e6f7ee27fbdffe2be511f0cf2730f2f2fb1f0706040901b2d9e7
04230fd64739161315dd1d1ee4ec25201330f5e8ce3df2d7eb021aea12bdfd1cee1c0503062509002001d5d9bffcf4f40c36fdca2215160dd8e5caead6b4110a
d11b18fd00e6dae7f42622adda0615390e18f61c28c5fa0505e20fcd03ee12edbfcb11d4f1eb05ed12ee1a0dcb0602da04eaf7f7cc062904c81426cc02f815f1
cf10fd0720182df6f6fbec1fe7cf3a080012e62c3aea2613f322ff2d1abff3400c08e406dc7518d0fecfebe4f1ef131d3e02e23ce441ed19f308fcdd29072827
ce2c02d25a2dfe020145f8be09efc9c02710d31201d9feeb38dfe33305ead2edd50be1f6f9dae3cee2a60b1adff21106a1e30494020006e8e0e6bb19e21e0d00
353dfd17cf92f22922e6f5080defa402301409da95fe3fc9bce2f6ac03efe2fc061938f3e7143226c5311020c6b83333061e0c270a2c34eee112e0dbf82b2511
fdb2e7f606f5f64e0418e0eef2f7f9c5da81f01ce2ed1b232bee17ac173a37f0ec43e4d3f74c06e80a48f2d3e141f316f13012e927e4dd2d011b0319ef02eb29
dbded9192d0be31325190ffb24d0faf5240e0d950d09daf537effcf2d5bbf2f0ad17ead3ea15f52321380b200f0a19eedb2412ed0b18e4f0f6fbfb0c21ebee35
34f6e4ebf3412c9be1e8d455d2efd1e7ea28fb1212061f1512f9ee1c4947dbdecb11ee23ded70cf2001e1215a51cea1f46cff0ea161e2be6fce5fd53031dd1c8
41ca0c2609e3091127c0e5b9cefec531f900d3081d270a19e707cefc153532222543fa2514f722dc3c0cd4f9f3e8e63ffe08ec1c859df4ec1422dc31ea1e2223
d2f91014d7e5f4f106460dbbf7e7ef0d18fb233bd2bbf44ce5f4ed391eeffe22fcf5c3d419e9f2c717d817361d00ded727e6e9c9bfe8df1d1cc93258e22925e0
2c4df823f442c7dffbcf10fbd812e43cf42b12c5f4e525f51a13c2f912001af52dd5f1ede3f81a00e73a0e2d29ffd600cfc10be01b41ec10fe17eb1a330b1612
2ad845c720f905f7162fd3073303f0e7c8e416ead71220f521e10c2139f7dac6d622fc2b03fae59bfdd1ba0a2bf1d0e4eddbfef4edcfddf11c18442ecfd909fe
f31f10ff162707e3d1f02ee30a143035144201fe1f251c01220ff2fb11e7f7c1d5de16fa15d7ef221706e20721e8e8f2f30aec2b3ffb23f509081bfb2df1e32a
c703c0e3d70fecdcf711ca1ee0db24fddf16e60944e8dcf1f1d8ec06d4f2cdcd0d181b04e1fbcb001f13e6ccc3d403d025e7eba8060eb3f0e9f203fb0d1af437
040c1b19040906120c1cd8f532db271225f9072d40fc160bdcc9f206f9b8f7d5ffbdc6e51ee5f3fdc1ebe056e5ff130808dbf319d6dce0edfafcdfee1ae8161b
fc1ae8caf32908efd8c2e619dbe92bfca71ee3c918eed10bfa2bff0dd2001018dd34c525f0f8001926dce80201dbc7ab1bccd22008eacfc5daf514de35d5db1e
021e01184def2f191823e2eeddfacc0020f4f1e7d206de1f04251ae3252319012ef016fb232a20210aae1becb3f6fb12cd131dc413f41d41f61a3408e0f5330e

ea1a34e93007cced2eceed5ef724f2c72ff328e43af1e2f5efcdca002bae1f190c0cfaf7d9fbcee1dfec24112ee0130b0b3a1afc05120028cee0f3fded1ee2c8
2d2495e6d422d80213d3d5c020e0ecee13582b1e42fa2eefc90c52b2e80aba0c151b1f2509ee353023014cf5c004e512e0e524ddfbd4f002ff06d2ec20ac00d0
f31aec27fed71822d85a10e8d3fbb514d0d6e9e3090a04002c16205125eb09e4321dec17be06f42d4d01ea24da08d208e4cac0eaca0c2a01d4f2ee1ad20e1cde
0020e8fa1f05dfd415c6ce3fe5b206e4ecc82610c9a4430c00242c20e321f31bd4d5b71a1f1f261009aebcdf3cc4d80226f3de18c20d10fa1cd1ddbbf3fedf05
31e5e7c9f6d0290308e51df02417e3d6ff29fbfec31224d332f01caac4e5ff1a01fd17cdaef52418281ac4f324f1ffbcf8f5e32622d1eb1d1ae1b032f0ccd6e8
121502f9f2fa0a393430f22f0c04d2d30c150cc8232d1741d8d1300406f326cdf6d22cffef0ee501f52ff8fe2238f821f0f246ecece0a50edccf18d6f64f1621
631142eec927df09ddf5088c12fd24effd3324040c19e7bac5ddd9d811063beb3fe9cf1cdab743e52629d951c6e83e2df3d91cc80d0037d1fee4cef31012e412
22da2acfe54e0af226241f24342f2b1cd8e427f61ef84dfe36c5dc39fc2cf220f9d4aaffd6452c01211b3f43ce030c1006e3d5f5170cf6b8ed28232b2cc60c0e
f8edf70cf3eae919d4fc23d517c4e61eead1eed8542c42c41524fe041f200433e7f2fc0df2b0ebf402ea160acc17f2dcc1e4e407d5ecd700fe1aebe7ca250215
911bf0c633dd1ebaef08e613ed13c10cdb274a0feae80f1b52f7201b25bd3f0dfd1afc5a023d0b17e0d1e924e1d3b61010c758e4d4ccd9f9080304d715ee2505
25fd1036fc26fecef80214371234ffdeea29d7eff710f32024e94ff91ed0271b1e0b3ce2004ede373bdb0f05143213b2f9f7aa1d0fd9b8c7e9dcf3f8dcf71c35
d7273721eedc07f7ef170b5fde031ef401e80703f812101b12fa433122ef300bfad90207120416e2eee3e5b414e00b1e2725bb221ff42adff1fad1d400cf2603
2b22fb15d70538de08e006f907f9bcd7991e3fe9ddfdeb332afd03ced919f6fd49260c02d82a0702f4f7cfd105fb0629e4fd1304bb2332130cf41ce8cd0019de
02533029ec2ed82314e718bdd6f5042926ce17cae3f7071ae03fc642f5c936edea30da2c00ea0beef90fef13fbaacc32e737ee28484ad2e831ed6709d7a41313
d9e02b3a42271610ee2781c31930c7baf2e7ed3038fdacf0eee70d40e6fafeed05edfcecf3dcf72fdf28fe000ee9250127f2250cd56325e51d1503081e3b0701
b4cfe905f9bb12e2d50ef0e43ebb041f29e1f0f425e5ea0fd2f2cace05c9d2f808cc011fef1c04d7aee71d18bcebe51104d9d0dc120abcf4e01ddf13bfe6ccca
1dfef741f12823241c1bf70a4bfd0203d5182a3de90cd341e2b4e5c9aed508a9ffe8fcf8fb19ebe35029f0f93449ff14f6f9b0cc11e0ffd2fcd9bce402e214fb
1413d7dae8d5ef360ffbe61c0f1302c73d0bd848d1daed190602c2bc46c8042b0b093a27bfeebbffddfc231eb3c8eaee12edbc1810faea0aded9a724e5ee13e4
e0d9c2cec312e113b90628160dbe0419d3b3d6201dd3f8ac259deffaf7fd1407e3ddfcf2f6d5d4c8ee1b0c061910f14ef83b07f828fa1b1ceae42e19cee9dd03
fedd3df515f51c2b130e0e0b2af1cf0900e0e213cf03d80d21edda4dfa00def1bf0dc30cfe3d26e6d0e0cee9fac2fa3c14b5e8ee0bf20b4026184026dd0d21d2
2a28c2351903d20614e0e4e2cd2d0d182cef1d36e6f2f2e3f4122702fee6e6e343110dfe1226c822fe29c92411b1f7ca20f2080ffe0f2bd112e12b03d90d40e3
1ea52e0ae9e0be20f5fe1138e7e2ec05400a1721290beb2dec1ef0f6fa2d2eea0a14f0cbfb1d06f7c7e2fa39ebf9f2242af901e6c11b0fe711231ed71b281702
12061300fdd017f0e2d605ea1715c2ed27030c4ce7cf22df1c211ef9da22df17daf7152c0cf0f7c00dd80ef616162a0b02cb1f212301f2f30a1c12c8ebf5eee4
4af80015183f14202a47c1cae539cce1e6ca67e5142d141bc4020017dc130cec21140f22363d16c60cad06d6429bd61921ff082bfb00d0010c17df2bc7df0cf8
c7f8e8df300238f6cb18cdd2072923ede8093fc3231fccf54df7160222c7e903fdf2e102f4f8211df3e60ceb30d8cb5a2e254116253519e2b6f2fa34f512f10e
f11012f106091c120bfdc52c0a1ac6edc1f403e2280c9cfbc2e70f10dd071f2eb0ccd310e1fa0007039117273719e704050cfd0b116ff40441b9fd063237281a
e2e412b6eb462009ef2ac607e70de40c1ab70a2411f0d8dab74b56dae41fb9d9002016041e15c409fcea0312fe1fb5f9fb060ae0bdfff013d6ecdbdfee1601e7
b7fb2cd015dd0bcf0dc417f6241915f2f1bfd30105f7fbe7ea060ef7e4ef19e50f09eaf0ef18d702a4f4c6cece29ffe7f60bc9e6dc04dbde080ff1f9bd301431
d9de9c49272a212310052516082debf2f12b3421fff2110203f9da233d231209f604bbdb12deded8f3b332d3c637fe091fe61e0e281f20e8350e2ec8fa211fe9
48cd0507eed7fdc811ff180be5bcd61ab6e8e81aea0c3e2fdc0acc15e8c2ebecf7c821d7c529d21dc2fded12e4111ddddcedd2bff5d91fdc042923d8e0e7f80a
da223b26fde6c20600f2e525fed7db2d12c1bcf63ac91c11efd4d6acd3e2efda11f4fbe0e0cd2ed217da33f3390ee5083310111f10fb2ee45dd7f70d34e826ed
1c1fc1d41b28f2c0b9b033dfbbe3f82029efdef31620170a2a36fbf31be0181c50f6d8072405e6dafa46c549f2fedbb43704051ec20a1c46c5d3f60c1ee7e72a
bf0eeef7260526dfe7f3103424e5f3b4d1f8e2d8141210da03e02a02ff1f14fc0901d2d401f3d021e9e31d0ffe19f4a9f82707ddfad3f249ee0ee9ff1400e314
0710bdf5ff6fd534f10514e0e20438ede8cf50e94de717b1f535c4402a16282f242e13d3b5dd12f5c8181b2304e101fbfb05d8ffe5b83c061bf7fb1919dedbdd
3309ee2704c92c35faeeeff8fe0d0bf8bbe52af8041dee3e052bd9270321f8010702092c162c4613e5f4f4130ebdca210009c9ff31370003f205ecfdd53b1cd6
d4040df9232ccebc1f3d32e9fafcc8f40604ccea121620f70ce3f7fbfaa4eef004d0fbc315141a071f26ef34f122dbf1361807fbeefaf6c109f7d10ef0dd2117
da15dce70abdf81eca1cfab6ec0c9702f106130c234500da140af909dd1cfcee50031ccfd1df30241bba24e4022ffaf216f438f2f808582d18263647f4132517
faf6fbe821f3f41e181d11fdfd29310c18dc0cecfd4105331802ecb8152cd231f8123b0815bb0736f4ee36ec04e8ffdfcb1d07f10e02faf6e315e9e9f0eefd1b
cf1b632026e9fc062e01f1d01937cdde03fe140c063229f3f8e2f9d2da2baa0332ebfce40ddaf5f6d9384a40352902e2cfec1b31e6d0e92ced07a2f9fef80bfa
360ee7f4159d08e1f8bcf0fd08e945083001ed02df0df014e6fd17f908bbd414d8f8bfffdc3efcc106f0c4fa0c37e4daf732c914e7be3be1e3f31beedf2ef0fe
fe07030823bd15e1fa162ffdd80201c7eeb7f801f72e2417d133de0c071119e1ab190721ee0a1f1e0221e8f80a1807def03a011321f3acd616cc20fb1cf7e4e5
26e41305b9cdec3adbf6f9e82ae2dde9bfeb2cdff2e5e407adc627bcced8f20942f2c804ebba20fef9eff6f5150756faf3e6e6f6e12b3f00ffffd1f12b1dfd1b
c0d203d134e4debf2ecbf623ec26cbd6a9e3d11defba17d330e11bb329ecdcf00af8cd10f40cbf170dda1bc9ff20f40bf61e13de06c23026c827ef21d81aebe7
37172004dbe1d2fa231aed00f8ee2a154d35e1070123070e252d1ee606ebd62b0acffbf822cb18df263614dad5020de9f721dc0120e4d61901ee36e006d73000
171848eafc2900fa10cfc82607d7eddedff20a3ef1f118e2f8fb17f0db232ae4bb141df00819d1d7321adc1bfffb05d3ecc92d01df2017cb1e12f53411fef30f
ffe906e8ae1e23e62fd32824241c111907f4ec24370a1af7ef28fe26fe1cce25bcc615cff51bcfcdda14bfcce3c839dbe2cae014d400e0dde6202fdd13d9091c
c9022901e434cf471f1332cbf6ed3b1631e0f1f331032d22111afd11c311eee5c2e8da1f04dbe12607f9cf2fe8ebb6de3303ef08c6d0bdf9b6112504f62119ec
f6b1daf50005c9e1d1eff30512030febd0fcfbca17e7efc9e6163bf83d31a62c15e40af909022506e4e319f3e9eff031d9d60902ce001a070204f5f0c606e608
250e37c1e15cabf0f61123f4f732d8d51beee2e01dd4013ff2c9cf6341cdeb0100ff2ef9b163bf200edf14090ef1e8f4ef24f22dc6b514f7ebee1ad220ee0412
f6f7cfd90d303c1141f8130cd4023913c0ebf5e4bcf0ecd816b523ed0425280a3fd00b211c1b492a1cf738131defdbdd2010e4d80b5301fee1dbe1e5221cd7e7
08c316e120143ce7e9b60310112e01ca12bf2805c6ffdcc52f120c2bf42ff9050630e3d9ee1ee30108f8dfd7f92bcadf111200f5a7f8fe2ff1dee2d93c341c07
c52de520d1f9f5c738e0dfc83028e1e9bee898d9dd2a2413fb0afeedb2fcefcb09fbbafac8fa62ddf9e2e21ceec9f62db92adaf8fa01f325081ccdf6e7012d0f
271f2f2eef2e1af3fde2e407080c23f20127d618e70dd9f7412a01dc11dd082bccedc3362129ddc30f4720ed03130099e42e09ef2407f7d4e0efd4500cf313ec
f6dd00d328271e1b0d0a01ce4aff261419ec13e1e01e2dd2111120e8e6fcf22517d92c23f015e2cdeefb2621ee352211190e06ebe2f8b6c82cf4bb30034cd608
250101e4dc3304f30026fad10af9dbd90a2922e13c28f4070a292a0019f21dd1353901fbd210ff152e09dfe613f70624d4e10de61c0d0a1cdef1e20708340de8
0f18161e18223b0c02c1da083240ca0cd70ccd49d3d90220f1e1f94bfdd8f6ec3f17c4eb03f5ee4e1303240214e4052d0ec8e3f7f02f1b0af30e29db39fed31a
d414c3e8e7fe01cff61103e400e01316cec9dde22710abdb1a25ed3116f7f51e3407b309d4eab00de51ed0edcd1b08f4f7f2e2c1d2d7e4dc242b3ceedc0bc1fa
0c1227f312ee3be42bfac2121dfcf2b5102cccb4fc2cf8e610f33a42bbc4c826fecfe9e1f01a06cd18c7ebecf911d9df38ff33271ded3431380be139eaed28f2
ffcf32cbda200db9fa812021d7fa142508d5e60412b11130e313e2f332cad122ccd1d0f0144814e4c6891c31eac52b0109d00d0313faacaa0d2cb2f9e2c7cc1f
241dfd43fc0d0803c1bc071b2a0adff1fb24e50d0bfdf628f240187904a216d554f7ee0ae3c4d731f6ebf91df6160ff2fc0efa1d09503237300ed439f3321405
07223c3c0cdb410718dff4f80deb0df7212a4bfe0004e8382a2c2a00bc101800e812ea0ce1282a460e4cf3092914c32c2bfe2e0df02eeb3516001fddffcbfbd7
fef1d40cd6df0ecbfcf22c0b2b05e1c1eed3d711f6f1fe20151bf3e3231a45e2eefce7eb2cd4d90019edc5f20e08324ad11b1928ec4d38e11ab1d5e4ed1040e2
05fcce1af0f215fcc91e011926ee03ec0e3e0d1214e03616f3d21412b3380408d6e110edef39ed0af1d7f1ee2d151ff0f910ef0ee5f22f1712fbcddd04bee809
10efece6d020e0b90cc3fab3e9ebf10301c7c9f20cdf0fe51fc5fd0a09f9ddc10108fefd39cb31c4f405f51909b9f3260623fd18da0cc0dabaebfde6e4fc0eea

01d819dbf944e24dbee023090b1103d3d63409170a1aff14bc1ae9ea0a0ab4d7ff39a109d81426fad5e8cbd1d7e11c00160f0625b2455119da2f1404ed1e1c0e
d0dea4eff413f730b0df37fffc2cde29d6091f040c07ec16d2dbe60a9ddfd4d8f9f5f51503bec6e307395209d8d9eaf22a38d0e6e9f9e6dbd710b5dcad0225f9
28d1b019f32dea20fdeee0303bd3f3d706450eeffe371707c9cb2c07cc151136d121bd35e907041403141b02f6f5f201cfeb1f0b3bf62ccee10dd432041ed30d
2702d9f209ff030827dbf6fefccc20f2ca1634f54b1edb4f0906d81e1eeefdd5ff111305e8ef2ad4c1d9dffcfbde54fcf70739fe19ac45f435d1cfd3fbd9fd21
3418cd1803d20eedf7e50515ef2ee83a16caef0acf180fd6fc3a06d3beddf5edeae421f11918f940dc0d9cddfe1ef12c101f3027f435050feae02be9e1edede5
00cee726012ef6110d1435f7f2e74736ee1bde210ae42503f0e702d503eade0bd1fe29e9e612f3fa2acf0025dff40bead4faf6062cf9cadf1f31073603d7fafc
2f131f39f3fd39dfe31a0c2a1f49def33300dff2e90211d3f9f63a2bc821140d021dccd00a0b0aff0bec230bfb15ed0cd626e537eef30a232a3564e52f264c28
002323eb12ec52ede1f0e6f5de07b60711fb02081945fe0f0c3b1a2ae5163bc22efa130e02204506292f3154f61aedf7d50e150e3e3be009e74630cd1815ecf5
13192329eb1f162c4ff6def51bb81ace1ff0f111efe442daf2fbe2fd3a2ee7fb064f630d42c5d6e6e125f5c90419e92b50f1070f17c5ed22ca32ece4171c303e
ebf5d80110e1c9ed24eee31008cff12314d0e4bc11e0da132e180e072727f00e3af2f3cc161ad228100cf8ef39df231adc3c01c5e5c9bc0004cce708f62cf6f6
dbff35ed0c25fd25db11192b0709c9aca7bc5d0b29ec021ddb0127191e0812bb2617f010f3e3e311f5da15fbe613d8ff0f2914fa0f10fdf6e80bcf02cbf1af02
15ec2fe14acd20fa0ad4ebe8092539fe141cf108e0b2d40901073a11071a1a02d9d23ae6fdfd1feb2d37e920ce070429e8eff4e9d2d7322c13dbd1e9e212172b
f4e8fa17f512e8dee00113db21c1d7e82eef1701f4fd0ee6e2f801d4b3fab718092be818e3c8230df2f213db16dde3ec08eae02d24db23f9cb24f5a0242202eb
eeebff270e02f1fbc808ef37dc0040f7ff2fdb10f7d82bee220031f519fbf63a1d1bf4f70024ccf9ea1036011c0be73df719ea0af10827211151db460820174b
0626ddf4e51db0c730140338f7e03f34181627fdef3db4f7cc0616c5ccea0c091fc465400021fe43e123d2c9e81becfe203c02e7e652cd25e21025dbbb15c824
080f0ae0f90a1cf1df0d1d04023207050214fc1ee8dfdae43a2fd51ede0dfb42e33325e70e4ef65ade20f9210b3d13f1ecf5d928f5dbf8f0fd2e0ade1ae4031a
1316e50f1bdb0dd8f2121deb2fd92265ba3af0f103d815dbfdf12e060c25e8d9c6d32ad712fef2e4192acdde44aed9f011fd160f2e3a32f91bcdc0e6f5121adb
e3f7460d3ff12508e521ed1b15f4d0e3e461ec141d090517ef1107ddf633b90d1818a926074532e818de10fcd3f5fcf4f42d24ce251c2e1f49f605ef19f24525
ead8e42042f11c0af6e62a1afdff00262839d839fc1818dd04d43020de490d03e245bdee02f828fe1cc511192132f6f90dc7f7285ede34dacd0c053418420fef
1d37a3dc2703da31a71a19e606b3fece239535f1d4fff0efe9cd04c2f7e1fb1106f96649d809fb26f4b8af1fd40233004310d323cde9f001adb7f11bd7cfefce
f31e29ebeff8f4c8a60103001d0be137b43007eeecbfdf09f5d9cfeeb4fbf7f41110bffae92d11f5ddfb05c3c20fe9e602f8d918ed0b01021beab3dc0601c700
c92939c5070b1432b011fb0d1b14c5123ade15e905e1ffde2ce3d3d207fa0f08f504f01c1e2fe3d905140b060035a91bf0fdfbbd0bfc4522f7d0c42609bdd5df
1511db37e606c51febf7140ad8f9ff0ee1c8ee11eb25410cf6d0ebd8a3022fdab0caff16ea96e20e20eff0230d180605f9fefe113ddcdcf317fcee22cc17fafe
fd3be8290b0bfb181210ede7f415491d0bcb0603f82de90ee6e1adcfe6e4dedaf801fd13fafbc0fdd2d8d0d5dc0ffe12d0eac20de01b1a17c3c8df9e151b7008
04cea9501c2d0701e2fcdfe4112fd300063d2d231811261ce9e3ef32101f41e9e05eb839d0e251bff33e3a162001e32454f8ba24550cf5ed1221eaf7084608c9
f906ceff061442f6be2a0f2adbfbc313f1f1fa1808ef33f4ddfde1ca38e425db2209eac6f30bf2cfe323090fe240d8f604143de0fffdd5e4af09dc1c29fd41ee
c9f40dee0a03130d2de2e8c0e2e9b5f91fd4e9ebd5e807e2dfc319e20df4f2240ef43b0eddeaf1f7b117f4d7f7f8cd09efd4f1fdd6d90df5082bfceff9f4cbb1
f80bfbe014d8d0c5f4ded1d8f9d9f600f3e703fcfbe5b4e5f3a10bf1cc14acebf1e9d5e5fdcf47c0fef2032edce6e5f0fe19d3d9c2efcd280d141ec6c6c8f11d
0bcc1109080bfcf0dde7f302f806b8db02e7eb0a0ccf050ce814171cf9e63c19aef5460be1efc209ed018919fedce2fde7dff3f5001e0009bc29c6f008d806fa
f3d9defb04f5d7f116e43be90f00f10df6f30600100f08171ffceae9f711db111632c027ed151e10dbf3f901f1de270a2bed1a2cfef20a21f0fe1ff80df60408
062806f40ec315e03be8141d06fb05eaf70ef3f3f9dd1412f20615225018da3ff00ec3c41d27dc1d0539d5d5170afd0cfb1758e9e433bc2dde45130821f8e09e
3204f11530f5fd082e17ebc3ddcde1f71bbe2fd9f8e2fd11f9ff0413240ef4280630f0c421efb74039ea00fd04e7370a413823e01dffba25cef7f0e61eef381f
0ee5e6150aecd8e1d2eeef0f036901ee29410c00efff0e03233cf0fd0bfd5cf10100f916eaba342ff11921e72a040809f600f0121b320a0d0de43808f4083837
4962103403f6d8e8cae2cc050c041a13c9cc24f0e028cdeed62bdf0e1dd734e2fafa45fd60f6120cfeb609e21812ed2721d9f767f5fc0448eff612d8d2f83218
cec5fe04e602110fee1c1fd4dac5dae43cc907d205fbd8ff2ceb20d9e929ee1b3a3104bc353a0719fc2a04fbea40f1f900d9dffc2939dc01fe05ec212e090ac2
13e5cf212df6df03fedff9043d32ca27ee1f12ff10d823091f21c118cffcf7d8ebddf309ffd50c17cbf5f6140bbb03eefad116e1ef0ab9f90b2dfafef420cfdc
f4d71515fdf5aa13f5000e14e4dff831c4ed14f706dec30f13e502db050405f115041bf7d0cefd19f5eae402e2f924d2e71df607c3c9f005fa09d1cfb90ee82d
ed25eaedb5f6d7f01aeff3092b63c1eff4e51c13fecde5f11e510c4898e13decffdc31edfbccd5dff9acf0c9bdf8191dfb06000f07e0ee15c91825e705d0e0fb
ff0e312c23f9070825e8ed19d3ebf8c3082914f3f9e808f7dad114fb4f16cdc9f5431f1213e3deddf40622162afcc90208fcc1ee41eef8ecdcfad2d6ea25aebd
0d09001409e509bdd7ca0b02b4febd1d3844f8c6dc23d9f32a081008e530253516efce320314393db5ea21e0fbd630ff1f09243114030f1343f615131511ddf2
f0050d49dcb9efba27d5b4ffe42ce216d0f0e1f5ca0bc5e0f81ef5f8d30bf6f1f1db1f01d3e831cfeceabeed36cee91a2bfdf61fb9cdcf12f8010bb81f3dc6c4
f3164ce81ddff6074020101ef213f9fd1414ee0ff826f1f6f33531e0a428e823bc1830c6e632204826bbc919e4f4f325e72bf3d3330cdf134c0008ed1423fa14
d1c0b2f3faf5be19ba1feef0f1dfd0fbf80358edfae71502f9a2f8ccd8d0dbf015fa1519aafe28fc50a5d6e5bfc4d6b2f3ff1107d718bca7efe5f6c4e5d54d02
e10cefef04faeceea90836dc2e13e0e5cfd90f0909ea00fb11f614c8030710120207f4eefbe2e9ea2ba5d9d3eee7c81a2e1114defd331e04f50229fce31914f8
1fce89dc18f90b081614f7edcae0d402081a1cf6ddf0ecf0def616041532da14ebefe0de13e4f6e13037efe51ee1d129fd0dd732d72915f6310b0fb9fd480a16
2d1be7f436ced9d44bf30dd1fd095ad9ddebe0d7022c2ec705e4da30130629fbdcbbda0827f12af00c01e4fdfa130235152a0e12d5f51215ed10123def0dd40e
f12206f02a1b060915d400cdfeb1e414f3c8ebd4f945d405e8a6ffc40c1fe60c0de8ecf41d13d12d3b1af2e905352d05eb462514f40cf506f7fa25f2ecf4fde5
0216370ce20200df0a2b261734ed071d11f1f3fbea1901e5ef11f41ffaeddfcaf1da26ecf3a65a0b323421f1f605dbe11e1c6ff32760ee0afa04cad8f73ca7d1
0906bafa2ae8042f19f6be0501251dc8cd51dff5dd2a37e9fa05fb10e0fffe3b05d3cd1f20e013f0080c101aef14131202fce50eec110f0dc522044c10fc46fc
cc00e4cdef29ae2107df02e10fd6eb16fa13f0fd00d5c6f304e9daee1cdbefe216e5e0cf06bdb5e9f9e140d9dc11e9fd28c631d9e325e6e0ccedccb5b6eee6fb
0f14b8efd4002005ffefdd25fcdad30cc1f8fa201dec0df22911e1300f1d3bf1df23f8fc091de2e4e323e5051ed9b411f2dcf0111e56e6dcc6c9d1f9ff3791cf
fff8e929f028112afce4eff40b29fced3cedebedfc0440f905edf231e506d00f1a10ac0ff0e21ff9121e38fbfffaf8eff11feee347ec06e6ca0df449092cc70c
18300c151401bbf8c6e6e7fe08fa16e3dfec03eaed13cef3fd1ae8e10a0536dccfcf07d801caf404e70811fdb9392a00ebd8db09f4021b0ed60430cdebdc21de
e011a8eee800fc11b4dfeec3d01e8103bb110e01ff00f50718ffe1d1f8eb1fb5f5310f1be8fdf8d41628e2e8d50c07eb201cd11aff25020c1402c5f5041ae3d7
27fc3722210d2dcff802e932f74bcffb3a38bdfddc2cf7e2e3e41750360c07ce100b120d02f90cd4dd2534fdf30cf2eeec0d0a26180814061eed460eed33181e
dae53d1ccbeef008e7f7f002def6e4190c3b1116dab43dd329f0f2fe24f9fbc2f2320fe5ff0f05fb15d8d808e0dcc5f609cddcf04744dff8fdefedee0526eef0
fbed05f94d273dcf0ef3fabe02460cfb3f470715f608ecf81c31cf2510ecd104ebcff736f5343f210844070316d9fd0dc7e417decfdf2334f6462030eafa183e
12fcc2e31100f71b2118d3d5c7061a24131b17f9c5f2fffb2cddf4d5de0536eb12151bedf9ebe41a2b2fdaf9340df105d4e5f21bf3c0d70df4d405bc260df0b3
f003e324e9330826f0f71705f9032802f2fc17eef5cf04e707f4cfcfc70e24e5f622f81eee00c9ed4d15e2c0f438f3ed11f90820f5f90af8d435ebe60ee4532d
181ff40bd90615f8281bd821d0cffd38feb6f6d1f217e7ee233bef2cfe1fc6f408e62dcd17fda7eff7ef162002f7fe22d8e2c4193d0525e314d9ccd6fa1f1ce6
16e0d7ea1cf743f10af3daf2fa0e0739ea3e1ef005061f0fefb3dfd7cb0a2d3cc9e5c300123413ed00b81614e4f45115d2f5d5d8d229122b2f18173330d13b4a
103e0fc904dbf10f35d81425c8e4f1db0af5eb00f8dccaea25f8b62e251e1fcf13ef5ce916bf18e7fcfbf338ce1ec911eb22d8fcfddc3f1bf4b3ec04ca380811
ea0a2ddfcef1eaebe5140adfcf1f11e735f4cfe1f3d20afb1d40e3eb061bf707f40812e2fc0401df04fc550fe2f41704d91cc6de02f9291c3021f3ecfc28e70d
e007e0e7fb194c110b0c00f023dae54305d0f506ebfa27f4fcf2d6f90e2deb11265639cd1f26c6cd0812d1ed0a12ff2e1c0135f776cfccefce0a00c8681229dd

e032d1d0eac4def4290518f3ff2425e1f2eee6eb0ed138ef0330f2cc11f1fa0a2337fc16025ef3012be2d7e6d1390fdbff70f903fe51fb1bd00c340733111020
2131001ae50ceb1629e1f108022940d80f0fff08f9d619ed19eef6c5efdfe4f402fc2014ee0c161411f1eacf0ff4d3f4c3eced2ae8f9db1c02de4139e30e10fd
13031ae2f0e9ecffc8edffd9ed1d452910ece8fa140e19b7f811e1cdf712f31eeede001bfee90f061ac609e809fdebf9f200f6f9fbf6e40abd0304f9ede8ff05
3201dd18060e341e3ee607072c1b32d6fa562111ea0d204be1e3052402fef1fee9f714cef11e08f110f00907fdc8def411fd1813e8f0070817fdfd56ffeedf47
dcd70dc5ffef0802d81a530cd9eff0fbf8e41501d51fdffb23192634e3e642081906fe35d9dde4ef36360041e72c11f2160109ed18f1ebedf27fc5da440ef62c
f41d22f6c84e2927f4f8fc00285029fd2fedfdd1ce4428e22d24f215f8f1efd625ff352ed01fe90de1dd19e711e90a170910f247eedef8f2eec908dafbebe5db
082721e0d0f2f6dedc2400312c21ffeaf80421eef7090df611fe09d8ee0a02f6e4dd31140226f7e117ede1e1e113fefacffbe909fa14f2f3effe28f032e215e5
f72d07e709f71d093710190e28f70b0d3b19430639e1213af413f2f7ca25f6f3eff63bef483de3f3d2dcf6ffd3dbe1e0f72116defe22d8052bfc2de31908c1fd
15fed8eab9c5ddc5450ad82efd0cebffef1df4c7afcbd4ef0cff1cb2e2dd06c5e3e3dcc2cbe308ddece3a9ec0ee2eaebcbe1c0de16dec6d51af125f203040dd6
2deff3190d1b0dee06dde0fa44f6e7caea150c05f035fb16e9db1122fed7efebf1ecdfeddbf601f51a13fd0242f917fc05f5fee8f2d80e1e05cceb1afce1cadc
181cf2e5e8faf2ec1803dff9080d1c0e22fc06ccf4fe15fb13250e0617ea10de070a05fada170e1131e402ed1ae705e9f20b16200cea08f9f0fd270a07e1fe17
15f00921e6fae5e31de5d9e7fe061ef8fdf5f4f8e508f0dc190a0de80afcfdfc04f5f8f6d6072eeb21dfe3e423f8eeede3e6ee13eae609f8d2e60d2de3e11bf0
e8d8f90909d7febbb60708271408c6e0bb052419fe13f7f4d1d2eefe1b2de250cdcf0bf7f814c9e0ed1f03e4cb41f20cdbd8f3fecb230a0eedf9f4eb390610ec
c211d2c306f6f4e8e8fa0adbde04f8e90fded7d6d9c621c80b3ae9d8fbe4eddd2921e727e917ea100ee1dce0dc082cef0639f1e61204f411e8f72ef81f06eeee
01090b172703f000f6f44213fd12140efa042546fdd9f8070af9f1cb14090a3303f81d17e30beb12091c0e0adc42e21ecafddd12d0131b29e5f43d1c2c2c1429
e61c16f0cdfc05fd0b051c1efb0e0eff01f006d8001310ee1903ffcae0fcf0e918064108081216f625c9d6c7e8f50703f314f214051512f9d90f45ee26f91ffd
e8ddfcd4ab00cf24170a0607d40ef5e5c0ed0a05d119bfde34f604deceed1ddfedffedecc7f419b81ddfdc1110fa19bbc905d30ffbcde8f5d6d506e5ea05dee7
1101ec0cf0e9f9e3faeae9fc2820ffe3ef05fad7f90711e6eaecfceb25ffe80df3f523ffe21613fe34ffe6d80d0ae913efed052df2f81a0fe3fb053713e02a15
f2f7dac8fcfb2abf1925fdcc3a0bf1c2ea0cfeef08d9090fc3e7ded7090bdb02c2d825d22537e8d307f201e3cfefe8d41317fcfb0e21e5f9fbfff4f523c8fb36
ffdcf43e301b0b24ddd401cabfc10dfacad6c3302cdff5f6d3e9ec17f9fa082df30ed40d16fb12f30920130cd4420e33212be4e4ee0fef0fdcfba8f4bc1b1816
1a13f90618e9d0e408d416faf4df180cd509f91528e6cc13e7ea10dd2de91f13d5f1041b30fc2026054af2031003bd2ec1e3eeeeff1e1a1d3bfe04ed022d16e1
2df4ecf6e0e3dac0ff13ce15faddf7fad10de3d5df08e4d93a0653ea24fe45e8ef13f3e9ddeb65e03a30cb184e0629f1f2d2eae848fe07cc18f227f110d735db
fdecff2cf106d52ad4dc04ffd21d2dcdf0f1040ec8f5e6f0f4c8e922f9d7011ae5e8e8100205ffe42a1e0dfae423e011c9eaeb05cefcf925dd04d8faf60fe7fb
f914ddf228071efc0b1cf1f5fae4e117280f0efe20f60319ed350129fc0e0cf9151c03da00ef19071b11172a0ae41f204efe3cfe20e21af73602de1eef19e618
16edecef0505f5e7f9e304020c3108ef110012ece01b0f0eefe601270adefa09e7f117f2cd13fff1130810f800e7e327e3d91728ece01726f104f12e14f8f22f
f7f90cf001f720e6d632f90113eadd0208fe19002d0df901cc20ebf3e827e913d9d52ce630fcf3e6f9fcfadee2ebd90103e402f800fc1af4f30ef4f50a0603f8
0ceb27ece1fed7faf0e525f7f11b362f1d144802ef27d5c411e53922fc341626eeeeeed9efedfbdbe6e62838eeecf0d6f8f1faeff5e3f4e6e22ce7f9021ff243
e20310c4dcbf07cbe10cf7222acde2c5fd191cebedeb12d6f7f6e3e7f115feb6e2eb0ee0f001e0e0cad1b7eac2dfecb414050bdef3f8d1c8f7db0bfd01b7c0dc
41f8de2019f603d10ccff4dcf113290bdd1e001d2000fbda14d428fd170df72ff4f9e1e3fc0f10ff01fefb0bfe02f713e901f7fbe4edf50debe1e31ef9fe3225
223212f1dd0009f2182cec3122140c01ff113019241d042129e729ef002921feece926eaee0e29e516dbe914fd00220d05e3f619221610e8e22d213f0dde133a
0d32f132f3042e27280e0c18fc1225f2e112e2400ae30527fcf7fdf3f50711f2000708112e04120302fae51a230228012b1be6fb1c3402e81718fe20f10131fa
e3ff242b0f1e253b00f529f10211210f1d02124c1f070828e90aea3bf02dd9180b050f034606d70bc9e63223defbff1f2c2008fcd80de705fe19e908e034ef10
38f5eacc16c3d5d8f6060df1ff11010d17212502f915130d00fb1ff30bfd1038e2f5e3e30e42fddf3efa16d6d7f2eff6e3e815f1f4e5281befd40410341fdf27
0108e9003ff2e8e101ffedc0d9cf222a13cfc4fb29e52706e523defd2a01f6161e20d007281dfc34ef14f919f91e11d423033af11d04201925000c09f4ecf5e7
e0d4c411c70cdc10190df3f7a40005eeefdbbfd3deae14e9080c0cc3e1f0f6d20e2de6f9f8cfe9f9e7bafee7ee110bece13610dffa10dfe0e2d42203fdf318d3
e6ff102600ffedfbea0ef6f6eee1fc2be9e2fa2527e5e2f3f2f502e5022bfc170302fd091beeff14e2eff70e012309101304f1e8062215f4ec0df609000d35f5
e1f8cedc1fee151a172a1c11ebf3e8032313f7eff7f01a1df5140a35f4e518d43230eafcf1d9070bfe270638f3052fe84d1418d736f604f14f1df8e30414cd00
f1fee2f319060b130a09d6eee9e5e51e0bf0d8e90edf11f2fc2df8ee16ff04e5132708f2f5f31722eefffd090ef310fb281a14ff1bf7f9e62ffff5f0d80bfbec
15e7f1dbf404150e0a16d6ecfd18fc220ddee8ebf80535e70137fdf13c20fcff2127d2dadf1503f609cc06dbfeff44c63b3341141eeb1de2beebeff5f3d60828
0c2d0d092439143d18d11f17090222fa1c1e06ec0a02dc3c1af31802fdba11e91e031219fb090b2ddc35fc4214cec50cde06d301d10afd1540f1350bd32f1fed
e83deb0614eb1be80f04f405d6f3061a02effe1f360ddbdff5f2ed1cd7f4e1fafe011cecfaeb06f211e709f9e3fe0d2942faf80df0002cfd0a3be2fe0220351a
04e4f236e70b0212f623fe4ff9f5e4cbc212dc3df409f00e03d5ece5e5ef00f3d9dacc09e7d701db0c13f7fb1126440ae70ed9fa0d4ff2f5f80ce0171ac718e9
f2043e31f23e230be0fb0f4a1febcdf9e6fc1d07f13fca0e28d21824d8e410fafddd2225f9bd0600f21815023efb0243e1d0d01e07ed03010812f70304e62e00
e6281aeaf5242a1cdbf303d30becf1f4fcf6fdd51ce211fd081a0eeaff1100ef1202fb0d2005131311fd02eff3ea00333606fa21f9ec1defef010226e0101325
1ff1e60bf7eae6000ffc1128020601ecf3210c27effa031afddf0ff607fb170aecfa04f0e41114ea2a04f31c080409edf706020105100300ff0d0b0b0deb0017
2de72511f10d001a332b0d35361a200122321915fef030143e360bd91f1a2402131f0f12f6fbf81816eb0e01243204eff51f0e012013ee1cfdd24906270805ec
f6260a15edfd03de011fdf3634dedc08e527240d1ef4f219080b01e0060afcf2ced82ffe27fb04f0eff5e1e405feff0ee1d7ddf81816f9f116e62c0b24d912d6
d72fbee504daeced2ae212d6c9ccecf0ccf3d9e10702f0e1f91009e6ddd50ad6344a2aeff6d01413f8ede33006a6ed1647ed031d0ee706ce5146fa1ad10f0422
f21d05140000f7123df3dd03062d14f50602ced410db11c52c240bd311eef2e0192af215eefb0523dc1504ed4e1926d71b18fa121718e5090cdf0f13cffc19ee
f237fc0819f5c51517e050e5c7e020e40f0bfc09ffdddb1bfef6fe21d6d91207020c26311bfa0419ec20e228dffcbc0ad1eee9f6db0fee3a39282e0c0247e4e5
f00de8ff06022df71527ebf40103f717fdf1f6ebf8f01d10190c12edfd1404f32626dcedf30e15100af3f60d210651da1a401bec2713ea04e8fa1400fbf6061a
fbff07fd0914291e1bf21be9f30aff103401170d18ffff0ddeeaf614dc0c0d18fe050de40fee0016d6ed2c0b03c1ee2324e01b17fbf205f41ef2ef02c638072a
01fffbd116ebebc0f804ddf70ffce51c33f00db81a0bf6c8f32f1bf518f810e7101b1af7e5112819020bebe10de6eefc1ccf3cf424de3ce5fcda0cdd061ae2e7
e81ce0f7e5d7e1d0d50fe30f11eaeee5c1020df4fee6e2f603f1fced01fee8f5f3d1f605f30ff9d31d05d4dfd712f70101d9da09f0f619f8d416f81f2ae71c05
f7e3eb0bfeefdd0d22edff16041216efea13f6faf50eede60f07131b1dfcf4e9f9f409f002e506f606f405ff0bf1fde4faf20ff8e8e3f1f4ed23eef0fbe2dd12
00f4d80c56f0110213e616f907eecddae006ee221ad81240d0edd41223e0f2fee70bfe06150bef0d14430422f2f4f338f4102111f7263c4d2e22f815ebffdc08
20ea1702fce303e6f4fb16fdc3f3fe2be9eb12ff0710cec116e73a090f1b461013feeef3f60e0ff20d29102f1a1918fd0fd1f60720e5e7dcf823e6fffe1144fa
13070f250f0df73b35e809f5d5ec21281c22f33912e3e61c35f82324d10c2bfd111bf2f036f70f0bc7fa15520ddef417140e05dff307c6e62e110b08c843f7fd
eede1a282a2cfe1fda24e90a41f8bbff25190d230231f130db19dd4a1e1ff51ddbf4f5ec16e3fc00e2243a2f23dff819eafb2907ef0317f834faceddef1bcfe9
fcf7e6caede5e00cdbdba2c60611060420e7dfde030c0cf5fbf4eb1341f8e2f60c1edbc7b6e91014eccd03b72bdf38ccebd82b0702d109d3efc8bffa04e4d817
fdf02d293415f6fdf9083cd0c6c609273df202382d02c542e6e5111db5eef917d8d103014ae1fb04ba21134ec8fd9e2adafef1d3e907001c4050edef0771f10f
21f94039ef16e8d6e202c3f7ff04092be3e7fc0b4702f4c8f2e3e7d23350d841e9dff4081816ec0cf0d8fcd5f658fb0aebf7e3f9e514fff1cde7f5f405d96bfe
fbf0eaf4c7dffcbf050fe1452ff5cfd7cb3a3533d3f131521d1802be04290df3afe22407dc2009bc15dab0f908c7eccbd80ae3f70bfc0be5d3f64def51d1e303
52090308c4bdb994f406eef811fd1139d9fa08fc24d6bfb01af40be72c172349e7b9e4f1003313be0011c7c80953e2f7c8ace4ec0709e9c9aa140edf1eb211ed
