// =====================================================================
// CONVERTED FORMAT: 64 output words, 64 weights per word
// BUS_WIDTH: 512 bits (128 Hex Characters per line)
// FORMAT (Left to Right): [W63 (MSB)] ... [W1] [W0 (LSB)]
// =====================================================================
e032d1d0eac4def4290518f3ff2425e1f2eee6eb0ed138ef0330f2cc11f1fa0a2337fc16025ef3012be2d7e6d1390fdbff70f903fe51fb1bd00c340733111020
2131001ae50ceb1629e1f108022940d80f0fff08f9d619ed19eef6c5efdfe4f402fc2014ee0c161411f1eacf0ff4d3f4c3eced2ae8f9db1c02de4139e30e10fd
13031ae2f0e9ecffc8edffd9ed1d452910ece8fa140e19b7f811e1cdf712f31eeede001bfee90f061ac609e809fdebf9f200f6f9fbf6e40abd0304f9ede8ff05
3201dd18060e341e3ee607072c1b32d6fa562111ea0d204be1e3052402fef1fee9f714cef11e08f110f00907fdc8def411fd1813e8f0070817fdfd56ffeedf47
dcd70dc5ffef0802d81a530cd9eff0fbf8e41501d51fdffb23192634e3e642081906fe35d9dde4ef36360041e72c11f2160109ed18f1ebedf27fc5da440ef62c
f41d22f6c84e2927f4f8fc00285029fd2fedfdd1ce4428e22d24f215f8f1efd625ff352ed01fe90de1dd19e711e90a170910f247eedef8f2eec908dafbebe5db
082721e0d0f2f6dedc2400312c21ffeaf80421eef7090df611fe09d8ee0a02f6e4dd31140226f7e117ede1e1e113fefacffbe909fa14f2f3effe28f032e215e5
f72d07e709f71d093710190e28f70b0d3b19430639e1213af413f2f7ca25f6f3eff63bef483de3f3d2dcf6ffd3dbe1e0f72116defe22d8052bfc2de31908c1fd
15fed8eab9c5ddc5450ad82efd0cebffef1df4c7afcbd4ef0cff1cb2e2dd06c5e3e3dcc2cbe308ddece3a9ec0ee2eaebcbe1c0de16dec6d51af125f203040dd6
2deff3190d1b0dee06dde0fa44f6e7caea150c05f035fb16e9db1122fed7efebf1ecdfeddbf601f51a13fd0242f917fc05f5fee8f2d80e1e05cceb1afce1cadc
181cf2e5e8faf2ec1803dff9080d1c0e22fc06ccf4fe15fb13250e0617ea10de070a05fada170e1131e402ed1ae705e9f20b16200cea08f9f0fd270a07e1fe17
15f00921e6fae5e31de5d9e7fe061ef8fdf5f4f8e508f0dc190a0de80afcfdfc04f5f8f6d6072eeb21dfe3e423f8eeede3e6ee13eae609f8d2e60d2de3e11bf0
e8d8f90909d7febbb60708271408c6e0bb052419fe13f7f4d1d2eefe1b2de250cdcf0bf7f814c9e0ed1f03e4cb41f20cdbd8f3fecb230a0eedf9f4eb390610ec
c211d2c306f6f4e8e8fa0adbde04f8e90fded7d6d9c621c80b3ae9d8fbe4eddd2921e727e917ea100ee1dce0dc082cef0639f1e61204f411e8f72ef81f06eeee
01090b172703f000f6f44213fd12140efa042546fdd9f8070af9f1cb14090a3303f81d17e30beb12091c0e0adc42e21ecafddd12d0131b29e5f43d1c2c2c1429
e61c16f0cdfc05fd0b051c1efb0e0eff01f006d8001310ee1903ffcae0fcf0e918064108081216f625c9d6c7e8f50703f314f214051512f9d90f45ee26f91ffd
e8ddfcd4ab00cf24170a0607d40ef5e5c0ed0a05d119bfde34f604deceed1ddfedffedecc7f419b81ddfdc1110fa19bbc905d30ffbcde8f5d6d506e5ea05dee7
1101ec0cf0e9f9e3faeae9fc2820ffe3ef05fad7f90711e6eaecfceb25ffe80df3f523ffe21613fe34ffe6d80d0ae913efed052df2f81a0fe3fb053713e02a15
f2f7dac8fcfb2abf1925fdcc3a0bf1c2ea0cfeef08d9090fc3e7ded7090bdb02c2d825d22537e8d307f201e3cfefe8d41317fcfb0e21e5f9fbfff4f523c8fb36
ffdcf43e301b0b24ddd401cabfc10dfacad6c3302cdff5f6d3e9ec17f9fa082df30ed40d16fb12f30920130cd4420e33212be4e4ee0fef0fdcfba8f4bc1b1816
1a13f90618e9d0e408d416faf4df180cd509f91528e6cc13e7ea10dd2de91f13d5f1041b30fc2026054af2031003bd2ec1e3eeeeff1e1a1d3bfe04ed022d16e1
2df4ecf6e0e3dac0ff13ce15faddf7fad10de3d5df08e4d93a0653ea24fe45e8ef13f3e9ddeb65e03a30cb184e0629f1f2d2eae848fe07cc18f227f110d735db
fdecff2cf106d52ad4dc04ffd21d2dcdf0f1040ec8f5e6f0f4c8e922f9d7011ae5e8e8100205ffe42a1e0dfae423e011c9eaeb05cefcf925dd04d8faf60fe7fb
f914ddf228071efc0b1cf1f5fae4e117280f0efe20f60319ed350129fc0e0cf9151c03da00ef19071b11172a0ae41f204efe3cfe20e21af73602de1eef19e618
16edecef0505f5e7f9e304020c3108ef110012ece01b0f0eefe601270adefa09e7f117f2cd13fff1130810f800e7e327e3d91728ece01726f104f12e14f8f22f
f7f90cf001f720e6d632f90113eadd0208fe19002d0df901cc20ebf3e827e913d9d52ce630fcf3e6f9fcfadee2ebd90103e402f800fc1af4f30ef4f50a0603f8
0ceb27ece1fed7faf0e525f7f11b362f1d144802ef27d5c411e53922fc341626eeeeeed9efedfbdbe6e62838eeecf0d6f8f1faeff5e3f4e6e22ce7f9021ff243
e20310c4dcbf07cbe10cf7222acde2c5fd191cebedeb12d6f7f6e3e7f115feb6e2eb0ee0f001e0e0cad1b7eac2dfecb414050bdef3f8d1c8f7db0bfd01b7c0dc
41f8de2019f603d10ccff4dcf113290bdd1e001d2000fbda14d428fd170df72ff4f9e1e3fc0f10ff01fefb0bfe02f713e901f7fbe4edf50debe1e31ef9fe3225
223212f1dd0009f2182cec3122140c01ff113019241d042129e729ef002921feece926eaee0e29e516dbe914fd00220d05e3f619221610e8e22d213f0dde133a
0d32f132f3042e27280e0c18fc1225f2e112e2400ae30527fcf7fdf3f50711f2000708112e04120302fae51a230228012b1be6fb1c3402e81718fe20f10131fa
e3ff242b0f1e253b00f529f10211210f1d02124c1f070828e90aea3bf02dd9180b050f034606d70bc9e63223defbff1f2c2008fcd80de705fe19e908e034ef10
38f5eacc16c3d5d8f6060df1ff11010d17212502f915130d00fb1ff30bfd1038e2f5e3e30e42fddf3efa16d6d7f2eff6e3e815f1f4e5281befd40410341fdf27
0108e9003ff2e8e101ffedc0d9cf222a13cfc4fb29e52706e523defd2a01f6161e20d007281dfc34ef14f919f91e11d423033af11d04201925000c09f4ecf5e7
e0d4c411c70cdc10190df3f7a40005eeefdbbfd3deae14e9080c0cc3e1f0f6d20e2de6f9f8cfe9f9e7bafee7ee110bece13610dffa10dfe0e2d42203fdf318d3
e6ff102600ffedfbea0ef6f6eee1fc2be9e2fa2527e5e2f3f2f502e5022bfc170302fd091beeff14e2eff70e012309101304f1e8062215f4ec0df609000d35f5
e1f8cedc1fee151a172a1c11ebf3e8032313f7eff7f01a1df5140a35f4e518d43230eafcf1d9070bfe270638f3052fe84d1418d736f604f14f1df8e30414cd00
f1fee2f319060b130a09d6eee9e5e51e0bf0d8e90edf11f2fc2df8ee16ff04e5132708f2f5f31722eefffd090ef310fb281a14ff1bf7f9e62ffff5f0d80bfbec
15e7f1dbf404150e0a16d6ecfd18fc220ddee8ebf80535e70137fdf13c20fcff2127d2dadf1503f609cc06dbfeff44c63b3341141eeb1de2beebeff5f3d60828
0c2d0d092439143d18d11f17090222fa1c1e06ec0a02dc3c1af31802fdba11e91e031219fb090b2ddc35fc4214cec50cde06d301d10afd1540f1350bd32f1fed
e83deb0614eb1be80f04f405d6f3061a02effe1f360ddbdff5f2ed1cd7f4e1fafe011cecfaeb06f211e709f9e3fe0d2942faf80df0002cfd0a3be2fe0220351a
04e4f236e70b0212f623fe4ff9f5e4cbc212dc3df409f00e03d5ece5e5ef00f3d9dacc09e7d701db0c13f7fb1126440ae70ed9fa0d4ff2f5f80ce0171ac718e9
f2043e31f23e230be0fb0f4a1febcdf9e6fc1d07f13fca0e28d21824d8e410fafddd2225f9bd0600f21815023efb0243e1d0d01e07ed03010812f70304e62e00
e6281aeaf5242a1cdbf303d30becf1f4fcf6fdd51ce211fd081a0eeaff1100ef1202fb0d2005131311fd02eff3ea00333606fa21f9ec1defef010226e0101325
1ff1e60bf7eae6000ffc1128020601ecf3210c27effa031afddf0ff607fb170aecfa04f0e41114ea2a04f31c080409edf706020105100300ff0d0b0b0deb0017
2de72511f10d001a332b0d35361a200122321915fef030143e360bd91f1a2402131f0f12f6fbf81816eb0e01243204eff51f0e012013ee1cfdd24906270805ec
f6260a15edfd03de011fdf3634dedc08e527240d1ef4f219080b01e0060afcf2ced82ffe27fb04f0eff5e1e405feff0ee1d7ddf81816f9f116e62c0b24d912d6
d72fbee504daeced2ae212d6c9ccecf0ccf3d9e10702f0e1f91009e6ddd50ad6344a2aeff6d01413f8ede33006a6ed1647ed031d0ee706ce5146fa1ad10f0422
f21d05140000f7123df3dd03062d14f50602ced410db11c52c240bd311eef2e0192af215eefb0523dc1504ed4e1926d71b18fa121718e5090cdf0f13cffc19ee
f237fc0819f5c51517e050e5c7e020e40f0bfc09ffdddb1bfef6fe21d6d91207020c26311bfa0419ec20e228dffcbc0ad1eee9f6db0fee3a39282e0c0247e4e5
f00de8ff06022df71527ebf40103f717fdf1f6ebf8f01d10190c12edfd1404f32626dcedf30e15100af3f60d210651da1a401bec2713ea04e8fa1400fbf6061a
fbff07fd0914291e1bf21be9f30aff103401170d18ffff0ddeeaf614dc0c0d18fe050de40fee0016d6ed2c0b03c1ee2324e01b17fbf205f41ef2ef02c638072a
01fffbd116ebebc0f804ddf70ffce51c33f00db81a0bf6c8f32f1bf518f810e7101b1af7e5112819020bebe10de6eefc1ccf3cf424de3ce5fcda0cdd061ae2e7
e81ce0f7e5d7e1d0d50fe30f11eaeee5c1020df4fee6e2f603f1fced01fee8f5f3d1f605f30ff9d31d05d4dfd712f70101d9da09f0f619f8d416f81f2ae71c05
f7e3eb0bfeefdd0d22edff16041216efea13f6faf50eede60f07131b1dfcf4e9f9f409f002e506f606f405ff0bf1fde4faf20ff8e8e3f1f4ed23eef0fbe2dd12
00f4d80c56f0110213e616f907eecddae006ee221ad81240d0edd41223e0f2fee70bfe06150bef0d14430422f2f4f338f4102111f7263c4d2e22f815ebffdc08
20ea1702fce303e6f4fb16fdc3f3fe2be9eb12ff0710cec116e73a090f1b461013feeef3f60e0ff20d29102f1a1918fd0fd1f60720e5e7dcf823e6fffe1144fa
13070f250f0df73b35e809f5d5ec21281c22f33912e3e61c35f82324d10c2bfd111bf2f036f70f0bc7fa15520ddef417140e05dff307c6e62e110b08c843f7fd
eede1a282a2cfe1fda24e90a41f8bbff25190d230231f130db19dd4a1e1ff51ddbf4f5ec16e3fc00e2243a2f23dff819eafb2907ef0317f834faceddef1bcfe9
fcf7e6caede5e00cdbdba2c60611060420e7dfde030c0cf5fbf4eb1341f8e2f60c1edbc7b6e91014eccd03b72bdf38ccebd82b0702d109d3efc8bffa04e4d817
fdf02d293415f6fdf9083cd0c6c609273df202382d02c542e6e5111db5eef917d8d103014ae1fb04ba21134ec8fd9e2adafef1d3e907001c4050edef0771f10f
21f94039ef16e8d6e202c3f7ff04092be3e7fc0b4702f4c8f2e3e7d23350d841e9dff4081816ec0cf0d8fcd5f658fb0aebf7e3f9e514fff1cde7f5f405d96bfe
fbf0eaf4c7dffcbf050fe1452ff5cfd7cb3a3533d3f131521d1802be04290df3afe22407dc2009bc15dab0f908c7eccbd80ae3f70bfc0be5d3f64def51d1e303
52090308c4bdb994f406eef811fd1139d9fa08fc24d6bfb01af40be72c172349e7b9e4f1003313be0011c7c80953e2f7c8ace4ec0709e9c9aa140edf1eb211ed
