// =====================================================================
// CONVERTED FORMAT: 64 output words, 64 weights per word
// BUS_WIDTH: 512 bits (128 Hex Characters per line)
// FORMAT (Left to Right): [W63 (MSB)] ... [W1] [W0 (LSB)]
// =====================================================================
0037b5de1f09c11007ecf94015122029c84fece7ef00f2223fd60ff8c60929b5181cd604fe2de4eb0aaff0d0f23b1d2338024328d7e613d81513cacbf0d000cf
dcd00206eee31011e637fc2004f01918c951e7cdf3dc01011914ddeef505f93ff0f80b49282b13fffd34cff3d0e8000dfbdb281b0efbe3d717e20aec10dff316
f908090ddad81402fdfc0cd601f2cfecf217cc24132510d8270e33f00ce7f5cd20fd12c805f30fe0cc3ffe272816e3de02eb13062726f304e5f201f726fbf41d
db2fdaf9093cebeeed4afdce3515df31d60e0df2f0edff3b10fcee30c71ed3e711f9dfce19061bec16bcf2ceb92ff4cafdc9daf42020f0c209cb2c29fef31501
fdf2140dd0e6d6cdf932e8f8fee3e4f72b0c08dd1e11050e24f40df227100aedf80a2ef51add02f4f6ec04320516050f0004fb302906f738db07e5c21bc5fdee
2622fbdca0eb241f30fafbc8dd0d1d1a02b5d314b135c4e2d0000606f03cf915bf241809cfea2cd53a20f322fc19e0c7e02cdede10b0f6f6041b191ae93546f6
2e0cbf0c51ef1524001e23fd1728ffefb221053422caa7cefc281d03fadf1d08170c115ee7fdf8dc0f0ae3001ec00b0aaff8ed0b17fd4203e6f6070ffbe2bc16
d01cef0c18f1fe3fd41ce2f52309d10fde321f05e9e715fadf18e4081dd30abd15f81adc130ff000fefce4f3321df827d6e708ddfdcf19e116d505db1701e8fd
07f61ff1dedd10edf41e15001ac2eb3dfceaaf4816330311cdfde02ed8dedfe43100f9f3152c1ee40a03de3305ca1c05d1f9ac3ad7c40bcd0adf21ed0411fc18
eb31f9dff2f00cd9190a01031e0b3f42141a39c505cd21d3de21eae6fae50d4a24d3edb6d0fe2717edef011c0102ec0bd7e207fc042d3ee9f61609eddfe52ecd
ddeae1d267f90af3efdccd0f11f70138e611fef016df3d2f0e2c2e1632dc040c3f27deebe225f1d90b2cd8020dd43812160c1e761be7caf01709f8f2d8c6f0e5
cf01c60722f400ffe8180bd90c1ddafbd90ee8e3dbdfe8d02aea0600d122041b04142a08e600e424eee11cc8d1fb1ce1cde5f01fed2bfd28efeb2309361b110f
2612d7bffb0c0db6e5e8e2072cf20b12f2f6c9efdf0aedfdd4e00712c6ab3209f40ee802ddb20e3a0fdcdbf8cb0a17064514d4d032e90e2ffe22c7222746dbbf
0fc6d4ed160e1307e496d9d9ee0d15f3390a22e8cddb131726edf4c6f5de02ff0ff133d2e72de0f625c003a8e8e601e5f3f4fcdac902f3e6b92ad9da05010f06
46c7c7033e3b350507c8343af9de1edf1df711e802da05df31e123c5e0fc1401e90fd31f172911051322f05bfef70717f60cc41d10c911d91a321922eae00c35
013404df33ed06ec0defebccfe17ecfcf4faf4b211fc13e5a7d7b935f6260e1fd3f20fd8162df7f109e223ff23f8ebe651dcdafd0117f22204fffa26121e0a07
e524f3172e16fd090029f6fedde221cefaec3b04fc0318e6e900f0fef71ef4ec0a44fe05b94105ceab2a18f3a70922ea3ae70cc5c9d3e8e1d0d5090306f33dc9
1cb804edffc92ad5d9defef7e4dddbea3ee32702d71225152e330c1ec9ed042441e1f2f80f3af8dc04ebdef81619f11c591532e00027690125ee1b0c19453b09
f1ce29ddf6bf0903cd350a0603eb1e30e1d1f3e2c9f6c701341d04eb1817030d06c304d1d224fbe2c0f112d7fffa31d903ea0621fc04df1eedd4f823cb07f6de
1b37c7174f082013df2606f6fd2fe6f32844e402e037182e1508e0dfcd1e0bc60bc7ebd118d1fb140d0bda0100f329e416efcf02cdf7ec01d700f1e3f0240ac9
d6fbe7d7ebdcdad3daedd423fecdecf638e1ee12f6ddd2f4f8dde7e1d3d7f426d7ef1e1cd91e02ebbd24e13e1724cc061402001df3f821dc16fade1d0de623c3
35a32022e41923370ee7cb15e2d59dec07ee2ad9003205ec12fce6193a2700fbf2e2e3edee400ffa1cebff27d518ea163218142a0d1b2ee2121d021b0149e027
ff4b2819260712eaeb21d72cfed3eb39c128bce536ef100119f9ec38f9f2e829d711112fec2317f0c2f91d0a26d801e6f4f1f2dfe20ef2ecfdbc23e900d425ef
f439e927d5ee0936ece117fbf3e507d4302134050315d8f72bf5df0fee30c10403f12bdcfa28f3012311202df4efebd9370511d6b41fea0710e8e6debb30f8d4
ff0a03ff09f922061600f128c7dc03bfc7fcd9021a12e7300bd2cc0adc2746332206f40cfbb9fa131be649df0be0ea2fcf2ac915fbd7f507052de6f2ed5a021e
ebbbe623e922c92204f8fff0dfebcfb50fc71e1cd231f8e2f70af4e60df5dfb80f0e1c051ebae4eb04eb132209d50804d8220ad21330190907ff1edaedf5d823
daeb10e70c0910f3c42bf220e7e03bfcdee5da2230af03d2b6e9f8e608fed2c7171cdd0516c5d41234e3bd142ce2a9e6e8a7e5fc2300d935e3bae30f4b221736
231d191adab6c5042d242cedba29c2e6f1f807e522d4f0f60d0b0cee05cdf1cbf017f4cb05b9d317fcf92737061ae6ebe7f92343d3eee7f4ff020430fec21beb
ff1a11fff7e118eccff32d25e200d3121412de1a23eff7f33bfa16f30edf01c1df04f9231307eb17eb2dfb07dce1d2c8cefcfa24e9c5ff0a061c05dc19dbd4f6
fcaaceec1115ca36f4fcd8d2f400f913da455bbec10a0230dbeeffdd00edede103d3e1d2fc440efefa0205e1fc2dddcbf32bfbeedd2b0a2ccf06d312fe09ecd3
d0e3fa1803f21423ff03dff121f25fd1f62deafe22d1fbc81b11fcfd1be7c23fb330f2e2f62f09ecfc28f6ef1ce401d32d10bbe9162b1ccdd803f020060416ba
111038e9fd3e12130a0107de2b22e30741c6d124dfe8e120d5d909f9e5f300f0e81216e90b51e608f8d2d7c90e00cee34611df40ee141616f506d9eb14e900c4
14d010f0c012b9d8f0d925e204103632dcfd130002e5f71ac001ce0422210c381f32ec32e2e90edae833bd342201bd1cf4f2e6d8de0108ea050a08d315fd18f4
f3ac02120dd6f92dd5cb34c2f90c4f0b12edd62814eb114022e2abd90206ee34e4fe0919e2e8e6fe0e14c4e519ef15121121fd28b719f4d326fe0ee53214fa09
09fe0d03fe31283c1cd21aefed0800da29d311162cf3fbde2529cae8eb05091bdec60bf804a92a1310bb1c41e7e7ead6edf21de71bbc01fbd52de5e3fff0fcf5
ff111cde25da03fefff31903e3c9330825e81d222bc9d413180f16f2e124e4dae8f4cf2917f2fcd9e4cefc272dc201f9d9db0d21db190fe2e6bc0c17b6c623d3
f7d8f4d40603070f10dfe71100f2b1012fde0921fed901f31510f842dcfdfd1c111f1dc1f81f23f10ece15dbf31628141625f6fededefe1116051db80cf40dfe
2a04fed8020033239ec2f820051ef2c0d6d3cbf8ed0dd8db09f3220ff91f0e5434182bf5ebcdf7a5f7ca1509efc00525ed131ecce6af1b2fdcade9aa11d7dbfe
f54d21e2e10ae5c3ef02d2031001ed2034dbf8a7dabbe6f7ccdb310d150b12b415f5c71bea0efbf3f31f0bff01e028c82f0ae4dd46ecdc3dc102f0e5e6550bdb
0af50d0c111b0a44e5eef6fcd10215072ae2241f072d140604ebe5f3ebde1a081f33151d1a1bd12c2bfc1cf3402a0be8f10d4b1d2112efd0d42e1ceb0312cf22
0b35edefcdfbe5f4141dee104b1dc51bef2b2dcd35f80bc0ffd00a19dbe6eec914fe114f0c1be8f9d2dd5527e5e0ed13e60a002803fd2fffffd32531d9fe25dc
1ef218cec8330dccf1d9055ada011708e6ffff2ef3fdfb0441fe19d33237290aee55f918e3ed17c20c36c304fc1ebf1ff5fc17f1f4f44d371d13dcfcd7f5f52c
fd5c36fc00e4bef211efd8e424fc06e70435db0af7e4cd1eefd9d2f2f91e01b0e4e8f53a12dce018db2630b231fbe847ad2a100215cd07f51cf6ee021fe5e900
2a0f0d3a160125c3f83631cde8f7c4133600e40914261d12dcfbc6272af806d706df2ee5a409e7f40a2cc6201a0ecedb4324e6fd1297210f0e0bdf37ebf522e8
c9bc28f2050f14001bf9ed2af623ddf4f81c0be738d61919cb24d1f9eeefd3f9263cdb03ce4613ee06a909fee606360e20f715eae1e7ece203e1150519eae410
10bc131ef926a81ce3e4cde9cc15fae801d7202fcd231cdeb8f6fcd9e4e6022df21d1010f60bfa0a24b9d9e6f0caf7f70ec3221dd7cb19ce1131f706fbdecb16
e8c2ef03fd260118283de232e612ca181c4ee8af160fba00c8fc03ec012e9dbc1926dc22ded0e6f7ee27fbdffe2be511f0cf2730f2f2fb1f0706040901b2d9e7
04230fd64739161315dd1d1ee4ec25201330f5e8ce3df2d7eb021aea12bdfd1cee1c0503062509002001d5d9bffcf4f40c36fdca2215160dd8e5caead6b4110a
d11b18fd00e6dae7f42622adda0615390e18f61c28c5fa0505e20fcd03ee12edbfcb11d4f1eb05ed12ee1a0dcb0602da04eaf7f7cc062904c81426cc02f815f1
cf10fd0720182df6f6fbec1fe7cf3a080012e62c3aea2613f322ff2d1abff3400c08e406dc7518d0fecfebe4f1ef131d3e02e23ce441ed19f308fcdd29072827
ce2c02d25a2dfe020145f8be09efc9c02710d31201d9feeb38dfe33305ead2edd50be1f6f9dae3cee2a60b1adff21106a1e30494020006e8e0e6bb19e21e0d00
353dfd17cf92f22922e6f5080defa402301409da95fe3fc9bce2f6ac03efe2fc061938f3e7143226c5311020c6b83333061e0c270a2c34eee112e0dbf82b2511
fdb2e7f606f5f64e0418e0eef2f7f9c5da81f01ce2ed1b232bee17ac173a37f0ec43e4d3f74c06e80a48f2d3e141f316f13012e927e4dd2d011b0319ef02eb29
dbded9192d0be31325190ffb24d0faf5240e0d950d09daf537effcf2d5bbf2f0ad17ead3ea15f52321380b200f0a19eedb2412ed0b18e4f0f6fbfb0c21ebee35
34f6e4ebf3412c9be1e8d455d2efd1e7ea28fb1212061f1512f9ee1c4947dbdecb11ee23ded70cf2001e1215a51cea1f46cff0ea161e2be6fce5fd53031dd1c8
41ca0c2609e3091127c0e5b9cefec531f900d3081d270a19e707cefc153532222543fa2514f722dc3c0cd4f9f3e8e63ffe08ec1c859df4ec1422dc31ea1e2223
d2f91014d7e5f4f106460dbbf7e7ef0d18fb233bd2bbf44ce5f4ed391eeffe22fcf5c3d419e9f2c717d817361d00ded727e6e9c9bfe8df1d1cc93258e22925e0
2c4df823f442c7dffbcf10fbd812e43cf42b12c5f4e525f51a13c2f912001af52dd5f1ede3f81a00e73a0e2d29ffd600cfc10be01b41ec10fe17eb1a330b1612
2ad845c720f905f7162fd3073303f0e7c8e416ead71220f521e10c2139f7dac6d622fc2b03fae59bfdd1ba0a2bf1d0e4eddbfef4edcfddf11c18442ecfd909fe
f31f10ff162707e3d1f02ee30a143035144201fe1f251c01220ff2fb11e7f7c1d5de16fa15d7ef221706e20721e8e8f2f30aec2b3ffb23f509081bfb2df1e32a
c703c0e3d70fecdcf711ca1ee0db24fddf16e60944e8dcf1f1d8ec06d4f2cdcd0d181b04e1fbcb001f13e6ccc3d403d025e7eba8060eb3f0e9f203fb0d1af437
040c1b19040906120c1cd8f532db271225f9072d40fc160bdcc9f206f9b8f7d5ffbdc6e51ee5f3fdc1ebe056e5ff130808dbf319d6dce0edfafcdfee1ae8161b
fc1ae8caf32908efd8c2e619dbe92bfca71ee3c918eed10bfa2bff0dd2001018dd34c525f0f8001926dce80201dbc7ab1bccd22008eacfc5daf514de35d5db1e
021e01184def2f191823e2eeddfacc0020f4f1e7d206de1f04251ae3252319012ef016fb232a20210aae1becb3f6fb12cd131dc413f41d41f61a3408e0f5330e
