0fe42af1142413fcd1
2c09e208290030ec1b
fa2636f3bbdb278f1c
1706e10fe011f1e943
d7f1c8fe1337f60e24
ea310b0403f715d4ea
24cf0ef90ce10124fc
0bffd50903dbea22ce
eaee18d1ef250ff4ff
dc0bf4e00217f4e12b
0edac00642290ce115
e70cf5f213fbee0aee
163e3eeadf00ef02e3
d6021b08fc291df1ea
e43ae6ad120843b21f
fb062068fee62cc7ef
e5060edf172e16f006
2bfce62a06decfe653
f3e12bdcf60727dbff
dd1ee5c3eb02d1d5fc
ed1c0b04110e01030d
24f8d9e6af1ea9240e
e6e310ffddfe1af60d
d00a0bcbd0dff82329
70d7010707fea41d22
081e1fff1725f1f2d6
1dede42a1421e4d21f
00eb262ee01edf15d0
e5e9251cdb0209e5fc
040d33f5f6b00ef61d
2a3b09fcf007ee08e5
e811d30720131b0fe1
34ea2435062d1309f3
de04062d0ce12e2b07
cdf20a01dc0cefdfef
ef1bfeda29282ad63a
de01d15bfc1027d4b4
fcfa081ad0cf1c160d
f9f9e4362433eef00f
fb002ae10dcee4c832
12fee259f4e9fcec09
e151f3e8e2e242b416
3a0bcd0b0fed490dfe
e3b8f4fa351bf922d6
f94af41deab8ccc125
d7d10ee20211e01d21
3e37f4e0b1db41faf8
f3e51d02e7101814f7
59001cfce5189efaf3
ea0b1f3ada241ce4e0
cf251f2e1bc612d009
06e1d400e6e418ed50
cff1fc1bea1d07ebe1
7f0df42435d6afc117
2cf3f1bcfd2ed82d06
c1dcff9019c9220239
eedce841fff53be10e
a5282fff0803fbebf9
e812e90cf9da19d405
21d8fa08def91710f4
c01a23ef030f150d27
37cfb700dc37a01b34
f320f201e8f71dd350
f1e6eeead90712f20c
