// =====================================================================
// CONVERTED FORMAT: 64 output words, 64 weights per word
// BUS_WIDTH: 512 bits (128 Hex Characters per line)
// FORMAT (Left to Right): [W63 (MSB)] ... [W1] [W0 (LSB)]
// =====================================================================
ea1a34e93007cced2eceed5ef724f2c72ff328e43af1e2f5efcdca002bae1f190c0cfaf7d9fbcee1dfec24112ee0130b0b3a1afc05120028cee0f3fded1ee2c8
2d2495e6d422d80213d3d5c020e0ecee13582b1e42fa2eefc90c52b2e80aba0c151b1f2509ee353023014cf5c004e512e0e524ddfbd4f002ff06d2ec20ac00d0
f31aec27fed71822d85a10e8d3fbb514d0d6e9e3090a04002c16205125eb09e4321dec17be06f42d4d01ea24da08d208e4cac0eaca0c2a01d4f2ee1ad20e1cde
0020e8fa1f05dfd415c6ce3fe5b206e4ecc82610c9a4430c00242c20e321f31bd4d5b71a1f1f261009aebcdf3cc4d80226f3de18c20d10fa1cd1ddbbf3fedf05
31e5e7c9f6d0290308e51df02417e3d6ff29fbfec31224d332f01caac4e5ff1a01fd17cdaef52418281ac4f324f1ffbcf8f5e32622d1eb1d1ae1b032f0ccd6e8
121502f9f2fa0a393430f22f0c04d2d30c150cc8232d1741d8d1300406f326cdf6d22cffef0ee501f52ff8fe2238f821f0f246ecece0a50edccf18d6f64f1621
631142eec927df09ddf5088c12fd24effd3324040c19e7bac5ddd9d811063beb3fe9cf1cdab743e52629d951c6e83e2df3d91cc80d0037d1fee4cef31012e412
22da2acfe54e0af226241f24342f2b1cd8e427f61ef84dfe36c5dc39fc2cf220f9d4aaffd6452c01211b3f43ce030c1006e3d5f5170cf6b8ed28232b2cc60c0e
f8edf70cf3eae919d4fc23d517c4e61eead1eed8542c42c41524fe041f200433e7f2fc0df2b0ebf402ea160acc17f2dcc1e4e407d5ecd700fe1aebe7ca250215
911bf0c633dd1ebaef08e613ed13c10cdb274a0feae80f1b52f7201b25bd3f0dfd1afc5a023d0b17e0d1e924e1d3b61010c758e4d4ccd9f9080304d715ee2505
25fd1036fc26fecef80214371234ffdeea29d7eff710f32024e94ff91ed0271b1e0b3ce2004ede373bdb0f05143213b2f9f7aa1d0fd9b8c7e9dcf3f8dcf71c35
d7273721eedc07f7ef170b5fde031ef401e80703f812101b12fa433122ef300bfad90207120416e2eee3e5b414e00b1e2725bb221ff42adff1fad1d400cf2603
2b22fb15d70538de08e006f907f9bcd7991e3fe9ddfdeb332afd03ced919f6fd49260c02d82a0702f4f7cfd105fb0629e4fd1304bb2332130cf41ce8cd0019de
02533029ec2ed82314e718bdd6f5042926ce17cae3f7071ae03fc642f5c936edea30da2c00ea0beef90fef13fbaacc32e737ee28484ad2e831ed6709d7a41313
d9e02b3a42271610ee2781c31930c7baf2e7ed3038fdacf0eee70d40e6fafeed05edfcecf3dcf72fdf28fe000ee9250127f2250cd56325e51d1503081e3b0701
b4cfe905f9bb12e2d50ef0e43ebb041f29e1f0f425e5ea0fd2f2cace05c9d2f808cc011fef1c04d7aee71d18bcebe51104d9d0dc120abcf4e01ddf13bfe6ccca
1dfef741f12823241c1bf70a4bfd0203d5182a3de90cd341e2b4e5c9aed508a9ffe8fcf8fb19ebe35029f0f93449ff14f6f9b0cc11e0ffd2fcd9bce402e214fb
1413d7dae8d5ef360ffbe61c0f1302c73d0bd848d1daed190602c2bc46c8042b0b093a27bfeebbffddfc231eb3c8eaee12edbc1810faea0aded9a724e5ee13e4
e0d9c2cec312e113b90628160dbe0419d3b3d6201dd3f8ac259deffaf7fd1407e3ddfcf2f6d5d4c8ee1b0c061910f14ef83b07f828fa1b1ceae42e19cee9dd03
fedd3df515f51c2b130e0e0b2af1cf0900e0e213cf03d80d21edda4dfa00def1bf0dc30cfe3d26e6d0e0cee9fac2fa3c14b5e8ee0bf20b4026184026dd0d21d2
2a28c2351903d20614e0e4e2cd2d0d182cef1d36e6f2f2e3f4122702fee6e6e343110dfe1226c822fe29c92411b1f7ca20f2080ffe0f2bd112e12b03d90d40e3
1ea52e0ae9e0be20f5fe1138e7e2ec05400a1721290beb2dec1ef0f6fa2d2eea0a14f0cbfb1d06f7c7e2fa39ebf9f2242af901e6c11b0fe711231ed71b281702
12061300fdd017f0e2d605ea1715c2ed27030c4ce7cf22df1c211ef9da22df17daf7152c0cf0f7c00dd80ef616162a0b02cb1f212301f2f30a1c12c8ebf5eee4
4af80015183f14202a47c1cae539cce1e6ca67e5142d141bc4020017dc130cec21140f22363d16c60cad06d6429bd61921ff082bfb00d0010c17df2bc7df0cf8
c7f8e8df300238f6cb18cdd2072923ede8093fc3231fccf54df7160222c7e903fdf2e102f4f8211df3e60ceb30d8cb5a2e254116253519e2b6f2fa34f512f10e
f11012f106091c120bfdc52c0a1ac6edc1f403e2280c9cfbc2e70f10dd071f2eb0ccd310e1fa0007039117273719e704050cfd0b116ff40441b9fd063237281a
e2e412b6eb462009ef2ac607e70de40c1ab70a2411f0d8dab74b56dae41fb9d9002016041e15c409fcea0312fe1fb5f9fb060ae0bdfff013d6ecdbdfee1601e7
b7fb2cd015dd0bcf0dc417f6241915f2f1bfd30105f7fbe7ea060ef7e4ef19e50f09eaf0ef18d702a4f4c6cece29ffe7f60bc9e6dc04dbde080ff1f9bd301431
d9de9c49272a212310052516082debf2f12b3421fff2110203f9da233d231209f604bbdb12deded8f3b332d3c637fe091fe61e0e281f20e8350e2ec8fa211fe9
48cd0507eed7fdc811ff180be5bcd61ab6e8e81aea0c3e2fdc0acc15e8c2ebecf7c821d7c529d21dc2fded12e4111ddddcedd2bff5d91fdc042923d8e0e7f80a
da223b26fde6c20600f2e525fed7db2d12c1bcf63ac91c11efd4d6acd3e2efda11f4fbe0e0cd2ed217da33f3390ee5083310111f10fb2ee45dd7f70d34e826ed
1c1fc1d41b28f2c0b9b033dfbbe3f82029efdef31620170a2a36fbf31be0181c50f6d8072405e6dafa46c549f2fedbb43704051ec20a1c46c5d3f60c1ee7e72a
bf0eeef7260526dfe7f3103424e5f3b4d1f8e2d8141210da03e02a02ff1f14fc0901d2d401f3d021e9e31d0ffe19f4a9f82707ddfad3f249ee0ee9ff1400e314
0710bdf5ff6fd534f10514e0e20438ede8cf50e94de717b1f535c4402a16282f242e13d3b5dd12f5c8181b2304e101fbfb05d8ffe5b83c061bf7fb1919dedbdd
3309ee2704c92c35faeeeff8fe0d0bf8bbe52af8041dee3e052bd9270321f8010702092c162c4613e5f4f4130ebdca210009c9ff31370003f205ecfdd53b1cd6
d4040df9232ccebc1f3d32e9fafcc8f40604ccea121620f70ce3f7fbfaa4eef004d0fbc315141a071f26ef34f122dbf1361807fbeefaf6c109f7d10ef0dd2117
da15dce70abdf81eca1cfab6ec0c9702f106130c234500da140af909dd1cfcee50031ccfd1df30241bba24e4022ffaf216f438f2f808582d18263647f4132517
faf6fbe821f3f41e181d11fdfd29310c18dc0cecfd4105331802ecb8152cd231f8123b0815bb0736f4ee36ec04e8ffdfcb1d07f10e02faf6e315e9e9f0eefd1b
cf1b632026e9fc062e01f1d01937cdde03fe140c063229f3f8e2f9d2da2baa0332ebfce40ddaf5f6d9384a40352902e2cfec1b31e6d0e92ced07a2f9fef80bfa
360ee7f4159d08e1f8bcf0fd08e945083001ed02df0df014e6fd17f908bbd414d8f8bfffdc3efcc106f0c4fa0c37e4daf732c914e7be3be1e3f31beedf2ef0fe
fe07030823bd15e1fa162ffdd80201c7eeb7f801f72e2417d133de0c071119e1ab190721ee0a1f1e0221e8f80a1807def03a011321f3acd616cc20fb1cf7e4e5
26e41305b9cdec3adbf6f9e82ae2dde9bfeb2cdff2e5e407adc627bcced8f20942f2c804ebba20fef9eff6f5150756faf3e6e6f6e12b3f00ffffd1f12b1dfd1b
c0d203d134e4debf2ecbf623ec26cbd6a9e3d11defba17d330e11bb329ecdcf00af8cd10f40cbf170dda1bc9ff20f40bf61e13de06c23026c827ef21d81aebe7
37172004dbe1d2fa231aed00f8ee2a154d35e1070123070e252d1ee606ebd62b0acffbf822cb18df263614dad5020de9f721dc0120e4d61901ee36e006d73000
171848eafc2900fa10cfc82607d7eddedff20a3ef1f118e2f8fb17f0db232ae4bb141df00819d1d7321adc1bfffb05d3ecc92d01df2017cb1e12f53411fef30f
ffe906e8ae1e23e62fd32824241c111907f4ec24370a1af7ef28fe26fe1cce25bcc615cff51bcfcdda14bfcce3c839dbe2cae014d400e0dde6202fdd13d9091c
c9022901e434cf471f1332cbf6ed3b1631e0f1f331032d22111afd11c311eee5c2e8da1f04dbe12607f9cf2fe8ebb6de3303ef08c6d0bdf9b6112504f62119ec
f6b1daf50005c9e1d1eff30512030febd0fcfbca17e7efc9e6163bf83d31a62c15e40af909022506e4e319f3e9eff031d9d60902ce001a070204f5f0c606e608
250e37c1e15cabf0f61123f4f732d8d51beee2e01dd4013ff2c9cf6341cdeb0100ff2ef9b163bf200edf14090ef1e8f4ef24f22dc6b514f7ebee1ad220ee0412
f6f7cfd90d303c1141f8130cd4023913c0ebf5e4bcf0ecd816b523ed0425280a3fd00b211c1b492a1cf738131defdbdd2010e4d80b5301fee1dbe1e5221cd7e7
08c316e120143ce7e9b60310112e01ca12bf2805c6ffdcc52f120c2bf42ff9050630e3d9ee1ee30108f8dfd7f92bcadf111200f5a7f8fe2ff1dee2d93c341c07
c52de520d1f9f5c738e0dfc83028e1e9bee898d9dd2a2413fb0afeedb2fcefcb09fbbafac8fa62ddf9e2e21ceec9f62db92adaf8fa01f325081ccdf6e7012d0f
271f2f2eef2e1af3fde2e407080c23f20127d618e70dd9f7412a01dc11dd082bccedc3362129ddc30f4720ed03130099e42e09ef2407f7d4e0efd4500cf313ec
f6dd00d328271e1b0d0a01ce4aff261419ec13e1e01e2dd2111120e8e6fcf22517d92c23f015e2cdeefb2621ee352211190e06ebe2f8b6c82cf4bb30034cd608
250101e4dc3304f30026fad10af9dbd90a2922e13c28f4070a292a0019f21dd1353901fbd210ff152e09dfe613f70624d4e10de61c0d0a1cdef1e20708340de8
0f18161e18223b0c02c1da083240ca0cd70ccd49d3d90220f1e1f94bfdd8f6ec3f17c4eb03f5ee4e1303240214e4052d0ec8e3f7f02f1b0af30e29db39fed31a
d414c3e8e7fe01cff61103e400e01316cec9dde22710abdb1a25ed3116f7f51e3407b309d4eab00de51ed0edcd1b08f4f7f2e2c1d2d7e4dc242b3ceedc0bc1fa
0c1227f312ee3be42bfac2121dfcf2b5102cccb4fc2cf8e610f33a42bbc4c826fecfe9e1f01a06cd18c7ebecf911d9df38ff33271ded3431380be139eaed28f2
ffcf32cbda200db9fa812021d7fa142508d5e60412b11130e313e2f332cad122ccd1d0f0144814e4c6891c31eac52b0109d00d0313faacaa0d2cb2f9e2c7cc1f
241dfd43fc0d0803c1bc071b2a0adff1fb24e50d0bfdf628f240187904a216d554f7ee0ae3c4d731f6ebf91df6160ff2fc0efa1d09503237300ed439f3321405
07223c3c0cdb410718dff4f80deb0df7212a4bfe0004e8382a2c2a00bc101800e812ea0ce1282a460e4cf3092914c32c2bfe2e0df02eeb3516001fddffcbfbd7
fef1d40cd6df0ecbfcf22c0b2b05e1c1eed3d711f6f1fe20151bf3e3231a45e2eefce7eb2cd4d90019edc5f20e08324ad11b1928ec4d38e11ab1d5e4ed1040e2
05fcce1af0f215fcc91e011926ee03ec0e3e0d1214e03616f3d21412b3380408d6e110edef39ed0af1d7f1ee2d151ff0f910ef0ee5f22f1712fbcddd04bee809
10efece6d020e0b90cc3fab3e9ebf10301c7c9f20cdf0fe51fc5fd0a09f9ddc10108fefd39cb31c4f405f51909b9f3260623fd18da0cc0dabaebfde6e4fc0eea
