00000025
ffffff31
000000cd
00000145
ffffffe5
00000067
ffffffc7
00000133
000000e6
0000009e
000000f7
fffffeec
0000008d
ffffffc4
00000130
00000129
ffffffd9
000001df
00000065
ffffff8b
ffffff45
00000127
ffffffe2
ffffff3d
00000093
ffffff2b
fffffff8
ffffff98
00000114
0000002d
ffffff4d
00000090
000000bc
0000000b
0000000e
000000b9
0000008c
0000007a
0000007f
ffffff39
0000003c
00000122
0000001e
0000003a
ffffff72
0000002c
00000073
ffffffe2
0000005e
0000012c
00000065
000000be
ffffff28
00000064
00000137
00000150
00000020
0000016c
000000cf
00000148
00000071
00000147
00000075
ffffffe3
