00000196
fffffd74
000000fa
ffffffe2
ffffffe5
00000090
0000011e
00000278
000001e9
fffffe3e
00000519
000003b4
00000073
0000026f
000002c6
ffffff9b
0000018d
00000458
000001f9
000002f8
fffffe73
00000389
0000029d
0000011c
0000070c
0000006c
fffffbe0
00000541
000001c0
000001d1
fffffc76
0000011b
000004ab
000001e5
ffffffe7
000000f4
000003e8
000005db
000002ea
00000046
00000077
0000003a
00000484
00000107
000002f4
0000034e
fffffde6
ffffff8c
fffffe75
000003bd
00000392
000002d0
00000221
00000570
000000dd
000003be
ffffffe5
ffffff12
fffffef9
fffffd1c
0000032f
00000161
00000140
00000061

000001f6
fffffd84
00000081
0000053c
000000f0
00000680
000003b9
00000093
0000037c
00000013
fffffe51
00000696
ffffff91
00000334
000001ad
ffffff5f
00000085
000005b1
0000028f
fffffffb
fffffc37
0000020c
000006d9
0000037d
ffffffa1
000002b5
fffffc2c
0000082a
000000ed
00000853
0000051c
fffffbcf
ffffffa4
000001b1
00000684
0000014f
fffffe05
fffffc59
0000008a
fffffd44
fffffe22
ffffff89
0000005f
fffffc04
00000002
ffffff21
000006e5
00000654
00000917
00000937
fffffd3e
fffff9ab
0000025b
00000420
000007be
ffffffe5
000004b6
fffffcfb
fffffc16
000000b8
00000274
fffffd0d
fffffff3
ffffffb2

00000010
fffffdec
fffff71b
0000028d
00000c4d
000004f3
fffffc90
000007ce
fffffad5
000001d3
fffffbd0
fffffb7f
fffffb91
000001f5
fffffac4
fffffe6b
fffffae0
00000704
ffffffe9
0000074d
00000488
00000341
000001ba
0000011b
0000007d
fffffe47
00000423
000000b3
00000263
fffffdec
fffffc08
00000483
00000471
00000202
fffff9ba
000009ba
00000475
000002c4
0000036f
000001e6
0000051d
00000189
ffffffc0
00000707
000004df
fffffab3
fffffe0f
00000259
fffffd54
00000b0f
00000295
000002e0
ffffff97
00000427
00000482
000005e6
00000044
000002ce
000001f2
fffffa37
fffffe00
000008d8
fffffbaa
ffffff46

000000bd
00000095
00000185
ffffff72
0000004a
fffffee7
0000018f
0000036f
000005a4
00000355
00000140
00000234
000003a6
0000041d
00000306
000004ba
000003b1
00000387
000001bf
0000038f
0000016a
00000844
000004c1
0000015e
000006c8
fffffee8
ffffff98
00000374
00000585
000000a6
000003b0
00000612
0000016f
00000024
000000ba
0000028d
000007ef
ffffffbd
000002b5
00000119
0000039c
0000042e
00000601
0000005f
00000086
00000124
00000012
000005e4
0000035b
000000b5
00000360
00000245
000001d6
0000033c
00000120
ffffffa2
0000080e
000004f0
000005b3
000005bc
00000234
00000546
0000005b
00000094
