00000010
fffffdec
fffff71b
0000028d
00000c4d
000004f3
fffffc90
000007ce
fffffad5
000001d3
fffffbd0
fffffb7f
fffffb91
000001f5
fffffac4
fffffe6b
fffffae0
00000704
ffffffe9
0000074d
00000488
00000341
000001ba
0000011b
0000007d
fffffe47
00000423
000000b3
00000263
fffffdec
fffffc08
00000483
00000471
00000202
fffff9ba
000009ba
00000475
000002c4
0000036f
000001e6
0000051d
00000189
ffffffc0
00000707
000004df
fffffab3
fffffe0f
00000259
fffffd54
00000b0f
00000295
000002e0
ffffff97
00000427
00000482
000005e6
00000044
000002ce
000001f2
fffffa37
fffffe00
000008d8
fffffbaa
ffffff46
