// =====================================================================
// CONVERTED FORMAT: 64 output words, 64 weights per word
// BUS_WIDTH: 512 bits (128 Hex Characters per line)
// FORMAT (Left to Right): [W63 (MSB)] ... [W1] [W0 (LSB)]
// =====================================================================
01d819dbf944e24dbee023090b1103d3d63409170a1aff14bc1ae9ea0a0ab4d7ff39a109d81426fad5e8cbd1d7e11c00160f0625b2455119da2f1404ed1e1c0e
d0dea4eff413f730b0df37fffc2cde29d6091f040c07ec16d2dbe60a9ddfd4d8f9f5f51503bec6e307395209d8d9eaf22a38d0e6e9f9e6dbd710b5dcad0225f9
28d1b019f32dea20fdeee0303bd3f3d706450eeffe371707c9cb2c07cc151136d121bd35e907041403141b02f6f5f201cfeb1f0b3bf62ccee10dd432041ed30d
2702d9f209ff030827dbf6fefccc20f2ca1634f54b1edb4f0906d81e1eeefdd5ff111305e8ef2ad4c1d9dffcfbde54fcf70739fe19ac45f435d1cfd3fbd9fd21
3418cd1803d20eedf7e50515ef2ee83a16caef0acf180fd6fc3a06d3beddf5edeae421f11918f940dc0d9cddfe1ef12c101f3027f435050feae02be9e1edede5
00cee726012ef6110d1435f7f2e74736ee1bde210ae42503f0e702d503eade0bd1fe29e9e612f3fa2acf0025dff40bead4faf6062cf9cadf1f31073603d7fafc
2f131f39f3fd39dfe31a0c2a1f49def33300dff2e90211d3f9f63a2bc821140d021dccd00a0b0aff0bec230bfb15ed0cd626e537eef30a232a3564e52f264c28
002323eb12ec52ede1f0e6f5de07b60711fb02081945fe0f0c3b1a2ae5163bc22efa130e02204506292f3154f61aedf7d50e150e3e3be009e74630cd1815ecf5
13192329eb1f162c4ff6def51bb81ace1ff0f111efe442daf2fbe2fd3a2ee7fb064f630d42c5d6e6e125f5c90419e92b50f1070f17c5ed22ca32ece4171c303e
ebf5d80110e1c9ed24eee31008cff12314d0e4bc11e0da132e180e072727f00e3af2f3cc161ad228100cf8ef39df231adc3c01c5e5c9bc0004cce708f62cf6f6
dbff35ed0c25fd25db11192b0709c9aca7bc5d0b29ec021ddb0127191e0812bb2617f010f3e3e311f5da15fbe613d8ff0f2914fa0f10fdf6e80bcf02cbf1af02
15ec2fe14acd20fa0ad4ebe8092539fe141cf108e0b2d40901073a11071a1a02d9d23ae6fdfd1feb2d37e920ce070429e8eff4e9d2d7322c13dbd1e9e212172b
f4e8fa17f512e8dee00113db21c1d7e82eef1701f4fd0ee6e2f801d4b3fab718092be818e3c8230df2f213db16dde3ec08eae02d24db23f9cb24f5a0242202eb
eeebff270e02f1fbc808ef37dc0040f7ff2fdb10f7d82bee220031f519fbf63a1d1bf4f70024ccf9ea1036011c0be73df719ea0af10827211151db460820174b
0626ddf4e51db0c730140338f7e03f34181627fdef3db4f7cc0616c5ccea0c091fc465400021fe43e123d2c9e81becfe203c02e7e652cd25e21025dbbb15c824
080f0ae0f90a1cf1df0d1d04023207050214fc1ee8dfdae43a2fd51ede0dfb42e33325e70e4ef65ade20f9210b3d13f1ecf5d928f5dbf8f0fd2e0ade1ae4031a
1316e50f1bdb0dd8f2121deb2fd92265ba3af0f103d815dbfdf12e060c25e8d9c6d32ad712fef2e4192acdde44aed9f011fd160f2e3a32f91bcdc0e6f5121adb
e3f7460d3ff12508e521ed1b15f4d0e3e461ec141d090517ef1107ddf633b90d1818a926074532e818de10fcd3f5fcf4f42d24ce251c2e1f49f605ef19f24525
ead8e42042f11c0af6e62a1afdff00262839d839fc1818dd04d43020de490d03e245bdee02f828fe1cc511192132f6f90dc7f7285ede34dacd0c053418420fef
1d37a3dc2703da31a71a19e606b3fece239535f1d4fff0efe9cd04c2f7e1fb1106f96649d809fb26f4b8af1fd40233004310d323cde9f001adb7f11bd7cfefce
f31e29ebeff8f4c8a60103001d0be137b43007eeecbfdf09f5d9cfeeb4fbf7f41110bffae92d11f5ddfb05c3c20fe9e602f8d918ed0b01021beab3dc0601c700
c92939c5070b1432b011fb0d1b14c5123ade15e905e1ffde2ce3d3d207fa0f08f504f01c1e2fe3d905140b060035a91bf0fdfbbd0bfc4522f7d0c42609bdd5df
1511db37e606c51febf7140ad8f9ff0ee1c8ee11eb25410cf6d0ebd8a3022fdab0caff16ea96e20e20eff0230d180605f9fefe113ddcdcf317fcee22cc17fafe
fd3be8290b0bfb181210ede7f415491d0bcb0603f82de90ee6e1adcfe6e4dedaf801fd13fafbc0fdd2d8d0d5dc0ffe12d0eac20de01b1a17c3c8df9e151b7008
04cea9501c2d0701e2fcdfe4112fd300063d2d231811261ce9e3ef32101f41e9e05eb839d0e251bff33e3a162001e32454f8ba24550cf5ed1221eaf7084608c9
f906ceff061442f6be2a0f2adbfbc313f1f1fa1808ef33f4ddfde1ca38e425db2209eac6f30bf2cfe323090fe240d8f604143de0fffdd5e4af09dc1c29fd41ee
c9f40dee0a03130d2de2e8c0e2e9b5f91fd4e9ebd5e807e2dfc319e20df4f2240ef43b0eddeaf1f7b117f4d7f7f8cd09efd4f1fdd6d90df5082bfceff9f4cbb1
f80bfbe014d8d0c5f4ded1d8f9d9f600f3e703fcfbe5b4e5f3a10bf1cc14acebf1e9d5e5fdcf47c0fef2032edce6e5f0fe19d3d9c2efcd280d141ec6c6c8f11d
0bcc1109080bfcf0dde7f302f806b8db02e7eb0a0ccf050ce814171cf9e63c19aef5460be1efc209ed018919fedce2fde7dff3f5001e0009bc29c6f008d806fa
f3d9defb04f5d7f116e43be90f00f10df6f30600100f08171ffceae9f711db111632c027ed151e10dbf3f901f1de270a2bed1a2cfef20a21f0fe1ff80df60408
062806f40ec315e03be8141d06fb05eaf70ef3f3f9dd1412f20615225018da3ff00ec3c41d27dc1d0539d5d5170afd0cfb1758e9e433bc2dde45130821f8e09e
3204f11530f5fd082e17ebc3ddcde1f71bbe2fd9f8e2fd11f9ff0413240ef4280630f0c421efb74039ea00fd04e7370a413823e01dffba25cef7f0e61eef381f
0ee5e6150aecd8e1d2eeef0f036901ee29410c00efff0e03233cf0fd0bfd5cf10100f916eaba342ff11921e72a040809f600f0121b320a0d0de43808f4083837
4962103403f6d8e8cae2cc050c041a13c9cc24f0e028cdeed62bdf0e1dd734e2fafa45fd60f6120cfeb609e21812ed2721d9f767f5fc0448eff612d8d2f83218
cec5fe04e602110fee1c1fd4dac5dae43cc907d205fbd8ff2ceb20d9e929ee1b3a3104bc353a0719fc2a04fbea40f1f900d9dffc2939dc01fe05ec212e090ac2
13e5cf212df6df03fedff9043d32ca27ee1f12ff10d823091f21c118cffcf7d8ebddf309ffd50c17cbf5f6140bbb03eefad116e1ef0ab9f90b2dfafef420cfdc
f4d71515fdf5aa13f5000e14e4dff831c4ed14f706dec30f13e502db050405f115041bf7d0cefd19f5eae402e2f924d2e71df607c3c9f005fa09d1cfb90ee82d
ed25eaedb5f6d7f01aeff3092b63c1eff4e51c13fecde5f11e510c4898e13decffdc31edfbccd5dff9acf0c9bdf8191dfb06000f07e0ee15c91825e705d0e0fb
ff0e312c23f9070825e8ed19d3ebf8c3082914f3f9e808f7dad114fb4f16cdc9f5431f1213e3deddf40622162afcc90208fcc1ee41eef8ecdcfad2d6ea25aebd
0d09001409e509bdd7ca0b02b4febd1d3844f8c6dc23d9f32a081008e530253516efce320314393db5ea21e0fbd630ff1f09243114030f1343f615131511ddf2
f0050d49dcb9efba27d5b4ffe42ce216d0f0e1f5ca0bc5e0f81ef5f8d30bf6f1f1db1f01d3e831cfeceabeed36cee91a2bfdf61fb9cdcf12f8010bb81f3dc6c4
f3164ce81ddff6074020101ef213f9fd1414ee0ff826f1f6f33531e0a428e823bc1830c6e632204826bbc919e4f4f325e72bf3d3330cdf134c0008ed1423fa14
d1c0b2f3faf5be19ba1feef0f1dfd0fbf80358edfae71502f9a2f8ccd8d0dbf015fa1519aafe28fc50a5d6e5bfc4d6b2f3ff1107d718bca7efe5f6c4e5d54d02
e10cefef04faeceea90836dc2e13e0e5cfd90f0909ea00fb11f614c8030710120207f4eefbe2e9ea2ba5d9d3eee7c81a2e1114defd331e04f50229fce31914f8
1fce89dc18f90b081614f7edcae0d402081a1cf6ddf0ecf0def616041532da14ebefe0de13e4f6e13037efe51ee1d129fd0dd732d72915f6310b0fb9fd480a16
2d1be7f436ced9d44bf30dd1fd095ad9ddebe0d7022c2ec705e4da30130629fbdcbbda0827f12af00c01e4fdfa130235152a0e12d5f51215ed10123def0dd40e
f12206f02a1b060915d400cdfeb1e414f3c8ebd4f945d405e8a6ffc40c1fe60c0de8ecf41d13d12d3b1af2e905352d05eb462514f40cf506f7fa25f2ecf4fde5
0216370ce20200df0a2b261734ed071d11f1f3fbea1901e5ef11f41ffaeddfcaf1da26ecf3a65a0b323421f1f605dbe11e1c6ff32760ee0afa04cad8f73ca7d1
0906bafa2ae8042f19f6be0501251dc8cd51dff5dd2a37e9fa05fb10e0fffe3b05d3cd1f20e013f0080c101aef14131202fce50eec110f0dc522044c10fc46fc
cc00e4cdef29ae2107df02e10fd6eb16fa13f0fd00d5c6f304e9daee1cdbefe216e5e0cf06bdb5e9f9e140d9dc11e9fd28c631d9e325e6e0ccedccb5b6eee6fb
0f14b8efd4002005ffefdd25fcdad30cc1f8fa201dec0df22911e1300f1d3bf1df23f8fc091de2e4e323e5051ed9b411f2dcf0111e56e6dcc6c9d1f9ff3791cf
fff8e929f028112afce4eff40b29fced3cedebedfc0440f905edf231e506d00f1a10ac0ff0e21ff9121e38fbfffaf8eff11feee347ec06e6ca0df449092cc70c
18300c151401bbf8c6e6e7fe08fa16e3dfec03eaed13cef3fd1ae8e10a0536dccfcf07d801caf404e70811fdb9392a00ebd8db09f4021b0ed60430cdebdc21de
e011a8eee800fc11b4dfeec3d01e8103bb110e01ff00f50718ffe1d1f8eb1fb5f5310f1be8fdf8d41628e2e8d50c07eb201cd11aff25020c1402c5f5041ae3d7
27fc3722210d2dcff802e932f74bcffb3a38bdfddc2cf7e2e3e41750360c07ce100b120d02f90cd4dd2534fdf30cf2eeec0d0a26180814061eed460eed33181e
dae53d1ccbeef008e7f7f002def6e4190c3b1116dab43dd329f0f2fe24f9fbc2f2320fe5ff0f05fb15d8d808e0dcc5f609cddcf04744dff8fdefedee0526eef0
fbed05f94d273dcf0ef3fabe02460cfb3f470715f608ecf81c31cf2510ecd104ebcff736f5343f210844070316d9fd0dc7e417decfdf2334f6462030eafa183e
12fcc2e31100f71b2118d3d5c7061a24131b17f9c5f2fffb2cddf4d5de0536eb12151bedf9ebe41a2b2fdaf9340df105d4e5f21bf3c0d70df4d405bc260df0b3
f003e324e9330826f0f71705f9032802f2fc17eef5cf04e707f4cfcfc70e24e5f622f81eee00c9ed4d15e2c0f438f3ed11f90820f5f90af8d435ebe60ee4532d
181ff40bd90615f8281bd821d0cffd38feb6f6d1f217e7ee233bef2cfe1fc6f408e62dcd17fda7eff7ef162002f7fe22d8e2c4193d0525e314d9ccd6fa1f1ce6
16e0d7ea1cf743f10af3daf2fa0e0739ea3e1ef005061f0fefb3dfd7cb0a2d3cc9e5c300123413ed00b81614e4f45115d2f5d5d8d229122b2f18173330d13b4a
103e0fc904dbf10f35d81425c8e4f1db0af5eb00f8dccaea25f8b62e251e1fcf13ef5ce916bf18e7fcfbf338ce1ec911eb22d8fcfddc3f1bf4b3ec04ca380811
ea0a2ddfcef1eaebe5140adfcf1f11e735f4cfe1f3d20afb1d40e3eb061bf707f40812e2fc0401df04fc550fe2f41704d91cc6de02f9291c3021f3ecfc28e70d
e007e0e7fb194c110b0c00f023dae54305d0f506ebfa27f4fcf2d6f90e2deb11265639cd1f26c6cd0812d1ed0a12ff2e1c0135f776cfccefce0a00c8681229dd
