// =====================================================================
// File: DS-CNN_dw0.memh
// CONFIG: GRP=64, CH=1, WIN_SIZE=40
// BUS_WIDTH: 320 bits (80 Hex Characters per line)
// FORMAT (Left to Right): [W39 (MSB)] ... [W1] [W0 (LSB)]
// =====================================================================

ca121e0ddc3a2bedf113f7e7d7db19ebebece6fd081cf0f9252cee071e22f9190703fd1b0de0010a
c00641ead83a06e30b39dce44021c1f85ee7df2d24cb2238f6c81b22c3ef0613edeff9fd20ea0103
0705f6fc00fdfd03f8f40802f4f40502f8f90a02ed031500eb030af8f30403fbfa0401fdfb04fdff
fd15f9f3ee14efe0e70bffd1f11d0ee2021c200016fa171320e9172906d3f82b07d7ef161bf8f4fd
05f8f7e9f9fef6e3e4ef1de5dbf81fe3bb0902eef316e5ea0a12ebeef503ffe4f4faf6eefbf5fd06
d30c1d03d91019fcea25fff6fa330800fb01fe08fafdfae5fff4dadcf4fbe8e70cfaeef2030b21ed
f712171f0714112ee7f50e13edee08ede2effaeada0102e10216dfeb2408e00a0df4f02feae40a29
03fcf9fd03f90d0409f306101d0f08f51d260bfb0f1afe070203fbf9f0f3f4f0f0f913cced0c11c3
0efaef000dfde7ec11fdf8f30a07f6fbfd010708f5131614f9141616f40c1610f413ff00ec100807
e2e8e801d1d8fd10efc4fc0d0ec8e1011dfff605110f0ff9102a07f8fa331204f52107ecf21f1ae2
e3f5f72806f7f31534ece31228f8f6ec060a2adde60d4ac6c7291de2f13ad2fe1c19e00a11070cf7
02f10402f6ef02fefff907fd05f8f802fafdf70903f2f20900f2f90805faf50214fefd01100df80b
f41417f7ef110800fcfdf5fbf30a17f82e240ddc53f31fcd21d4fedb0003dff2ff1be80bf708f935
1bf700011e0310ed29f80beb1504fff80dfd040aeffe0f11e2f20807fff1d302080ad6f9f00701ef
f71bf50a14fee51230e9ff152ecf1c04f9f52801cff11401d7f5f8fde4fce9fcfafdfdf9f4fc10ff
01010f09fe1117fd021506f80a1cfb040717f902fbfefc00e9fe0602ebff0c02fde905fd05e502fc
ff1a16e7fc07ffe7ecdb00faf7cbeee2f9f3d20002f4e0eb04f7f107e4161118081e1f141a11252b
1f00f2011901f8fa02f9f1f9f7fdf5f50408190afe173b15e205220ed7ecfa00ee01e4f10414f7ec
15fef11fe2efef1ad8c60817e6beea25eecf08090ff3ff0226140d051d1ef9eefe1d06eff21d28cf
00ef05fc12e5f20a07cd03f30cb9e11816ede51e15240901094bf8e5ec4005f4e92117f3effc0800
0a0519fc08fe05f40dfe0706fcfe0904080df902ff05fbfb0003effdfcfbe704fef6eff6fceffbfc
fe2809fa110dfbf8f7d4f103e8b80017d3e6151cd40b13fa021811e80d1d04fff502f00fe5f30410
faead8f600dfe40013f4faf0f800fef8ccfc0505cced1313d3091309293604de4a2409dc240b0510
df16eaeec1fef2e2e10a13fc251b361966fb1736f1fad1fec113d8e7f00df4ff06f9001bfae705fc
f6fd0c0bf5f81707e5031204df001802f4fd070709f9f5031cfbee04250ae9fe0f05f601f00bfb04
06d8032315fbfb1e080fe6ff0911f414f90cf90cfe0afe04f8f8f5fbf4f9faf80af008f807fb0ff2
e7110311e41c1e0ff7242214091c140efe11f5ff0401e7ed0ad8e3f91cd5fd0410e0f7f910dc00fd
1d070b0419ef192302ee091314e3ff1e2de500031fecfdf30efaf1190102f1000213f1fef412f207
210bf817280312f724191f013d0e03fc3f03fdea1cfae70bfcd0f612d9ac141bdab30703fcecf0ee
c801061bd0d6f51af814e5082325fdfa353c302fff025b42cba1cb0716f2c4e52135fbe60119152b
050507f40f06fdee0bf7ef0304fae8f9fffcfb0ef6f0f70cf7fbfc0004f204fffff4000bedfe0403
450213e83400f4f93efaf6f3441b14ed1a280bf7ecfcdb0be91ff709b61be7f781e31a04b9e22e04
e8f6ef17e8fc0123f7081312f8081cfff6130aef011f12e9151a0ae31009f4f008fdf3ea03f5f7ec
1707f9ef1303f1f4fefdedfe00faf800f902f2f61c08f2f3301307092723160603130c0ee9f12208
1903ed11150aee1002e7f90f21f6f81216f5072120ddf60b23e705fb28f40ffb02e70ff1d3e111ea
fd02effb0009f00c1204f3090f09f8fc08ff01f5f70414f3f9fe0e010cf713f9100c09fa0c1411f1
010c171c0103041c0700fb0c0905f6070400e6fe02060502f0020df6eff910fcf10813fbfb0b0aed
18f505040bf91b001bfd2ceb2bf004dc3d10ebda3919eddb100ef5f9e6f6f320b3dbfa4ac5e9f317
f00ef7fed627ebf2cf0914e4e1f22edf2cc934fb6bc200075afcc31f1644e519da20f712fdeb18f4
cafb1bfe174b1b095a4903080eed0c0acce3fc04f530f303ff18ef09ded8e5f5def30306e5e6f1f2
170714f40204fcfe0008e7020c230ef5122b18de192919fc0e0d1a03e5ecf9f7c0b7da1bc0bfcf29
14f5f7f904e3fbf2eedf00fefee90df9090009fff012230df82e1c1bf01dfc0ced07ef09f4faf107
fec80a0719caf30f2500ea0e1927e7fa0b2be3def91d07d3f40c19efdffa130ddbf40b2303ec1415
05fefdfa06f0edfbfcf7fdfb0a02ede1fbeff3dddcc9f5f1e4c7f90003fe120c0d181c06fd1f1800
fa04feee0507fdf2f212faf2fe0c05f7f709fbfcfcf7f3f6f008ffe1001ffadb0817ffe80f1304ff
0f0b0ef01b0f1b0f0d0f0e20f9010e21feee0f1707e2fb0501e2edfbfce8e8f10409fbe5ed17f6e0
191bf3fa1e15f0efe1e9fe18b5d1241dd2e602ef15e3d7f900dff61ee007221bf80c17001a1110e5
f32602e92021e8e21d00eb0e0df3ff0d1bd8fd1b0bd104120ae4000b05f1fff011f6ff0404f903fa
0df414fa07070002fbf9f20c02eae5f437e7daf72a0dfae21a2c09e2f3360cdaeb151ce1f8ed0d08
1bfdf6fb0bf8fcfe080002fc10f3fcff1afaefef1cfffafb0d0f0102ed190ff9e21d1002db0d2806
ff02f7e9fdf5fcf603ebfd0d0df5fa19fc0ee3ffd81eeae8c71e06e1df0e2bf009e81e040ff50c1e
0a04f608ff00f612fafff60afe05f504ff0af9f9000a09f6ef070f00f40415fafe0611f2f90210fa
17fbf4cf0e09fcdf1c0ef9fe2cf3f81411fbfb16f908f4fd0418f4000d17f416f8021632f9fc1443
e41cfb19da0af9fcddfef1fef5e4f8fe07e902fd170bfff9121d1df4101927ec0e080cea0409f5f6
01eee9f6efe2e2eefae8f007f1fc0922e60a2f26fd172e08132d0ce9161cf4ef14fcf6f50bf0fffb
f8080ce8001209eb021808f50e12feed0cfc04fb00ec060df6e40c0ef6f1080dfcffff0c090af805
ecfc020af0050d05f60c1003fb0111f901fe0df908fc12ff10f0f1fd13f4dff91cfee3051306f4ff
f1ec03fcecf40efef5ee060aead70b0cf9d3050d04e90b061106fbf81201f8d71003efe80f090d06
00fe12e8170113e5f9030efbfbfd10f6e4ea000eeae8fc17edfb0e1cf00bf216160cf0031b09dbf8
a0dcf7e1baf210bbe91cffcaf71a0ab10b0b11d71fedf2fc19f1060f0bfb0c201efaee2422240925
feeefbf3f2ec02fefdf306f3eb0426ff01122312080611020b07f0f912fbe20d0312ea020713f4fa
0808fefa04070102ed060809f0fa0b08e5fb0709ee03fdfdee18f8edf7270de804140ef206f80b05
09fb21f8fa070ffff60401f9fc0108f8fa010cfb01f80c04f7fefa0af40df8f6fd10f4f7fe06e5fe
44b8f50522c6031007cc0a23ecc20f23f4daf70002f7f3fa0ffdf6f8190dfc0d06150210fc19fff8
